<pad>	0
<s>	0
</s>	0
<unk>	0
▁	-2.64245
,	-3.15858
s	-3.30119
▁.	-3.32519
▁the	-3.43368
;	-3.74358
▁&	-3.78045
▁to	-3.96799
apos	-4.04452
▁a	-4.07652
▁of	-4.11104
▁and	-4.17982
▁that	-4.36833
▁I	-4.39247
▁in	-4.51574
y	-4.54324
▁is	-4.68452
▁you	-4.71156
▁it	-4.72574
ed	-4.73489
ing	-4.73726
▁we	-4.85021
▁And	-5.05691
t	-5.06292
▁be	-5.12013
ly	-5.13254
this	-5.14683
d	-5.19529
quot	-5.26721
▁was	-5.40094
▁for	-5.45847
▁with	-5.51918
▁are	-5.54889
▁have	-5.55347
▁on	-5.61399
▁can	-5.66219
▁--	-5.6781
re	-5.69344
-	-5.70781
▁So	-5.72616
▁what	-5.73583
▁about	-5.80238
n	-5.80833
▁The	-5.81676
▁not	-5.95334
▁do	-5.96462
▁all	-5.96858
▁at	-5.99043
▁my	-6.03586
▁an	-6.04969
▁like	-6.05192
▁people	-6.06043
▁one	-6.06103
▁there	-6.09688
▁from	-6.10562
▁It	-6.11162
e	-6.11704
▁so	-6.12096
m	-6.18934
▁but	-6.21327
▁as	-6.227
cause	-6.2311
:	-6.2377
▁our	-6.25078
▁just	-6.2735
▁We	-6.29253
▁us	-6.3069
▁me	-6.30832
▁But	-6.32328
▁or	-6.3317
▁these	-6.3421
▁if	-6.34983
very	-6.36763
▁out	-6.37223
▁get	-6.37435
▁know	-6.3746
ve	-6.40607
▁when	-6.42386
▁by	-6.43069
▁them	-6.43149
▁up	-6.43546
▁more	-6.44339
▁he	-6.44593
▁see	-6.45175
▁some	-6.49379
▁had	-6.498
▁think	-6.51303
▁would	-6.5187
▁who	-6.51899
▁your	-6.52298
▁how	-6.53281
en	-6.54133
▁their	-6.54194
going	-6.55596
▁were	-6.55691
▁which	-6.56934
▁go	-6.58154
▁want	-6.58302
▁look	-6.5856
▁world	-6.69107
▁time	-6.69882
es	-6.7021
▁You	-6.72441
▁here	-6.72797
▁actual	-6.73136
▁has	-6.73553
▁Thi	-6.73583
▁way	-6.74844
▁other	-6.75519
▁into	-6.78486
▁could	-6.79907
▁don	-6.80221
▁then	-6.82104
▁did	-6.833
▁will	-6.84308
▁years	-6.84329
▁Now	-6.84762
er	-6.8515
▁now	-6.85559
▁make	-6.87894
▁things	-6.88491
▁where	-6.88885
▁say	-6.91174
▁reall	-6.94606
▁no	-6.94868
.	-6.98587
▁work	-6.98783
▁every	-6.99014
▁start	-7.00329
hose	-7.02646
▁need	-7.04046
▁something	-7.04788
▁two	-7.04958
▁right	-7.05496
▁than	-7.05623
▁much	-7.07123
▁first	-7.08498
▁take	-7.0987
▁call	-7.09874
lso	-7.09911
r	-7.09974
▁He	-7.10095
▁sai	-7.10415
▁talk	-7.10579
▁thing	-7.12582
▁over	-7.12753
▁life	-7.14849
▁In	-7.15256
ll	-7.15359
▁she	-7.15831
▁got	-7.16053
▁back	-7.16332
▁kind	-7.18034
▁lot	-7.18421
▁little	-7.18935
▁his	-7.20595
▁That	-7.21084
▁most	-7.21573
▁real	-7.22698
▁What	-7.24267
▁even	-7.24622
▁show	-7.26342
▁only	-7.27393
▁new	-7.27441
▁A	-7.2844
▁many	-7.30571
al	-7.31142
▁good	-7.318
▁any	-7.31926
▁different	-7.32519
a	-7.32775
▁change	-7.33499
▁her	-7.33798
ies	-7.35125
▁use	-7.36062
▁through	-7.36395
around	-7.36526
▁does	-7.37245
▁There	-7.41274
▁t	-7.42094
in	-7.42322
▁mean	-7.43037
▁down	-7.45165
day	-7.45616
▁come	-7.4923
▁same	-7.49699
l	-7.5065
▁Well	-7.51196
▁being	-7.52647
▁try	-7.53583
one	-7.54423
▁human	-7.54714
▁If	-7.54901
▁tell	-7.54983
▁may	-7.55177
▁three	-7.56327
▁put	-7.56408
▁day	-7.57556
▁part	-7.57912
▁great	-7.57949
▁doing	-7.61101
▁well	-7.63035
▁give	-7.64809
▁why	-7.65028
▁fact	-7.65548
▁percent	-7.65762
h	-7.66354
▁year	-7.66955
▁own	-7.6699
▁made	-7.67337
on	-7.68578
▁child	-7.68994
▁find	-7.69244
▁create	-7.69925
▁ask	-7.70701
▁happen	-7.71847
able	-7.72206
▁brain	-7.72311
▁should	-7.72983
▁idea	-7.73599
body	-7.74581
other	-7.75655
▁Be	-7.76182
▁important	-7.76464
▁Thank	-7.76538
▁thought	-7.77936
o	-7.77956
ic	-7.79027
▁let	-7.79855
▁love	-7.80078
▁last	-7.80241
ion	-7.80561
▁big	-7.80787
went	-7.81345
▁after	-7.81508
▁problem	-7.82798
▁end	-7.84282
▁before	-7.84697
▁might	-7.84937
ity	-7.85722
▁course	-7.85833
▁live	-7.8588
ren	-7.85927
▁help	-7.85942
w	-7.87371
▁him	-7.87481
▁never	-7.87779
▁How	-7.87926
▁example	-7.88556
▁better	-7.88663
▁off	-7.8971
▁still	-7.89866
▁story	-7.89966
▁learn	-7.91581
▁point	-7.91814
c	-7.92013
▁system	-7.92069
▁few	-7.92388
▁When	-7.93039
▁place	-7.9408
out	-7.94418
be	-7.94523
▁bit	-7.94705
▁next	-7.94897
▁question	-7.95713
▁together	-7.95721
ally	-7.95784
ther	-7.96052
▁each	-7.9661
▁came	-7.96947
▁turn	-7.98139
▁long	-7.98218
▁million	-7.98243
▁between	-7.98265
▁able	-7.99003
▁ago	-7.99511
▁p	-8.00334
▁design	-8.00561
ting	-8.00821
▁found	-8.00838
▁sort	-8.00933
▁believe	-8.01192
▁data	-8.0216
▁again	-8.02668
▁cell	-8.03261
▁play	-8.04406
th	-8.04563
▁become	-8.04595
▁understand	-8.04994
1	-8.05937
▁women	-8.06133
▁too	-8.06778
▁school	-8.07289
▁water	-8.07723
▁Wh	-8.08122
▁light	-8.09516
▁done	-8.10589
ce	-8.10775
le	-8.12049
▁technology	-8.12132
▁four	-8.13346
▁always	-8.14019
▁person	-8.14197
▁second	-8.14306
▁money	-8.15239
▁U	-8.15484
▁feel	-8.16211
▁10	-8.16875
▁un	-8.17038
▁whole	-8.17588
ok	-8.17717
▁power	-8.18906
▁experience	-8.19248
▁guy	-8.20073
▁working	-8.20352
▁home	-8.2056
▁away	-8.20568
▁information	-8.2087
ld	-8.20976
▁reason	-8.2109
▁ever	-8.21367
▁My	-8.21726
ves	-8.21807
▁S	-8.2193
▁country	-8.21977
▁food	-8.23086
▁kids	-8.23467
▁five	-8.26206
▁project	-8.26423
▁20	-8.26872
making	-8.27802
ever	-8.28031
▁case	-8.28079
ment	-8.28107
▁space	-8.28232
▁old	-8.28426
▁She	-8.28531
or	-8.2889
▁picture	-8.28976
▁small	-8.29086
▁moment	-8.29729
us	-8.29731
▁building	-8.29809
coming	-8.29878
est	-8.29959
▁social	-8.30694
▁number	-8.30789
▁health	-8.30864
▁future	-8.31166
▁One	-8.31277
ers	-8.31365
▁everything	-8.31736
▁develop	-8.32075
▁C	-8.32221
▁high	-8.32239
▁man	-8.32437
▁sense	-8.33094
▁form	-8.33156
quite	-8.33354
▁best	-8.33687
▁open	-8.33776
▁For	-8.3438
▁hard	-8.34876
▁bring	-8.35921
▁enough	-8.35926
▁left	-8.36508
▁thinking	-8.3661
▁answer	-8.36625
ation	-8.3737
▁No	-8.37672
▁less	-8.37795
▁T	-8.37852
▁energy	-8.37932
▁group	-8.38489
▁These	-8.38979
▁basic	-8.39069
▁name	-8.39259
▁process	-8.3943
▁image	-8.39689
▁hand	-8.40688
cross	-8.40795
▁E	-8.41199
ness	-8.41833
self	-8.42201
▁probabl	-8.42275
▁under	-8.42643
▁countries	-8.42896
▁grow	-8.43227
▁lives	-8.43317
▁build	-8.4352
▁science	-8.43645
▁job	-8.43771
S	-8.43781
▁Let	-8.44157
▁simple	-8.44392
▁business	-8.44401
g	-8.44681
▁room	-8.44734
▁keep	-8.4478
▁move	-8.44917
▁face	-8.44951
▁dollars	-8.45445
▁interesting	-8.45859
▁comes	-8.46513
▁seem	-8.4747
retty	-8.47777
▁large	-8.48069
▁else	-8.48396
▁mind	-8.48867
▁billion	-8.49167
▁such	-8.4934
▁allow	-8.49764
▁car	-8.5054
▁piece	-8.5057
aid	-8.50973
▁stuff	-8.51332
▁saw	-8.51423
▁language	-8.51875
p	-8.51958
▁half	-8.52024
ar	-8.52147
▁walk	-8.5226
i	-8.52351
▁inside	-8.52801
▁living	-8.52836
k	-8.52965
▁am	-8.53519
▁body	-8.53703
▁side	-8.53739
▁family	-8.53799
▁care	-8.53865
▁model	-8.54098
▁anything	-8.54649
▁far	-8.54886
▁bad	-8.55219
▁week	-8.55286
amp	-8.55774
▁share	-8.55969
▁complete	-8.56147
▁&#9	-8.56186
▁student	-8.56187
▁&#93;	-8.56187
▁men	-8.56378
▁set	-8.56541
▁later	-8.56681
u	-8.57311
▁wrong	-8.57474
▁All	-8.57497
▁while	-8.57549
▁book	-8.57658
▁particular	-8.57763
an	-8.57923
▁whe	-8.58232
▁single	-8.58496
ry	-8.58865
z	-8.58927
▁watch	-8.59099
yet	-8.59555
▁government	-8.59564
▁music	-8.60085
▁hav	-8.60214
▁New	-8.6033
▁young	-8.60365
▁global	-8.60388
▁B	-8.61021
▁close	-8.61661
▁control	-8.61865
▁hope	-8.62829
▁matter	-8.63059
▁myself	-8.63244
▁remember	-8.63254
▁area	-8.63259
▁makes	-8.63327
▁video	-8.63367
▁often	-8.6364
▁computer	-8.6385
▁b	-8.63898
▁certain	-8.64019
▁study	-8.6403
▁As	-8.64044
▁happens	-8.64213
▁imagine	-8.64423
▁American	-8.64582
▁difference	-8.64791
▁times	-8.64882
▁level	-8.64914
ready	-8.65038
▁seen	-8.65336
▁heart	-8.65366
▁TED	-8.65636
▁run	-8.66038
▁age	-8.66069
▁top	-8.66152
ch	-8.66292
▁realize	-8.66388
▁sure	-8.66438
▁possible	-8.6656
▁public	-8.66644
▁words	-8.66814
▁city	-8.66846
▁line	-8.67054
▁problems	-8.6746
▁community	-8.6762
▁read	-8.67864
▁nothing	-8.68287
▁six	-8.68409
▁once	-8.68601
▁true	-8.68661
▁saying	-8.68765
▁al	-8.68835
▁interest	-8.68937
▁exact	-8.69226
▁disease	-8.69226
▁both	-8.69355
▁Africa	-8.69575
▁art	-8.69872
▁head	-8.7001
where	-8.7024
ten	-8.70444
▁figure	-8.70647
▁individual	-8.70694
▁research	-8.70792
▁almost	-8.7111
▁entire	-8.71519
▁spend	-8.71893
▁amazing	-8.72017
▁test	-8.72028
▁issue	-8.72282
less	-8.72318
▁order	-8.72583
▁couple	-8.72686
▁beautiful	-8.72854
▁State	-8.72859
came	-8.73152
b	-8.73252
▁days	-8.7338
▁Earth	-8.73697
as	-8.73947
▁heard	-8.74461
▁final	-8.75085
▁decided	-8.75278
▁ideas	-8.75439
▁environment	-8.75554
▁ga	-8.75567
▁patient	-8.7569
▁history	-8.7575
taking	-8.76369
▁past	-8.76797
▁universe	-8.76967
▁value	-8.76967
▁built	-8.7736
▁ways	-8.77407
▁cost	-8.77469
▁200	-8.77517
▁house	-8.7775
▁word	-8.77971
▁Unite	-8.78067
▁stories	-8.78384
▁hundred	-8.78554
▁societ	-8.78668
▁night	-8.78672
▁Oka	-8.78982
▁30	-8.7941
▁education	-8.79682
▁To	-8.80229
▁unti	-8.80697
um	-8.807
▁cancer	-8.80715
is	-8.80766
▁Every	-8.81048
▁huge	-8.81084
▁self	-8.81169
▁months	-8.81245
▁follow	-8.81394
▁stop	-8.81711
▁minutes	-8.82533
▁ra	-8.82874
▁woman	-8.83262
▁game	-8.83571
▁per	-8.83836
▁quick	-8.84035
▁sound	-8.84333
msel	-8.8434
▁planet	-8.84431
▁de	-8.84432
▁though	-8.84498
▁hear	-8.8491
▁economic	-8.84955
▁Internet	-8.85168
▁50	-8.85401
▁war	-8.85665
▁friends	-8.857
▁China	-8.8574
▁focus	-8.85923
▁Do	-8.86218
▁kne	-8.86546
▁...	-8.86721
▁team	-8.86928
▁D	-8.86977
—	-8.87086
▁state	-8.87717
▁clear	-8.87955
▁mov	-8.88037
▁leave	-8.88059
stead	-8.88132
▁Or	-8.8823
▁teacher	-8.88278
▁challenge	-8.8848
▁pay	-8.8904
▁experiment	-8.89155
▁force	-8.89447
▁population	-8.89567
▁nature	-8.90034
▁happening	-8.90103
▁term	-8.90317
▁hours	-8.90614
▁free	-8.90924
▁M	-8.91137
▁mother	-8.91452
▁oursel	-8.91648
▁listen	-8.91714
▁since	-8.91844
ability	-8.91963
age	-8.92196
against	-8.92235
▁g	-8.92589
old	-8.92865
▁plant	-8.94005
man	-8.94256
▁natural	-8.94419
▁won	-8.94438
▁paper	-8.94519
not	-8.94522
el	-8.94677
▁Oh	-8.94781
▁At	-8.94888
▁view	-8.94925
▁front	-8.95057
▁machine	-8.95453
▁sometimes	-8.95538
▁must	-8.95558
▁explain	-8.95656
▁hold	-8.96171
▁company	-8.96414
▁difficult	-8.96627
▁pe	-8.96929
▁America	-8.96968
▁India	-8.97005
▁lead	-8.97351
▁structure	-8.97601
▁outside	-8.97792
▁eat	-8.97829
▁color	-8.9802
▁third	-8.98135
▁father	-8.98347
▁kill	-8.98544
rhaps	-8.98563
▁powerful	-8.98599
ta	-8.98713
▁God	-8.98748
▁questions	-8.98882
▁simpl	-8.98945
▁bigge	-8.99269
▁100	-8.99318
ur	-8.99357
▁buy	-8.99454
▁w	-8.99722
▁works	-8.99925
▁oil	-9.00079
▁amount	-9.00237
▁happy	-9.00315
▁places	-9.00387
▁full	-9.00585
▁Some	-9.00679
▁dur	-9.0102
to	-9.01119
▁discover	-9.01185
up	-9.01308
▁market	-9.01621
gan	-9.01818
▁along	-9.01927
▁early	-9.01982
▁culture	-9.02178
D	-9.02473
▁air	-9.02489
▁behavior	-9.02592
▁On	-9.02722
▁film	-9.02767
ton	-9.02861
2	-9.03404
▁learning	-9.03408
▁least	-9.03915
▁species	-9.04047
▁risk	-9.04205
▁act	-9.04371
▁black	-9.04375
ive	-9.04499
▁personal	-9.04709
▁15	-9.04783
year	-9.05148
▁short	-9.05283
▁death	-9.05545
▁program	-9.05578
▁middle	-9.05998
▁produce	-9.06322
▁feeling	-9.06522
▁easy	-9.06938
▁choice	-9.07175
▁poor	-9.07181
▁object	-9.074
land	-9.075
▁yourself	-9.07596
▁wait	-9.07649
▁save	-9.0816
te	-9.08254
▁fall	-9.08272
▁deal	-9.08284
▁media	-9.08344
▁local	-9.08552
▁political	-9.08555
▁dream	-9.08845
▁animals	-9.09197
behind	-9.09282
▁seven	-9.09537
▁land	-9.09638
▁P	-9.09841
▁add	-9.09847
▁speak	-9.10466
▁relationship	-9.10545
▁thousand	-9.11129
▁support	-9.11528
▁present	-9.11753
▁die	-9.11843
▁rest	-9.11903
▁compani	-9.11977
▁device	-9.12523
▁major	-9.12628
▁physical	-9.12772
▁size	-9.12809
▁stay	-9.1288
▁fel	-9.12989
▁friend	-9.13039
▁century	-9.13241
cy	-9.13367
it	-9.13477
▁40	-9.13555
▁systems	-9.13585
▁common	-9.13774
▁exist	-9.13992
▁stand	-9.13995
▁normal	-9.14192
▁safe	-9.14552
▁wonderful	-9.14562
5	-9.14623
▁eyes	-9.14739
▁phone	-9.14784
▁doctor	-9.14795
▁pick	-9.14875
▁fear	-9.14955
▁obvious	-9.15139
▁access	-9.1529
▁boy	-9.15343
▁People	-9.15822
▁fight	-9.15952
ism	-9.15997
ra	-9.16032
ter	-9.1606
▁beginning	-9.16083
▁pattern	-9.16089
▁spen	-9.16104
▁news	-9.16334
▁generation	-9.16749
▁deep	-9.16767
8	-9.17337
▁begin	-9.17381
▁los	-9.17447
▁drive	-9.17626
▁near	-9.17646
▁hit	-9.17698
▁longer	-9.17735
▁stage	-9.18174
▁resource	-9.18178
▁eight	-9.18922
▁wonder	-9.18952
▁organization	-9.18973
▁send	-9.19022
ous	-9.19023
ma	-9.1929
▁write	-9.1934
▁perfect	-9.19502
▁lab	-9.19741
▁reach	-9.1979
▁rate	-9.19856
▁condition	-9.20061
▁growth	-9.20108
▁An	-9.20162
4	-9.20527
f	-9.20549
▁service	-9.20578
▁tree	-9.20669
▁York	-9.20918
▁complex	-9.21082
▁notice	-9.2111
▁arm	-9.21154
▁center	-9.2145
C	-9.21567
,000	-9.2158
▁key	-9.21695
▁L	-9.21865
▁ground	-9.21971
ri	-9.22136
▁absolute	-9.22216
▁cool	-9.22222
▁hands	-9.22394
ither	-9.22398
▁step	-9.22417
ist	-9.22598
ian	-9.22663
ia	-9.2269
il	-9.22849
▁co	-9.22929
▁parents	-9.22948
▁Yes	-9.23106
ance	-9.23417
giving	-9.23601
▁green	-9.23764
▁impact	-9.2388
▁travel	-9.2416
▁cities	-9.24164
▁sun	-9.24201
▁solve	-9.24272
ard	-9.24592
la	-9.24743
▁voice	-9.24984
▁morning	-9.25005
▁movement	-9.25062
▁tried	-9.25403
▁F	-9.255
▁treat	-9.25519
▁Our	-9.25584
▁Can	-9.25867
lt	-9.25947
▁knowledge	-9.26143
lo	-9.26221
aught	-9.26416
given	-9.26422
▁average	-9.2643
▁material	-9.26471
▁girl	-9.26659
▁potential	-9.26717
▁Just	-9.27009
▁dead	-9.27013
▁low	-9.27217
▁audience	-9.27584
A	-9.27884
▁scale	-9.28085
▁Yea	-9.2809
▁attention	-9.28767
▁extreme	-9.29046
▁raise	-9.29067
▁O	-9.29127
▁message	-9.29377
▁opportunity	-9.29492
▁network	-9.29494
▁animal	-9.29501
▁English	-9.29637
▁reality	-9.29651
▁DNA	-9.29934
▁strong	-9.29984
▁slow	-9.30146
▁break	-9.30217
▁sleep	-9.30262
op	-9.30351
▁Al	-9.30478
▁innovation	-9.3053
▁train	-9.3057
▁field	-9.30793
credible	-9.30829
▁J	-9.30869
▁pass	-9.30875
▁economy	-9.31129
3	-9.3123
▁situation	-9.31432
rote	-9.31514
▁thank	-9.31607
▁born	-9.31693
▁eye	-9.31748
▁record	-9.31886
at	-9.32095
et	-9.32129
▁runn	-9.32182
9	-9.32229
▁With	-9.32659
▁blue	-9.32668
▁protect	-9.32874
▁sudden	-9.3295
▁nice	-9.32964
▁action	-9.33006
▁toward	-9.33098
▁result	-9.33254
gone	-9.33554
▁modern	-9.33565
▁studie	-9.33592
▁red	-9.33618
special	-9.33814
▁Right	-9.33875
▁main	-9.33882
▁consider	-9.34019
▁general	-9.34034
▁blood	-9.34052
▁sex	-9.34113
▁molecule	-9.34165
▁shape	-9.34202
▁product	-9.34231
▁base	-9.3447
▁Go	-9.34519
▁literal	-9.34565
▁pull	-9.3463
▁fun	-9.34768
/	-9.35431
▁moral	-9.35433
▁photograph	-9.35722
▁tools	-9.35895
▁Not	-9.3591
▁approach	-9.35915
▁fee	-9.35958
▁sitt	-9.36055
▁chance	-9.36063
K	-9.36253
▁climate	-9.36378
▁solution	-9.36494
▁increase	-9.36695
▁hospital	-9.37014
▁surface	-9.37333
changing	-9.37593
▁cut	-9.37658
▁fire	-9.37659
▁plan	-9.3778
ine	-9.37933
▁G	-9.37934
▁Chinese	-9.37975
▁affect	-9.3811
tic	-9.38131
▁success	-9.38216
▁creating	-9.38298
▁writing	-9.38507
▁measure	-9.38594
▁sign	-9.3861
▁bottom	-9.38621
rought	-9.38681
▁scientists	-9.38832
▁continue	-9.38866
▁met	-9.39203
▁12	-9.39252
▁sit	-9.39285
▁smart	-9.39304
▁camera	-9.3932
▁understanding	-9.3971
▁By	-9.4006
son	-9.40223
▁specific	-9.40256
ach	-9.40366
▁books	-9.40378
▁teach	-9.40634
by	-9.40673
▁region	-9.40707
ful	-9.41074
ate	-9.41099
▁class	-9.41103
▁alone	-9.41398
▁type	-9.41565
▁pre	-9.41574
▁meet	-9.4159
ond	-9.4205
ne	-9.42185
▁track	-9.42205
▁fail	-9.42249
▁late	-9.42443
▁baby	-9.42589
▁Where	-9.42608
▁online	-9.42853
▁guess	-9.42927
▁source	-9.42994
▁development	-9.43112
▁office	-9.43197
▁cover	-9.43247
▁ice	-9.43247
▁forward	-9.43282
▁truth	-9.43305
▁song	-9.43507
▁girls	-9.43896
▁white	-9.43959
▁manage	-9.43999
ul	-9.44049
▁box	-9.44078
▁provide	-9.44159
▁wall	-9.44168
▁needs	-9.44169
▁R	-9.44258
▁em	-9.4456
▁essential	-9.44634
▁kid	-9.44697
▁3	-9.44812
▁conversation	-9.44979
▁movie	-9.4511
ro	-9.45413
▁table	-9.45495
▁soon	-9.45657
▁rich	-9.4575
▁connect	-9.45756
▁ocean	-9.45793
▁fast	-9.46237
▁Google	-9.46369
▁village	-9.46369
▁fly	-9.46702
▁avail	-9.4672
▁sea	-9.46842
OK	-9.46868
▁suggest	-9.47031
▁theory	-9.47221
▁effective	-9.47393
▁World	-9.47426
▁o	-9.47429
▁non	-9.47481
▁numbers	-9.47586
▁18	-9.47643
▁current	-9.4778
▁push	-9.4778
▁25	-9.48171
▁fish	-9.48184
▁industry	-9.48493
▁telling	-9.48502
more	-9.48526
▁expect	-9.48574
▁activit	-9.48698
▁somebod	-9.4876
x	-9.48825
▁fundamental	-9.48852
incredibly	-9.48852
▁easi	-9.48877
▁H	-9.49014
▁asking	-9.49128
▁similar	-9.49211
▁goal	-9.49358
ling	-9.49696
taken	-9.49893
▁journey	-9.49935
ish	-9.49936
▁K	-9.5002
low	-9.50351
way	-9.50362
▁benefit	-9.50508
▁worth	-9.50757
ie	-9.50885
▁page	-9.5089
▁N	-9.5095
ci	-9.51021
▁street	-9.51129
▁collect	-9.51258
▁event	-9.51532
▁touch	-9.51665
kay	-9.5167
▁vision	-9.51743
▁South	-9.5204
head	-9.52093
▁favorite	-9.52138
▁equal	-9.52143
▁hole	-9.52252
▁dis	-9.52423
tion	-9.52467
▁dark	-9.52502
▁digital	-9.52518
▁waste	-9.52621
▁response	-9.52882
▁month	-9.52921
ent	-9.53181
▁happiness	-9.53447
▁connection	-9.53676
ial	-9.53814
▁spread	-9.53858
▁describe	-9.53873
▁among	-9.54017
▁trust	-9.54037
▁sell	-9.54074
▁robot	-9.54204
▁materials	-9.54346
▁map	-9.54508
▁Re	-9.54694
▁lose	-9.54719
▁technologi	-9.54742
▁direct	-9.54751
▁Europe	-9.54766
▁Pa	-9.54846
tiny	-9.54902
ck	-9.55074
▁creative	-9.5515
▁code	-9.55166
I	-9.55511
▁draw	-9.55523
▁wish	-9.55552
ich	-9.55707
hi	-9.55862
▁scientific	-9.55931
▁democracy	-9.56078
▁mine	-9.56104
time	-9.56119
▁fair	-9.56305
▁store	-9.56731
▁join	-9.56832
▁screen	-9.5686
▁effect	-9.56872
▁recently	-9.57066
▁successful	-9.57183
thousands	-9.57322
▁80	-9.57551
▁factor	-9.57736
▁games	-9.57744
▁miles	-9.57893
▁subject	-9.58245
▁evidence	-9.58257
▁mental	-9.58315
▁recognize	-9.58384
▁law	-9.58526
ated	-9.58553
▁secret	-9.58652
▁attack	-9.58653
▁offer	-9.58729
▁rules	-9.58897
N	-9.59001
▁content	-9.59067
▁position	-9.59185
▁special	-9.59251
▁nation	-9.59286
▁putting	-9.59345
▁drug	-9.59346
▁function	-9.59364
ver	-9.59396
▁memory	-9.59448
turned	-9.5957
▁yes	-9.59696
▁emotion	-9.59745
▁pro	-9.59755
▁f	-9.59898
ually	-9.59902
▁Don	-9.60098
▁transform	-9.60237
▁tend	-9.60458
▁fund	-9.60526
▁road	-9.6056
▁practice	-9.60595
▁After	-9.60652
▁First	-9.60652
▁carbon	-9.60738
▁artist	-9.60774
he	-9.60855
▁sounds	-9.60878
▁cars	-9.60936
▁Maybe	-9.6106
▁Of	-9.61064
▁Even	-9.61115
▁mass	-9.61239
▁post	-9.61314
▁medical	-9.61418
▁invent	-9.6145
▁necessar	-9.61464
▁block	-9.61468
ought	-9.6151
▁concept	-9.61616
▁W	-9.61628
ized	-9.6174
side	-9.61749
▁list	-9.6175
▁represent	-9.61847
bo	-9.61874
▁search	-9.62282
▁nine	-9.6231
▁60	-9.62475
▁tru	-9.62573
▁period	-9.62686
▁Ba	-9.63103
▁Look	-9.63116
▁West	-9.63836
▁crazy	-9.63938
▁East	-9.63939
▁11	-9.64081
how	-9.64187
▁pain	-9.64214
▁hot	-9.64233
▁choose	-9.64357
▁software	-9.64357
ol	-9.64402
▁degree	-9.64566
the	-9.64702
▁account	-9.6473
▁female	-9.64777
ary	-9.64793
am	-9.64823
ily	-9.65048
▁son	-9.65064
▁onto	-9.65196
ant	-9.65207
▁require	-9.65297
▁meaning	-9.65496
▁stick	-9.65616
▁surprise	-9.65622
▁throw	-9.65626
▁return	-9.65846
▁HIV	-9.66048
▁further	-9.66048
▁Are	-9.66122
▁De	-9.6613
▁revolution	-9.66148
▁shift	-9.66424
▁trial	-9.66488
▁stress	-9.665
▁tool	-9.66622
▁Who	-9.6683
▁national	-9.66874
▁plastic	-9.66904
7	-9.67122
▁remain	-9.67335
▁extraordinar	-9.67336
▁role	-9.67338
▁results	-9.67341
▁TV	-9.67346
▁wind	-9.67417
▁fit	-9.67535
▁violence	-9.67651
▁African	-9.67701
▁predict	-9.67989
▁door	-9.68161
▁appear	-9.68193
▁faster	-9.68336
▁leaders	-9.68355
▁quality	-9.68402
▁communities	-9.6864
▁c	-9.68729
eries	-9.6879
▁haven	-9.68825
▁context	-9.69079
▁led	-9.69087
na	-9.69109
▁treatment	-9.69118
▁male	-9.6923
▁wear	-9.69258
▁count	-9.69279
▁adult	-9.69491
▁expert	-9.69519
▁worse	-9.69519
▁indeed	-9.69521
▁fine	-9.69671
M	-9.69741
▁positive	-9.6984
▁John	-9.69958
▁surprising	-9.69961
▁engineer	-9.69982
6	-9.70006
▁gre	-9.70113
and	-9.70282
▁finish	-9.70283
▁several	-9.70407
▁solar	-9.70407
▁traditional	-9.70694
▁chemical	-9.70855
▁skin	-9.71045
▁fill	-9.71442
bodie	-9.71578
ical	-9.71578
▁finding	-9.71637
ti	-9.71646
▁decision	-9.71669
▁price	-9.71752
ge	-9.7205
▁virus	-9.72205
▁forest	-9.72225
▁income	-9.72327
▁Most	-9.72339
▁schools	-9.72376
▁connected	-9.72444
▁deliver	-9.72954
▁includ	-9.73081
▁peace	-9.73362
▁immediate	-9.73574
▁carry	-9.73641
▁War	-9.7365
▁decisions	-9.73657
▁letter	-9.73663
mo	-9.73675
line	-9.73879
T	-9.74401
▁famous	-9.74479
▁task	-9.74498
▁Act	-9.74506
▁super	-9.74544
▁clean	-9.74592
▁critical	-9.7461
▁publish	-9.74662
▁square	-9.74872
▁perspective	-9.74962
▁rise	-9.75033
▁drugs	-9.75081
▁win	-9.75106
▁lesson	-9.75155
ood	-9.75292
▁training	-9.7541
▁aren	-9.75412
▁Dr	-9.7574
▁genetic	-9.75819
▁math	-9.75918
▁version	-9.76109
▁minute	-9.76158
▁college	-9.76373
▁standard	-9.76398
co	-9.76538
▁website	-9.76845
▁direction	-9.76896
▁eventual	-9.76938
died	-9.77065
▁depend	-9.77087
▁bank	-9.77298
▁compassion	-9.77316
▁prevent	-9.77321
▁freedom	-9.77327
▁improve	-9.77363
▁hour	-9.77458
▁agree	-9.77791
▁poverty	-9.778
▁crisis	-9.778
▁wife	-9.77801
▁warm	-9.77841
▁90	-9.77866
id	-9.77945
▁bacteria	-9.78164
▁conflict	-9.78298
▁computers	-9.7832
▁North	-9.78323
▁mom	-9.78455
▁bas	-9.78678
▁visual	-9.79177
▁involve	-9.79269
▁David	-9.79277
▁politic	-9.79341
▁supposed	-9.79387
▁excited	-9.79398
light	-9.79425
kept	-9.79733
ha	-9.79805
▁sent	-9.80138
▁blind	-9.80205
▁effort	-9.80227
▁respond	-9.80227
▁con	-9.80235
▁please	-9.80321
im	-9.80554
▁speed	-9.80584
▁alive	-9.80772
▁lower	-9.80937
▁accept	-9.81215
▁exciting	-9.81215
▁strange	-9.81628
▁interact	-9.8166
▁possibilit	-9.81712
▁protein	-9.81712
▁earlie	-9.81713
▁remarkabl	-9.81825
▁path	-9.82096
▁visit	-9.82129
▁religion	-9.82212
▁meant	-9.82241
▁societies	-9.82395
B	-9.82484
▁board	-9.82532
magine	-9.82713
▁enjoy	-9.82714
▁target	-9.82714
▁above	-9.82718
▁argument	-9.82723
like	-9.82963
▁reading	-9.82987
▁skills	-9.83048
▁higher	-9.83197
▁financial	-9.8322
▁70	-9.83224
▁link	-9.8343
▁flow	-9.83475
▁institution	-9.83485
▁progress	-9.83674
▁famili	-9.83708
▁expensive	-9.83727
▁daughter	-9.83727
▁impossibl	-9.83739
▁typical	-9.83781
▁afford	-9.83898
▁purpose	-9.84099
▁smell	-9.84238
▁bunch	-9.84241
0	-9.84306
▁evolution	-9.84565
▁police	-9.8468
▁16	-9.84765
▁weight	-9.8495
▁policy	-9.84981
▁race	-9.85016
▁sand	-9.85057
▁involv	-9.85244
▁prison	-9.85265
▁medicine	-9.85266
▁concern	-9.85266
ors	-9.85285
▁perform	-9.85442
▁anywhere	-9.85484
▁cap	-9.85521
▁slight	-9.85545
▁products	-9.85752
▁Western	-9.85785
▁solutions	-9.86114
▁neurons	-9.86152
▁method	-9.86203
▁colleague	-9.86305
▁magic	-9.86311
▁familiar	-9.86344
▁17	-9.86486
der	-9.86512
▁foot	-9.86636
▁X	-9.86686
▁massive	-9.8674
▁straight	-9.86828
▁explore	-9.86833
▁Arab	-9.8712
▁window	-9.87358
▁funny	-9.8736
▁bus	-9.87404
▁reduce	-9.87488
▁Ma	-9.87618
▁Universit	-9.87626
▁site	-9.8763
▁larger	-9.87691
▁teaching	-9.877
▁Your	-9.8771
▁sexual	-9.87807
▁unique	-9.87887
▁decide	-9.8795
▁cold	-9.88294
▁Bo	-9.8833
ier	-9.88381
▁writ	-9.88429
▁cross	-9.88489
▁constant	-9.8895
▁dangerous	-9.88955
▁interaction	-9.88994
▁gas	-9.89009
▁usual	-9.89106
▁ready	-9.89259
refore	-9.89365
▁element	-9.89481
▁temperature	-9.89488
▁launch	-9.89489
▁Like	-9.89491
▁address	-9.89717
R	-9.89849
▁breath	-9.89897
▁saving	-9.90116
ad	-9.90161
▁career	-9.90176
▁14	-9.90312
▁roll	-9.90411
▁robots	-9.90445
▁tissue	-9.90577
▁shark	-9.90589
▁brother	-9.90598
▁signal	-9.90684
go	-9.90711
▁original	-9.90744
▁securit	-9.90759
▁photo	-9.90836
▁beauty	-9.91118
▁complicated	-9.91118
ize	-9.91134
▁paint	-9.91365
▁smaller	-9.9166
▁international	-9.91668
tally	-9.91669
though	-9.91899
▁luck	-9.92029
▁fuel	-9.92223
▁extra	-9.92224
▁influence	-9.92226
ber	-9.92308
▁Ne	-9.92376
▁increasing	-9.92412
▁rule	-9.92457
▁painting	-9.92604
▁total	-9.92698
com	-9.92729
▁serious	-9.92738
ir	-9.92849
▁scar	-9.92862
▁environmental	-9.93093
▁legs	-9.93247
▁babies	-9.93334
▁bone	-9.93387
▁types	-9.93435
▁communication	-9.93536
▁drop	-9.93616
ite	-9.93657
P	-9.9371
older	-9.93776
▁199	-9.9382
O	-9.93822
▁performance	-9.93841
lin	-9.93874
▁shot	-9.93892
▁fantastic	-9.93896
▁release	-9.93906
▁check	-9.94003
▁vote	-9.94044
▁spot	-9.94047
pa	-9.94193
ence	-9.94212
ac	-9.94213
▁humanity	-9.94322
▁report	-9.94345
▁heat	-9.94351
▁German	-9.94461
▁television	-9.94461
▁Afghanistan	-9.94461
▁terribl	-9.94462
▁shared	-9.94584
▁stopp	-9.94671
v	-9.94682
▁machines	-9.94789
▁sub	-9.94835
▁wild	-9.94933
▁trouble	-9.95029
▁active	-9.95103
▁dance	-9.95116
▁random	-9.9517
▁engine	-9.95207
pe	-9.95282
ley	-9.95335
▁genes	-9.95396
▁ultimate	-9.95601
▁speech	-9.95632
▁enter	-9.95644
▁architecture	-9.95667
cl	-9.95678
▁trade	-9.95759
▁bar	-9.9582
▁significant	-9.95916
▁card	-9.95934
▁birth	-9.96138
▁principle	-9.96176
▁Two	-9.96176
▁chair	-9.9618
▁radio	-9.96197
▁rock	-9.96226
▁press	-9.96262
▁achieve	-9.96456
▁cultural	-9.96459
▁survive	-9.96609
▁decades	-9.96687
▁identit	-9.96754
▁mobile	-9.96754
▁creativity	-9.96754
▁interview	-9.96754
▁instance	-9.96754
▁electricity	-9.96773
▁mention	-9.96801
▁surgery	-9.96915
▁researcher	-9.96988
▁ran	-9.97211
ng	-9.97221
▁separate	-9.97293
▁respect	-9.97296
▁creature	-9.97335
▁private	-9.97335
▁biology	-9.97336
E	-9.97411
▁production	-9.97418
▁underst	-9.9747
▁Me	-9.97488
▁park	-9.9765
ig	-9.97731
▁belief	-9.97806
▁invest	-9.97857
▁summer	-9.9792
▁Toda	-9.97932
▁brand	-9.9799
▁relative	-9.97992
ga	-9.98102
▁Ra	-9.98275
▁detail	-9.98343
▁wide	-9.98427
▁engineering	-9.9852
▁forth	-9.98524
▁13	-9.98586
ni	-9.98604
▁cook	-9.98723
ities	-9.98925
ship	-9.99053
▁honest	-9.991
▁failure	-9.99105
▁rain	-9.99305
▁poet	-9.99338
▁propert	-9.99518
▁From	-9.99534
▁dad	-9.99588
▁floor	-9.99695
ca	-9.997
▁star	-9.99732
▁useful	-9.99836
▁citizens	-9.99892
▁feed	-10.0016
ag	-10.0017
▁worker	-10.0021
▁sat	-10.0023
▁convince	-10.0029
▁emotional	-10.0039
▁gain	-10.0052
▁19	-10.0053
▁La	-10.0056
▁unit	-10.0058
known	-10.007
▁twi	-10.0085
ak	-10.0085
▁apply	-10.0085
▁coffee	-10.009
▁demand	-10.009
▁bread	-10.009
▁21	-10.0093
▁military	-10.0094
▁Indian	-10.0104
▁ball	-10.0128
▁Pe	-10.0133
▁compare	-10.0141
▁popular	-10.015
▁crime	-10.015
▁range	-10.0189
hand	-10.0203
▁except	-10.0207
▁vehicle	-10.0211
▁intelligence	-10.0211
▁central	-10.0211
▁email	-10.0212
▁passion	-10.0219
▁City	-10.0233
▁fix	-10.0246
▁neighborhood	-10.0273
▁classroom	-10.0273
upon	-10.0274
▁brains	-10.0275
▁recent	-10.0276
▁slide	-10.0286
▁communicate	-10.0289
▁meeting	-10.0305
▁technique	-10.0334
▁walked	-10.0362
▁text	-10.0366
▁landscape	-10.0397
▁sample	-10.0397
▁corner	-10.0404
▁forget	-10.0407
▁yea	-10.0414
ab	-10.042
tro	-10.0423
ible	-10.0431
▁Co	-10.0434
▁charge	-10.0459
▁physics	-10.0459
▁decade	-10.0466
▁Man	-10.0491
▁serve	-10.0515
▁destroy	-10.0522
▁Facebook	-10.0522
▁wealth	-10.0522
▁mo	-10.0526
▁generate	-10.0529
▁complexity	-10.0531
ke	-10.0547
▁Many	-10.057
wise	-10.057
▁conference	-10.0585
▁station	-10.0587
vi	-10.0603
▁drawing	-10.0604
▁speaking	-10.0606
▁fold	-10.063
$	-10.0649
▁nuclear	-10.0649
▁reward	-10.065
▁collective	-10.0651
▁document	-10.0661
▁cloud	-10.0666
▁aware	-10.0671
ble	-10.068
▁etc	-10.0699
▁London	-10.0713
▁drink	-10.0713
▁campaign	-10.0713
▁Bill	-10.0717
▁edge	-10.0723
tra	-10.0724
▁San	-10.0743
▁minds	-10.0757
H	-10.0773
▁profound	-10.0778
▁professional	-10.0783
▁24	-10.0788
▁zero	-10.0795
▁Ro	-10.0814
bi	-10.082
▁introduce	-10.0825
eath	-10.0839
▁His	-10.0841
▁afr	-10.0845
▁scientist	-10.0865
standing	-10.0867
ster	-10.0875
▁driving	-10.088
▁jump	-10.0884
▁Middle	-10.0908
▁virtual	-10.0908
▁worst	-10.0908
▁sentence	-10.0908
▁dying	-10.0917
▁oh	-10.092
me	-10.0927
▁highly	-10.0928
▁rid	-10.0931
▁Have	-10.0944
▁mission	-10.0953
▁define	-10.0968
▁universit	-10.0973
▁option	-10.0974
▁various	-10.0974
▁sister	-10.0978
▁birds	-10.0982
▁argue	-10.0982
▁inspired	-10.0992
▁cycle	-10.0992
▁web	-10.0994
▁stars	-10.0996
ba	-10.0997
▁election	-10.1
▁Z	-10.1009
ler	-10.1018
▁V	-10.1021
ide	-10.1028
▁catch	-10.1032
▁enormous	-10.104
▁husband	-10.104
▁instrument	-10.104
▁insect	-10.104
▁bear	-10.1051
▁glass	-10.1069
▁dog	-10.109
ham	-10.11
▁micro	-10.1102
▁root	-10.1106
▁expression	-10.111
▁Take	-10.111
▁realiz	-10.1112
▁willing	-10.1141
▁Her	-10.1143
▁meter	-10.1144
▁remind	-10.1169
▁Ho	-10.117
ade	-10.1173
▁disappear	-10.1173
▁river	-10.1174
▁vast	-10.1174
▁camp	-10.1175
▁Ver	-10.1187
do	-10.1189
gen	-10.1203
▁Mr	-10.1206
▁laugh	-10.1228
▁Y	-10.1235
os	-10.1239
▁genome	-10.1241
▁weapon	-10.1241
▁Think	-10.1241
▁radical	-10.1241
▁match	-10.1259
▁wood	-10.1284
▁town	-10.1296
▁California	-10.1309
▁algorithm	-10.1309
▁shar	-10.1331
▁careful	-10.1332
tuck	-10.1339
▁capacity	-10.1349
▁accident	-10.1356
▁double	-10.1371
▁investment	-10.1381
▁print	-10.141
▁networks	-10.1411
▁avoid	-10.1411
▁basi	-10.1416
▁balance	-10.1422
▁graph	-10.1424
▁apart	-10.1432
▁threat	-10.1432
▁galax	-10.1447
▁leadership	-10.1447
▁missing	-10.1462
▁possibl	-10.1494
po	-10.1501
ists	-10.1502
▁breast	-10.1516
▁component	-10.1516
▁sector	-10.1516
▁gift	-10.1516
▁supply	-10.1516
▁dramatic	-10.1517
▁flying	-10.1553
▁distance	-10.1562
▁urban	-10.1569
▁damage	-10.1574
▁hate	-10.1579
▁imagination	-10.1587
▁artists	-10.1598
▁sky	-10.1606
▁fashion	-10.161
▁plann	-10.1618
▁opportunit	-10.162
▁flu	-10.1635
▁dimension	-10.1651
▁Chris	-10.1653
▁autism	-10.1656
▁desire	-10.1656
▁evolve	-10.1665
▁streets	-10.1708
ture	-10.172
ember	-10.1722
ifi	-10.1726
▁responsibilit	-10.1727
▁expand	-10.1727
▁lack	-10.1728
▁la	-10.1743
▁Le	-10.1782
▁Second	-10.1799
▁airplane	-10.1799
▁corruption	-10.18
▁layer	-10.1827
ify	-10.1827
▁capital	-10.1835
base	-10.1837
un	-10.1854
▁Iraq	-10.1854
▁multi	-10.1861
▁express	-10.1865
▁neighbor	-10.187
▁Would	-10.1871
▁opposite	-10.1871
▁pressure	-10.1871
▁bridge	-10.189
▁advance	-10.1891
▁traffic	-10.1929
▁article	-10.1943
▁bubble	-10.1958
▁gap	-10.1979
▁gun	-10.1989
▁circle	-10.2001
▁legal	-10.2004
▁Am	-10.2008
▁encourage	-10.2016
▁universal	-10.2016
▁biological	-10.2021
▁anyway	-10.203
▁chose	-10.2038
▁none	-10.2042
▁St	-10.2056
▁Did	-10.2073
▁Fe	-10.2081
que	-10.2082
▁rare	-10.2086
▁equip	-10.209
▁application	-10.209
▁consequence	-10.209
▁infrastructure	-10.209
▁stem	-10.209
▁National	-10.2092
▁tough	-10.211
▁AIDS	-10.2115
▁European	-10.2119
▁hearing	-10.2138
G	-10.2145
night	-10.2145
▁miss	-10.2156
▁reflect	-10.2156
▁Again	-10.2164
▁reveal	-10.2164
▁oxygen	-10.2164
▁consciousness	-10.2165
▁party	-10.2169
▁divide	-10.2173
▁states	-10.2187
▁insight	-10.2195
▁engage	-10.2197
▁trick	-10.221
con	-10.2219
▁capture	-10.2225
▁net	-10.2226
ise	-10.2229
ub	-10.2233
term	-10.2235
▁bottle	-10.2238
▁civilization	-10.2239
▁receive	-10.224
▁Ri	-10.2245
▁spin	-10.2252
▁controll	-10.2267
ray	-10.2279
▁contain	-10.2279
ball	-10.228
▁definition	-10.2282
▁struggle	-10.2296
ip	-10.2303
thing	-10.2305
▁Great	-10.2314
▁password	-10.2314
▁Over	-10.2315
▁loss	-10.2322
▁members	-10.2328
▁hair	-10.2353
▁core	-10.2358
no	-10.237
▁mouth	-10.238
▁civil	-10.2385
▁responsibl	-10.2389
▁tremendous	-10.2389
▁wisdom	-10.2389
▁marrie	-10.2389
▁advantage	-10.2389
▁500	-10.239
▁Any	-10.2391
▁atmosphere	-10.2392
fa	-10.2394
ka	-10.2401
▁mountain	-10.242
▁Paul	-10.2445
per	-10.2447
▁sustainabl	-10.2463
▁scene	-10.2466
▁patent	-10.2466
▁broken	-10.2483
▁emerg	-10.2486
men	-10.2495
▁organism	-10.2495
▁dynamic	-10.2516
▁invite	-10.2518
▁surviv	-10.2541
▁French	-10.2543
▁ancient	-10.2543
▁magazine	-10.2543
▁museum	-10.2543
▁harm	-10.2544
▁tube	-10.2545
▁reaction	-10.2546
▁joy	-10.2546
▁background	-10.2547
ization	-10.2552
▁beat	-10.2577
▁evolv	-10.2577
▁Ka	-10.2587
ah	-10.2594
va	-10.2605
▁worry	-10.2609
▁Mi	-10.2612
▁architect	-10.2618
▁forever	-10.2619
▁Audience	-10.262
▁British	-10.262
▁outcome	-10.262
▁combine	-10.2623
▁consumer	-10.2627
▁promise	-10.2631
▁produc	-10.2638
mi	-10.2642
eating	-10.2651
▁sad	-10.2656
▁date	-10.2672
▁cheap	-10.2687
▁president	-10.2698
▁click	-10.2698
▁commercial	-10.2701
▁Big	-10.2713
▁Dan	-10.2714
▁cry	-10.2738
▁crowd	-10.2744
▁fac	-10.2752
▁author	-10.2752
▁statistics	-10.2759
▁Ca	-10.2762
▁ecosystem	-10.2777
▁newspaper	-10.2777
▁hurt	-10.2777
▁rapid	-10.2777
▁perception	-10.2777
▁operation	-10.2781
▁unlike	-10.2781
of	-10.2783
ot	-10.2785
▁pair	-10.2786
▁farm	-10.2789
▁sick	-10.2791
▁parent	-10.2806
diversity	-10.2806
▁grade	-10.2808
▁ship	-10.2808
▁quote	-10.2843
▁rough	-10.2851
▁location	-10.2856
▁Japan	-10.2856
▁horse	-10.2856
▁giant	-10.2856
▁analys	-10.2857
▁recover	-10.2857
▁injur	-10.2859
▁Sometime	-10.2859
▁suffering	-10.2861
▁deeply	-10.2879
ug	-10.2892
▁character	-10.2892
▁correct	-10.2892
▁foreign	-10.2895
har	-10.2899
▁Muslim	-10.2908
▁See	-10.2909
▁creation	-10.2915
▁photos	-10.2918
rit	-10.2925
om	-10.2928
▁metaphor	-10.2936
▁lunch	-10.2936
▁pop	-10.2946
▁noise	-10.2948
▁prove	-10.2955
▁dai	-10.2963
▁claim	-10.2964
▁grown	-10.297
▁Li	-10.2979
▁topic	-10.2982
▁fascinating	-10.2994
ex	-10.2996
▁strength	-10.3002
▁dot	-10.3004
L	-10.3012
▁identify	-10.3017
▁contact	-10.3017
▁chain	-10.3017
▁flight	-10.3018
▁smile	-10.3023
ram	-10.3028
▁notion	-10.3031
▁compar	-10.3032
▁Sh	-10.3043
di	-10.3044
ner	-10.3049
ically	-10.3054
▁bomb	-10.3058
ft	-10.3062
▁professor	-10.3098
▁error	-10.3098
▁dinner	-10.3098
▁Japanese	-10.3098
▁despi	-10.3099
▁Mo	-10.3103
▁br	-10.3104
▁labor	-10.3106
▁mid	-10.3108
▁Once	-10.3109
▁justice	-10.3115
▁foundation	-10.3121
▁note	-10.3125
▁tradition	-10.3127
U	-10.3129
▁201	-10.3138
ious	-10.3148
▁fully	-10.3163
▁regular	-10.318
▁strategy	-10.318
▁negative	-10.318
▁anti	-10.318
▁illness	-10.3181
▁shoes	-10.3182
▁politician	-10.3182
▁diet	-10.3184
dimensional	-10.3186
rry	-10.3222
ium	-10.3223
▁stream	-10.3224
▁litera	-10.3245
▁suffer	-10.3258
▁happi	-10.3261
▁Un	-10.3261
▁Brazil	-10.3262
▁George	-10.3263
▁proud	-10.3263
▁transformation	-10.3268
▁10,000	-10.3272
▁plane	-10.328
▁enable	-10.3299
state	-10.3314
▁due	-10.3315
▁Asia	-10.3321
▁master	-10.3323
▁300	-10.3335
▁puzzle	-10.3343
▁attempt	-10.3346
▁marriage	-10.3346
▁feature	-10.3346
▁unfortunate	-10.3346
fi	-10.3347
▁childhood	-10.3349
▁collapse	-10.3349
▁cave	-10.3353
▁moon	-10.3353
▁lay	-10.3381
▁laws	-10.3385
▁operat	-10.3392
ut	-10.34
▁trip	-10.3417
▁spirit	-10.342
▁economist	-10.343
▁sugar	-10.343
▁yellow	-10.343
▁GDP	-10.343
▁grand	-10.3431
▁gay	-10.3458
▁di	-10.3467
▁round	-10.3472
▁rat	-10.348
▁volunteer	-10.3515
▁competition	-10.3515
▁faith	-10.3515
▁particle	-10.3515
▁technical	-10.3515
▁interface	-10.3515
versus	-10.3515
▁employee	-10.3515
▁Good	-10.3517
▁ex	-10.3522
▁nurse	-10.3526
▁Iran	-10.354
▁metal	-10.3551
▁More	-10.356
▁bio	-10.356
▁users	-10.3569
io	-10.3579
▁graduate	-10.3584
▁seat	-10.3593
▁talent	-10.3601
▁display	-10.3601
▁brilliant	-10.3607
ger	-10.3609
▁include	-10.3641
▁narrative	-10.365
av	-10.3657
▁shop	-10.3662
▁farmers	-10.3677
▁wave	-10.3684
▁mix	-10.3685
F	-10.3685
▁da	-10.3685
▁novel	-10.3686
▁honor	-10.3687
▁cognitive	-10.3688
▁agenc	-10.3689
▁band	-10.3689
▁Ta	-10.3698
▁Green	-10.37
▁sequence	-10.3702
▁colon	-10.3702
▁2	-10.3717
▁therap	-10.3718
▁speaker	-10.375
▁sensor	-10.3757
wa	-10.3768
▁mess	-10.3772
▁killing	-10.3778
▁aspect	-10.3783
▁ideal	-10.3784
bu	-10.3785
▁leader	-10.3796
▁electrical	-10.38
▁mis	-10.3804
fe	-10.3806
▁gold	-10.3817
▁Vi	-10.3843
▁invisible	-10.385
▁writer	-10.3858
▁School	-10.3861
▁artificial	-10.3861
▁budget	-10.3861
▁mechanism	-10.3861
▁worri	-10.3861
▁hidden	-10.3861
▁motor	-10.3862
▁weird	-10.3863
▁designer	-10.3867
▁react	-10.3892
▁limited	-10.3906
if	-10.391
nstead	-10.3917
▁Art	-10.3918
▁Se	-10.3932
▁Mars	-10.3935
mp	-10.3936
ru	-10.3943
▁related	-10.3949
▁fresh	-10.395
▁official	-10.395
▁feedback	-10.395
▁finger	-10.3951
▁passionate	-10.3951
▁efficient	-10.3974
ap	-10.3978
▁Cha	-10.3989
▁spaces	-10.3993
▁effects	-10.3995
▁meat	-10.4005
▁Does	-10.4011
▁practical	-10.4014
▁app	-10.4018
▁vaccine	-10.4027
▁Mexic	-10.4037
▁198	-10.4039
▁opinion	-10.4039
▁succeed	-10.4039
▁lung	-10.404
pi	-10.4041
▁construction	-10.4042
▁depression	-10.4042
▁Israel	-10.4042
▁score	-10.4047
▁facilit	-10.4048
▁collection	-10.4049
▁dollar	-10.405
▁truck	-10.4052
▁Sun	-10.4056
right	-10.4059
▁sh	-10.4065
▁solv	-10.4078
▁Po	-10.4086
ow	-10.409
▁hopeful	-10.4104
▁profit	-10.4105
ee	-10.4111
▁island	-10.4123
▁infect	-10.4128
▁epidemic	-10.4129
▁leaving	-10.4129
▁mouse	-10.4129
▁1,000	-10.413
▁tumor	-10.4131
▁shock	-10.4132
rew	-10.4144
▁operate	-10.4154
▁proper	-10.4161
▁hop	-10.4163
ile	-10.418
▁pack	-10.4189
j	-10.42
▁discovery	-10.4201
▁Twitter	-10.422
▁drone	-10.422
▁switch	-10.4222
▁disaster	-10.4223
▁arrive	-10.4238
▁400	-10.4259
▁estimate	-10.4271
▁Australia	-10.4281
▁remove	-10.4285
▁Te	-10.4288
▁bag	-10.4296
▁discuss	-10.4308
▁Could	-10.4312
▁grandmother	-10.4312
▁platform	-10.4312
▁satellite	-10.4312
▁entertain	-10.4312
▁earth	-10.4314
▁pleasure	-10.4316
▁precise	-10.4317
▁sing	-10.4326
▁battle	-10.4328
▁chip	-10.4331
▁Mar	-10.4334
▁Th	-10.4344
ob	-10.4352
▁wire	-10.4387
ran	-10.4395
▁Con	-10.4397
▁frame	-10.4404
▁Einstein	-10.4404
▁exercise	-10.4404
V	-10.4405
▁odd	-10.4406
▁theater	-10.4408
▁era	-10.4408
▁surround	-10.4409
▁sp	-10.4411
▁highest	-10.4426
▁industrial	-10.4428
ack	-10.4439
board	-10.4439
ep	-10.4451
▁authorit	-10.4471
▁adapt	-10.4494
▁Washing	-10.4498
▁boat	-10.4498
▁chart	-10.4498
▁accurate	-10.4498
▁poll	-10.4507
▁invention	-10.4507
▁Ha	-10.4518
oc	-10.4525
▁symbol	-10.4531
ina	-10.4536
▁copy	-10.4547
▁Wom	-10.4567
▁swim	-10.4572
▁independent	-10.4577
▁phenomen	-10.458
ja	-10.4582
▁Hi	-10.4589
▁determine	-10.459
▁rural	-10.4592
▁ordinar	-10.4592
▁string	-10.4592
▁Yet	-10.4594
▁Ph	-10.4596
▁musician	-10.4599
▁voices	-10.46
▁Che	-10.4615
▁cat	-10.4629
▁detect	-10.4633
life	-10.464
wood	-10.4649
▁clinical	-10.465
▁Kenya	-10.4657
▁9	-10.4658
ago	-10.4681
▁translate	-10.4683
▁Come	-10.4685
▁blow	-10.4685
▁channel	-10.4687
▁sweet	-10.4687
▁distribution	-10.4689
▁worldwide	-10.4691
▁bike	-10.4696
ping	-10.4697
▁partner	-10.4705
▁po	-10.471
▁losing	-10.4722
ating	-10.4723
qui	-10.4728
▁sold	-10.474
▁fat	-10.4751
0,000	-10.4753
▁debate	-10.4754
off	-10.4779
▁conscious	-10.4781
▁pocket	-10.4784
▁garden	-10.4784
▁alternative	-10.4784
▁bright	-10.4786
▁discussion	-10.4788
▁Gra	-10.4795
▁pai	-10.4799
▁sustain	-10.4801
▁wheel	-10.4803
▁dry	-10.4811
▁matters	-10.4811
pit	-10.4814
▁replace	-10.4824
izing	-10.4832
work	-10.4845
og	-10.4846
▁mark	-10.4855
▁soil	-10.4864
▁organic	-10.4873
▁inter	-10.4879
▁Charles	-10.4881
▁England	-10.4881
▁coast	-10.4881
▁dozen	-10.4881
▁tax	-10.4902
W	-10.4903
▁gra	-10.4917
▁belong	-10.4923
▁spoke	-10.4929
▁chemistr	-10.4936
ice	-10.4952
▁4	-10.4954
ative	-10.4954
▁harder	-10.4972
▁leg	-10.4972
▁multiple	-10.4979
tor	-10.4979
▁suit	-10.4979
▁awful	-10.4979
▁atom	-10.498
▁peak	-10.4981
▁fellow	-10.4982
▁chicken	-10.4983
ants	-10.4983
▁carrie	-10.4991
▁robotic	-10.5008
▁characters	-10.5041
▁150	-10.5055
▁ride	-10.5057
bility	-10.5076
▁valuable	-10.5078
▁malaria	-10.5078
▁obes	-10.5081
▁label	-10.5083
led	-10.5085
▁hang	-10.5105
source	-10.5107
ang	-10.5108
▁Harv	-10.5113
▁categor	-10.5118
▁Jan	-10.5135
▁fiction	-10.5143
art	-10.5153
▁organize	-10.5155
▁gather	-10.5156
▁feels	-10.5157
▁comfortabl	-10.5158
▁illusion	-10.5178
▁Adam	-10.5178
▁curious	-10.5178
▁crack	-10.5178
▁adopt	-10.5178
▁desert	-10.5178
▁weather	-10.5178
▁reform	-10.5179
▁unexpected	-10.5179
▁bias	-10.518
▁teenager	-10.5181
▁assume	-10.5181
▁according	-10.5188
▁awesome	-10.5201
▁receiv	-10.5229
▁tens	-10.5233
▁organs	-10.5234
▁soldiers	-10.5253
▁demonstrate	-10.5255
▁row	-10.5261
▁MIT	-10.5279
▁Street	-10.5279
▁empty	-10.5279
▁mirror	-10.5279
▁muscle	-10.5279
▁incentive	-10.5279
▁survey	-10.5279
▁quiet	-10.5279
▁taste	-10.5279
▁Talk	-10.528
▁lock	-10.5281
10	-10.5283
▁skill	-10.5291
▁user	-10.5293
▁applie	-10.5295
▁occurr	-10.5299
▁vi	-10.53
▁fell	-10.5305
▁gene	-10.5308
▁kilometer	-10.5314
▁remote	-10.532
▁Di	-10.5323
rous	-10.5334
▁stoo	-10.534
ure	-10.5378
we	-10.5379
▁religious	-10.5381
▁symptom	-10.5381
▁variet	-10.5381
▁consume	-10.5381
▁musical	-10.5384
▁lifetime	-10.5402
▁burn	-10.5412
▁Canad	-10.543
▁King	-10.5444
▁Thom	-10.5463
▁Pro	-10.5478
▁grain	-10.5478
▁solid	-10.5484
▁animation	-10.5485
▁lawyer	-10.5485
▁intellectual	-10.5486
▁Mark	-10.5494
▁customer	-10.5503
▁curve	-10.5505
▁lie	-10.5507
▁continent	-10.551
▁toilet	-10.5526
▁Joe	-10.5545
ev	-10.5572
val	-10.5576
▁judge	-10.5584
▁extract	-10.5584
▁blog	-10.5586
▁danger	-10.5587
▁mortal	-10.5588
▁mosquito	-10.5588
▁stupid	-10.5588
▁evil	-10.5589
▁seriously	-10.5595
▁lift	-10.5601
▁Other	-10.5601
▁cutting	-10.5601
▁organ	-10.5604
▁pig	-10.5607
▁measur	-10.5615
▁7	-10.5629
▁actor	-10.5629
table	-10.5631
▁45	-10.5634
▁aging	-10.5639
▁fan	-10.564
uck	-10.5643
istic	-10.5655
cious	-10.5663
▁historical	-10.5672
▁govern	-10.568
▁equivalent	-10.5693
▁convert	-10.5693
▁democratic	-10.5693
▁flat	-10.5694
▁combination	-10.5694
▁transition	-10.5694
▁humor	-10.5695
sha	-10.5696
▁caus	-10.5698
▁pounds	-10.5709
▁setting	-10.5722
eeth	-10.5723
▁cow	-10.5725
▁resistan	-10.573
▁comment	-10.5739
▁Ru	-10.574
▁journalist	-10.5742
▁Their	-10.5749
▁rational	-10.5755
▁hell	-10.5762
▁broad	-10.5771
▁bees	-10.5771
▁driver	-10.5781
ek	-10.5782
▁Har	-10.5783
▁ring	-10.579
▁Michael	-10.58
▁regret	-10.58
▁charit	-10.58
▁doubt	-10.58
▁crop	-10.58
▁tomorrow	-10.5801
▁details	-10.583
▁demo	-10.583
▁intelligent	-10.5851
kin	-10.586
▁continu	-10.5867
▁penguins	-10.5868
ory	-10.5872
▁sight	-10.5875
▁sorr	-10.5887
▁tall	-10.5891
fore	-10.5897
▁tape	-10.5898
▁Mu	-10.5903
▁empathy	-10.5907
▁ingredient	-10.5907
▁liquid	-10.5907
▁gender	-10.5907
▁plate	-10.5911
▁apartment	-10.5911
▁criminal	-10.5921
▁Times	-10.5922
▁swimm	-10.5933
llo	-10.5938
▁mothers	-10.594
▁molecul	-10.5943
fer	-10.5944
▁Ju	-10.5979
ator	-10.5985
uar	-10.5987
▁Bu	-10.6005
▁maintain	-10.6016
▁nervous	-10.6016
▁telescope	-10.6016
▁Three	-10.6016
▁joke	-10.6016
▁review	-10.6017
▁motion	-10.6017
▁cup	-10.6022
▁Web	-10.6025
▁shapes	-10.6026
▁seek	-10.6026
▁protection	-10.6031
▁climb	-10.6037
▁appropriate	-10.6037
▁habit	-10.6038
▁pure	-10.6041
▁sheet	-10.6047
▁tail	-10.6052
▁closed	-10.6052
▁fourth	-10.6054
▁CO	-10.6056
▁bi	-10.6065
▁inner	-10.6071
tech	-10.6074
▁planets	-10.6088
▁tie	-10.6092
▁Day	-10.6104
▁Jam	-10.6122
▁GPS	-10.6126
▁equation	-10.6126
▁vessel	-10.6126
▁Pleas	-10.6126
▁enem	-10.6126
▁silence	-10.6126
▁grid	-10.6127
▁shame	-10.6127
▁opening	-10.6129
▁Free	-10.6131
▁35	-10.6136
ung	-10.6137
car	-10.614
▁clip	-10.6144
▁grandfather	-10.6147
▁knowing	-10.6149
▁extend	-10.6164
▁Si	-10.6185
J	-10.6187
▁li	-10.6188
▁prototype	-10.6193
▁nose	-10.6195
▁soul	-10.6202
▁bill	-10.6206
▁battery	-10.6237
▁psychology	-10.6237
▁contract	-10.6237
▁Richard	-10.6237
▁brief	-10.6237
▁fake	-10.6238
gs	-10.6241
▁memori	-10.6244
▁severe	-10.6247
▁whom	-10.6252
dom	-10.6258
▁ignore	-10.6263
▁tour	-10.6273
▁participate	-10.6278
▁gentlem	-10.628
▁undern	-10.6285
ua	-10.6291
▁relate	-10.6294
ai	-10.6327
▁shut	-10.6334
king	-10.6343
▁false	-10.6349
▁circumstance	-10.6349
▁department	-10.6349
▁staff	-10.6349
▁Life	-10.635
▁librar	-10.635
▁197	-10.635
▁definite	-10.635
▁tea	-10.6351
▁birthday	-10.6361
ko	-10.6363
▁refugee	-10.6364
▁Mc	-10.6369
▁reverse	-10.6374
▁printing	-10.6383
▁emissions	-10.6391
ended	-10.6392
ula	-10.6414
▁destructi	-10.6424
▁Brita	-10.6431
▁restaurant	-10.6432
▁scan	-10.6449
▁Tom	-10.646
▁phrase	-10.6463
▁vulnerabl	-10.6463
▁laptop	-10.6463
▁Center	-10.6463
▁2,000	-10.6465
▁Mon	-10.647
▁meaningful	-10.6472
▁section	-10.6477
▁Ben	-10.648
▁Stan	-10.651
▁soft	-10.6514
▁Los	-10.6525
▁exchange	-10.6533
▁credit	-10.6536
▁addition	-10.6538
▁consumption	-10.6538
▁provid	-10.6549
▁member	-10.6558
▁Jo	-10.6567
rtex	-10.6575
▁YouTube	-10.6578
▁rescue	-10.6578
▁loud	-10.6578
▁court	-10.6578
▁poem	-10.6578
▁sculpture	-10.6578
▁Angel	-10.6578
▁Robert	-10.6578
▁status	-10.6579
▁attract	-10.6579
▁studio	-10.6579
▁PM	-10.6581
▁cheat	-10.6585
▁se	-10.6587
▁calculate	-10.6587
▁inspiration	-10.6588
▁prefer	-10.6602
uc	-10.6607
▁players	-10.6609
▁analog	-10.6612
▁Fa	-10.6616
▁meal	-10.6633
so	-10.6644
▁folks	-10.6656
bur	-10.6657
▁victims	-10.6678
▁embrace	-10.6681
▁button	-10.6684
cal	-10.6684
▁contribute	-10.6691
▁roof	-10.6694
▁lecture	-10.6694
▁relevant	-10.6694
▁Since	-10.6694
▁conclusion	-10.6694
▁heavy	-10.6694
▁elder	-10.6694
▁wake	-10.6696
▁shadow	-10.6697
▁zone	-10.6697
▁flower	-10.6698
ped	-10.6701
ong	-10.6703
▁loop	-10.6718
gram	-10.6719
▁shoot	-10.6723
▁hide	-10.673
ification	-10.6737
▁clinic	-10.6739
over	-10.6753
▁knee	-10.6762
▁melt	-10.6778
▁wine	-10.6787
▁manager	-10.6789
▁conduct	-10.6794
▁Whil	-10.6794
▁amp	-10.6796
ey	-10.68
▁Congress	-10.6812
▁encounter	-10.6812
▁Haiti	-10.6812
▁dolphin	-10.6812
▁flash	-10.6812
▁lady	-10.6813
▁advertis	-10.6813
scale	-10.6814
▁drill	-10.6816
▁associate	-10.6817
▁expectation	-10.6819
▁fle	-10.682
▁Give	-10.6822
▁dense	-10.6826
▁Sea	-10.6831
▁cure	-10.6834
▁engaged	-10.6844
hu	-10.6849
ware	-10.6851
▁electric	-10.689
▁philosoph	-10.6892
▁bird	-10.6893
▁dogs	-10.6916
▁Su	-10.6925
▁grateful	-10.6931
▁iPhone	-10.6931
▁repair	-10.6931
▁jail	-10.6931
▁monkey	-10.6931
▁implication	-10.6931
▁float	-10.6931
▁desk	-10.6931
▁spectrum	-10.6933
▁Last	-10.6936
▁height	-10.6941
▁percentage	-10.6959
▁manufactur	-10.6975
▁apple	-10.6975
▁steps	-10.6997
▁celebrate	-10.702
▁mistakes	-10.7022
▁occur	-10.7028
▁Ga	-10.7038
▁marketing	-10.7044
▁cent	-10.7051
▁sophisticat	-10.7051
▁transplant	-10.7051
▁phase	-10.7051
▁initial	-10.7051
▁title	-10.7051
▁medium	-10.7052
▁Bank	-10.7052
▁2000	-10.7057
▁academic	-10.7059
gi	-10.7059
let	-10.7062
▁prediction	-10.7063
▁volume	-10.7084
▁importan	-10.7104
▁Car	-10.7104
▁designers	-10.7118
▁challeng	-10.7155
▁ear	-10.7158
being	-10.7163
▁threaten	-10.7166
iv	-10.717
▁empower	-10.7171
▁former	-10.7172
▁assumption	-10.7173
▁elephant	-10.7173
▁implant	-10.7173
▁unusual	-10.7173
▁instruction	-10.7174
▁forgot	-10.7174
▁lifestyle	-10.7176
▁season	-10.7177
▁wi	-10.7193
ose	-10.7201
▁fascinat	-10.7208
ward	-10.7223
▁handle	-10.723
▁graphic	-10.7258
stone	-10.7271
▁moves	-10.7275
▁8	-10.7288
▁May	-10.7292
▁transport	-10.7295
▁grab	-10.7296
▁establish	-10.7297
▁physicist	-10.7297
▁hydrogen	-10.7297
▁mushroom	-10.7297
▁regard	-10.7297
▁steal	-10.7297
▁framework	-10.7297
▁advice	-10.7297
▁dictionar	-10.7303
▁du	-10.7318
▁Sa	-10.7328
▁director	-10.7334
▁sum	-10.7354
berg	-10.7365
▁angle	-10.7371
rising	-10.7391
▁load	-10.7409
▁Lu	-10.7413
▁confus	-10.7418
▁admit	-10.7421
▁illegal	-10.7422
▁mathematics	-10.7422
▁polio	-10.7422
▁reference	-10.7423
▁winter	-10.7425
▁100,000	-10.7431
▁Hu	-10.7434
▁item	-10.7444
▁coal	-10.7454
▁player	-10.7458
▁75	-10.7464
foot	-10.7467
▁limit	-10.747
▁mechanical	-10.7475
▁cultures	-10.7487
▁6	-10.7497
▁dealing	-10.7509
▁host	-10.7543
▁innovative	-10.7548
▁intervention	-10.7548
▁milk	-10.7548
▁gravity	-10.7548
▁dirt	-10.7549
▁south	-10.7549
▁collaboration	-10.7549
▁Wow	-10.7551
▁pour	-10.7552
▁Bang	-10.7553
▁awareness	-10.7553
▁hall	-10.7557
gar	-10.7559
▁orbit	-10.756
visible	-10.7567
▁north	-10.7568
▁1,	-10.7618
▁heads	-10.762
▁Da	-10.7622
▁emergenc	-10.7658
▁illustrate	-10.7669
stream	-10.7675
▁concrete	-10.7677
▁economies	-10.7677
▁filter	-10.7677
▁hormone	-10.7677
▁length	-10.7677
▁harvest	-10.7677
▁witness	-10.7677
▁license	-10.7677
▁earthquake	-10.7677
▁primary	-10.7677
▁ritual	-10.7677
▁clever	-10.7677
▁judgment	-10.7677
▁rush	-10.7677
▁23	-10.7678
▁En	-10.768
▁productive	-10.7692
▁II	-10.7692
▁Sam	-10.7704
▁intense	-10.771
▁perceive	-10.7719
▁pen	-10.7725
▁Ten	-10.7726
▁Ven	-10.7736
what	-10.7745
▁peer	-10.7746
rus	-10.7792
▁Will	-10.7793
▁Science	-10.7806
▁client	-10.7806
▁privilege	-10.7806
▁vegetable	-10.7806
▁characteristic	-10.7807
▁panel	-10.7807
▁hip	-10.7807
▁Human	-10.7808
▁Child	-10.7808
▁pump	-10.7809
▁yester	-10.781
▁agent	-10.7815
min	-10.7819
▁tap	-10.7854
▁Swede	-10.7856
▁origin	-10.786
▁Gu	-10.7881
▁Bar	-10.7882
ntil	-10.7882
surance	-10.7885
point	-10.7894
▁Ke	-10.7899
▁sports	-10.7905
down	-10.7908
▁broke	-10.791
▁behavioral	-10.7913
▁emerge	-10.7921
▁Dere	-10.7925
▁attach	-10.7936
▁Obama	-10.7938
▁centuries	-10.7938
▁fruit	-10.7938
▁mathematical	-10.7938
▁barrier	-10.7938
▁inevitabl	-10.7938
▁coral	-10.7938
▁Paris	-10.7939
▁rocket	-10.794
▁3,000	-10.7942
▁abuse	-10.7943
▁improvement	-10.7945
▁pile	-10.7947
▁activist	-10.7949
▁fortunate	-10.795
▁statement	-10.7956
▁needle	-10.7956
▁confidence	-10.7974
▁programm	-10.7992
▁danc	-10.8002
▁internal	-10.8017
jo	-10.802
water	-10.8027
power	-10.8027
ain	-10.8029
▁El	-10.8031
▁pilot	-10.8035
▁dropp	-10.8039
back	-10.804
▁bor	-10.8042
▁improv	-10.8051
▁22	-10.8051
▁hat	-10.8055
ari	-10.8059
▁Smith	-10.8071
▁Girl	-10.8071
▁Institute	-10.8071
▁candidate	-10.8071
▁contrast	-10.8071
▁dinosaur	-10.8071
▁steel	-10.8071
▁chocolate	-10.8071
▁split	-10.8072
▁Christian	-10.8072
▁mistake	-10.8073
▁transportation	-10.8074
▁finance	-10.8076
ho	-10.8076
▁imp	-10.8081
▁select	-10.8085
▁behave	-10.8093
50	-10.81
▁circuit	-10.8103
▁Cam	-10.8119
tter	-10.8121
▁entrepreneur	-10.8124
▁Star	-10.8135
▁ho	-10.8143
top	-10.8146
▁previous	-10.8146
▁Bur	-10.8158
▁lies	-10.8171
ox	-10.8175
▁Russia	-10.8176
▁mal	-10.8187
▁agricultur	-10.82
▁Du	-10.8204
▁NASA	-10.8206
▁President	-10.8206
▁clue	-10.8206
▁computing	-10.8206
▁physician	-10.8206
▁mad	-10.8208
▁observation	-10.8208
▁hunger	-10.8208
▁infection	-10.8213
▁tank	-10.8213
▁nerve	-10.8213
▁painful	-10.8216
iness	-10.8219
▁attitude	-10.8221
pp	-10.8222
lic	-10.8224
▁Na	-10.8257
▁bug	-10.8261
▁bold	-10.8262
▁clock	-10.8276
well	-10.828
▁Wi	-10.8282
▁mountains	-10.8288
▁iron	-10.8298
▁prepared	-10.8299
▁hunt	-10.8303
▁thick	-10.8312
▁Ja	-10.8312
cific	-10.8318
ane	-10.8324
hour	-10.8326
ze	-10.8335
bb	-10.8341
▁TEDTalk	-10.8343
▁church	-10.8343
▁explanation	-10.8343
▁identical	-10.8343
▁kitchen	-10.8343
▁procedure	-10.8343
▁plent	-10.8343
▁Gulf	-10.8344
▁Martin	-10.8344
oxide	-10.8344
▁kick	-10.8344
▁frank	-10.8344
▁laser	-10.8346
▁interactive	-10.8347
▁2007	-10.8348
▁stock	-10.8349
▁suck	-10.8379
▁homes	-10.838
tries	-10.8387
▁input	-10.8388
af	-10.8399
▁sites	-10.8403
▁Nor	-10.8403
▁node	-10.8404
pho	-10.8404
▁protest	-10.8408
bra	-10.842
her	-10.8431
bar	-10.8432
▁Real	-10.8435
▁eggs	-10.8448
▁entrepreneurs	-10.8448
▁rap	-10.845
ches	-10.845
ris	-10.8455
▁Steve	-10.8457
ground	-10.8458
▁Pakistan	-10.8466
truck	-10.8467
half	-10.847
▁comfort	-10.8472
▁obsess	-10.8478
▁depress	-10.8479
Sahara	-10.8482
▁Wikipedia	-10.8482
▁implement	-10.8482
▁motivation	-10.8482
▁trait	-10.8482
▁Latin	-10.8482
▁biologist	-10.8482
▁Francisco	-10.8483
▁romantic	-10.8483
▁revenue	-10.8484
▁radiation	-10.8484
▁sustainability	-10.8486
▁Islamic	-10.8486
▁acid	-10.8486
▁hotel	-10.8487
▁afterward	-10.8487
ford	-10.849
▁golf	-10.8496
▁thin	-10.8503
▁border	-10.8512
▁philosopher	-10.8522
ility	-10.8528
long	-10.853
▁trend	-10.8533
unk	-10.854
ida	-10.8541
▁bare	-10.8548
▁poster	-10.857
▁earn	-10.857
▁Jer	-10.8579
▁trillion	-10.8623
▁deserve	-10.8623
▁crash	-10.8623
▁ladies	-10.8623
▁plot	-10.8623
▁footprint	-10.8623
▁globe	-10.8623
▁flag	-10.8623
▁greenhouse	-10.8624
▁commitment	-10.8625
▁Arm	-10.8625
▁Peter	-10.8626
▁existence	-10.8626
▁asset	-10.8628
▁apparent	-10.8639
▁quarter	-10.8641
▁Pole	-10.8642
▁vaccines	-10.8643
▁shoulder	-10.8644
▁aim	-10.8655
▁laboratory	-10.8658
▁breathe	-10.8658
▁videos	-10.8659
▁counter	-10.8661
Q	-10.8667
▁cartoon	-10.8674
ied	-10.8676
stage	-10.8693
▁parking	-10.8696
fully	-10.8703
▁automatic	-10.8706
▁plus	-10.8706
raising	-10.8708
00	-10.8712
▁van	-10.8733
▁stone	-10.8742
ngry	-10.8765
▁arrest	-10.8766
▁frog	-10.8766
▁immune	-10.8766
▁stroke	-10.8766
▁thumb	-10.8766
▁Christmas	-10.8766
▁dedicat	-10.8766
▁snow	-10.8766
▁minister	-10.8767
▁196	-10.8767
useum	-10.8767
▁1990	-10.8767
▁horrible	-10.8767
▁restore	-10.877
▁unknown	-10.8773
▁icon	-10.8773
▁appreciate	-10.8774
▁authentic	-10.878
▁activate	-10.8791
etic	-10.8792
▁clos	-10.8793
ov	-10.8798
▁uncle	-10.8807
▁repeat	-10.8822
mar	-10.8838
▁Nigeria	-10.888
▁burning	-10.889
nna	-10.8894
▁violent	-10.8896
▁abstract	-10.8907
▁confront	-10.8909
▁narrow	-10.8911
▁wheelchair	-10.8911
▁silent	-10.8912
▁1970	-10.8912
▁technological	-10.8912
▁frighten	-10.8913
▁pitch	-10.8916
▁engagement	-10.8916
▁headline	-10.8916
ttle	-10.8918
▁overall	-10.8918
▁route	-10.8919
▁lion	-10.8926
ocin	-10.8926
▁psychologist	-10.8951
▁pregnan	-10.8962
ou	-10.8966
ney	-10.8968
▁Bos	-10.8991
▁borders	-10.901
▁Basic	-10.9023
▁whale	-10.9026
▁arriv	-10.9029
ana	-10.9037
▁construct	-10.9053
▁conventional	-10.9054
▁spring	-10.9054
▁liberal	-10.9058
▁mammal	-10.9058
heimer	-10.9058
▁computation	-10.9058
▁fossil	-10.9058
▁knock	-10.9058
▁miracle	-10.9058
▁stretch	-10.9058
▁Nobel	-10.9058
▁Health	-10.9058
▁pool	-10.9059
▁boom	-10.9059
▁healthcare	-10.9059
▁underwater	-10.906
▁Six	-10.9061
▁Abou	-10.9061
attan	-10.9062
▁ha	-10.9065
▁propose	-10.9065
▁presentation	-10.9072
▁Del	-10.908
▁capabilit	-10.9083
▁liver	-10.9087
▁sensitive	-10.9087
▁decline	-10.9094
▁recycl	-10.91
lf	-10.91
use	-10.9104
▁shell	-10.9104
▁guide	-10.9104
ib	-10.9114
▁Get	-10.9117
▁fields	-10.9126
▁participat	-10.9128
ivity	-10.9131
▁Manh	-10.9133
▁tribe	-10.9137
oven	-10.9143
van	-10.9148
rate	-10.915
▁fabric	-10.9156
▁motivate	-10.9168
▁myth	-10.9174
▁defin	-10.9178
▁favor	-10.9183
▁argu	-10.9185
▁beach	-10.919
▁hack	-10.9195
chi	-10.9198
▁Sch	-10.9202
▁courage	-10.9206
▁Egypt	-10.9206
▁frequenc	-10.9207
▁France	-10.9207
▁cluster	-10.9207
▁balloon	-10.9207
▁session	-10.9207
▁presence	-10.9207
▁Revolution	-10.9207
▁Phil	-10.9209
▁pollution	-10.9209
▁Anyway	-10.9209
▁classic	-10.921
▁file	-10.9212
▁divers	-10.9214
ick	-10.9215
▁inequalit	-10.9218
hood	-10.9219
▁astonishing	-10.9223
▁firm	-10.9223
act	-10.923
▁upper	-10.9239
▁flowers	-10.9241
▁shake	-10.9243
call	-10.9245
class	-10.925
forward	-10.925
▁spreading	-10.9261
▁seal	-10.927
▁Ah	-10.929
ual	-10.9293
▁Sep	-10.9303
ff	-10.9336
▁trace	-10.9338
▁Ko	-10.9342
▁hous	-10.9346
spect	-10.9349
▁Four	-10.9357
é	-10.9358
▁froze	-10.9359
▁participant	-10.9359
▁permanent	-10.9359
▁request	-10.9359
▁sphere	-10.9359
au	-10.9359
▁bicycle	-10.9359
▁escape	-10.9359
▁calculation	-10.9359
▁condom	-10.936
▁announc	-10.9361
▁sweat	-10.9363
▁zoom	-10.9366
▁attend	-10.9367
▁heroes	-10.9372
▁storm	-10.9378
▁Eric	-10.9387
▁raw	-10.9392
▁donor	-10.9398
▁monitor	-10.9423
▁dress	-10.9424
▁exception	-10.9426
SW	-10.9437
▁Frank	-10.9441
▁Israeli	-10.9442
▁oceans	-10.9459
col	-10.9461
▁explor	-10.9467
▁educational	-10.9468
▁clouds	-10.9471
▁younger	-10.9471
▁arts	-10.9474
ign	-10.9478
ept	-10.9488
▁Sp	-10.9493
▁wise	-10.9499
▁pet	-10.9505
▁Islam	-10.9507
▁frustrat	-10.9508
▁install	-10.951
▁Project	-10.9513
▁afternoon	-10.9513
▁efficienc	-10.9513
▁cousin	-10.9513
shirt	-10.9513
▁cord	-10.9513
▁mystery	-10.9513
▁fluid	-10.9514
▁systematic	-10.9515
▁spill	-10.9515
▁regime	-10.9516
▁download	-10.9516
▁oxy	-10.9521
▁bond	-10.9522
▁bat	-10.9525
▁sheep	-10.9526
▁gray	-10.953
▁grass	-10.9539
▁relations	-10.9546
ik	-10.9554
gie	-10.9555
▁mapp	-10.956
▁inform	-10.9568
▁organiz	-10.9569
▁smoke	-10.9569
▁antibiotics	-10.957
▁hero	-10.9576
▁spiritual	-10.9577
▁edit	-10.9589
▁weak	-10.9598
▁ski	-10.961
▁cri	-10.9611
▁Lo	-10.9613
▁citizen	-10.9617
▁Final	-10.9621
▁habitat	-10.9638
ire	-10.9649
than	-10.9655
▁Lad	-10.9657
tive	-10.9658
▁Boy	-10.9667
▁Turk	-10.9668
▁Amazon	-10.9669
▁external	-10.9669
▁furniture	-10.9669
▁passenger	-10.9669
▁beetle	-10.9669
▁Eastern	-10.9669
▁pretend	-10.9669
▁99	-10.9671
▁wireless	-10.9672
tz	-10.9672
▁Part	-10.9672
▁Five	-10.9676
▁clothes	-10.968
▁Love	-10.9686
▁rebuild	-10.9689
▁microscope	-10.9695
▁struggl	-10.9705
▁rely	-10.9708
▁rating	-10.9711
▁spoken	-10.9718
▁strangers	-10.9721
▁invit	-10.9721
flies	-10.9738
▁committ	-10.9744
▁reduc	-10.9749
▁tune	-10.9762
▁disorder	-10.9774
▁guard	-10.9777
▁nor	-10.9824
verse	-10.9827
▁CEO	-10.9828
▁Rwanda	-10.9828
▁diploma	-10.9828
▁paradigm	-10.9828
▁Foundation	-10.9828
▁Congo	-10.9828
▁optimistic	-10.9829
▁agenda	-10.9829
▁Iranian	-10.9829
▁hill	-10.983
▁breed	-10.9831
▁prize	-10.9833
▁backward	-10.9837
▁vulnerability	-10.9842
ax	-10.9846
▁sacrifice	-10.9861
▁Pi	-10.9877
▁tip	-10.9881
▁defense	-10.9883
▁cast	-10.9891
cut	-10.9899
▁intuitive	-10.9908
▁king	-10.991
▁hire	-10.9911
▁owner	-10.9916
▁adventure	-10.9917
▁electron	-10.9921
▁Ed	-10.9922
▁weigh	-10.9925
umber	-10.9926
▁flip	-10.9934
▁exten	-10.9938
▁analyze	-10.994
▁Mad	-10.9945
▁maps	-10.995
▁portrait	-10.9971
CD	-10.9971
▁Hig	-10.9981
▁ancestor	-10.9989
▁ridiculous	-10.9989
▁Voice	-10.9989
▁Next	-10.9989
▁heaven	-10.9989
▁fiber	-10.9989
▁ticket	-10.999
▁Apple	-10.999
▁ignorance	-10.999
▁27	-10.999
▁elect	-10.9991
▁evolutionary	-10.9991
▁MRI	-10.9996
▁scratch	-10.9997
▁Jun	-10.9998
▁telephone	-10.9998
▁densit	-11
▁High	-11.0003
▁Kar	-11.0003
▁Chic	-11.0007
▁dish	-11.0019
▁faci	-11.0022
▁Red	-11.0026
uel	-11.0034
▁wars	-11.0034
▁bath	-11.0053
▁Mother	-11.0055
▁discipline	-11.0058
▁mail	-11.006
▁Bi	-11.0061
▁194	-11.0063
gun	-11.0071
▁beside	-11.0075
election	-11.008
▁processe	-11.0091
ark	-11.0095
▁stands	-11.0098
expected	-11.0102
cent	-11.0103
▁surgeon	-11.0109
house	-11.011
box	-11.0111
▁refer	-11.0135
▁boxe	-11.0147
▁pill	-11.0152
▁Antarctic	-11.0153
▁William	-11.0153
▁athlete	-11.0153
▁district	-11.0153
▁guarantee	-11.0153
▁depth	-11.0153
▁promote	-11.0153
▁yield	-11.0153
▁appeal	-11.0153
▁trigger	-11.0153
▁bribe	-11.0153
▁club	-11.0153
▁embedded	-11.0153
▁limb	-11.0153
▁ears	-11.0153
▁prisoner	-11.0153
▁Gates	-11.0153
▁flood	-11.0153
▁Prize	-11.0153
bucks	-11.0154
▁airport	-11.0154
▁wound	-11.0154
▁variation	-11.0154
pper	-11.0155
▁exploration	-11.0155
▁Bible	-11.0158
▁database	-11.0161
ki	-11.0169
▁cheaper	-11.0175
▁gut	-11.0188
uff	-11.0197
▁diagnose	-11.0199
aving	-11.02
▁stor	-11.0215
▁Gab	-11.0233
ica	-11.0238
▁Gi	-11.0241
▁imag	-11.0241
American	-11.0277
▁conflicts	-11.0281
▁min	-11.0287
▁functional	-11.0287
bridge	-11.0292
nda	-11.0292
ju	-11.0308
▁interpret	-11.0317
▁Darwin	-11.0318
nfortunate	-11.0319
▁column	-11.0319
▁crucial	-11.0319
▁senior	-11.0319
▁piano	-11.0319
▁demographic	-11.032
▁compound	-11.032
▁ensure	-11.032
▁hungry	-11.032
▁leap	-11.032
▁stack	-11.032
▁chest	-11.0327
▁imagin	-11.0329
▁orange	-11.0333
▁Valle	-11.0338
▁worm	-11.0353
▁Russian	-11.0357
▁Far	-11.0358
▁seeds	-11.0359
▁Hans	-11.036
▁engag	-11.0361
lves	-11.0364
▁figur	-11.0368
▁sides	-11.0382
▁metabol	-11.0384
▁fixed	-11.0394
▁Pat	-11.0398
▁kn	-11.0399
▁feeding	-11.0402
form	-11.0416
▁Thanks	-11.0433
row	-11.0435
▁sil	-11.0439
cro	-11.044
▁Yorker	-11.0446
▁command	-11.0451
rank	-11.0461
▁educate	-11.0464
▁observ	-11.0464
▁limits	-11.0473
Y	-11.0478
▁trans	-11.0483
▁strategi	-11.0485
▁exam	-11.0487
▁optimis	-11.0488
▁chromosome	-11.0489
▁corporate	-11.0489
▁obstacle	-11.0489
▁combat	-11.0489
▁gesture	-11.0489
▁suspect	-11.0489
▁abandon	-11.0489
▁predator	-11.0489
▁gear	-11.049
▁1960	-11.049
▁household	-11.049
▁conservation	-11.049
▁spell	-11.049
▁compell	-11.0491
▁plain	-11.0491
▁pace	-11.0491
▁leak	-11.0492
▁Van	-11.0503
ese	-11.0517
▁thanks	-11.0526
▁style	-11.0527
▁roads	-11.0528
▁Wall	-11.0535
rid	-11.0544
▁Tony	-11.0558
▁tribes	-11.0573
ight	-11.0578
oft	-11.0589
▁Dad	-11.0591
ether	-11.0591
rac	-11.0593
lock	-11.0594
▁Jim	-11.0605
all	-11.0609
▁viewer	-11.0612
can	-11.0613
PA	-11.0615
bru	-11.0621
▁wash	-11.0635
▁partners	-11.064
▁Tu	-11.0641
▁quest	-11.0658
▁Vietnam	-11.0661
▁strike	-11.0661
▁psychological	-11.0661
▁debt	-11.0661
▁retina	-11.0662
▁cake	-11.0662
▁1980	-11.0663
▁demonstration	-11.0663
▁translation	-11.0664
▁march	-11.0664
▁suicide	-11.0667
cus	-11.0668
BM	-11.0669
▁classical	-11.0688
▁utter	-11.0705
▁mate	-11.0709
▁anger	-11.071
▁5	-11.072
▁pin	-11.0722
▁para	-11.0723
vin	-11.0724
▁projection	-11.0729
▁stepp	-11.0739
oid	-11.0742
▁isolat	-11.0752
▁electronic	-11.0768
▁Ge	-11.0772
▁extinct	-11.0786
ably	-11.079
▁65	-11.0795
▁Pr	-11.0796
▁craft	-11.0823
▁associat	-11.0825
▁magical	-11.0831
▁NGO	-11.0837
▁Research	-11.0837
▁fifth	-11.0837
▁neuroscience	-11.0837
▁prosthetic	-11.0837
▁recipe	-11.0837
▁tunnel	-11.0837
▁diabet	-11.0837
▁origami	-11.0837
▁genius	-11.0837
▁distant	-11.0837
▁subtle	-11.0837
▁shall	-11.0838
▁kiss	-11.0838
▁Long	-11.0839
rctic	-11.0839
▁desperate	-11.0842
port	-11.0842
▁objective	-11.0846
▁alter	-11.0852
▁lit	-11.0854
pound	-11.0855
▁tag	-11.0868
▁conservative	-11.0871
▁norm	-11.0878
▁Time	-11.0883
▁fl	-11.0906
▁photography	-11.0906
▁quant	-11.0917
▁manag	-11.0919
lit	-11.0928
▁whales	-11.0931
lan	-11.0931
▁proof	-11.0942
Ex	-11.0951
▁ought	-11.0965
▁intention	-11.0978
▁Dur	-11.0983
q	-11.0986
▁murder	-11.0987
▁formula	-11.0989
▁mile	-11.0991
▁bow	-11.1002
▁surrounding	-11.1006
▁secure	-11.1009
▁reject	-11.1011
▁description	-11.1015
▁intrigu	-11.1015
▁privacy	-11.1015
▁sandwich	-11.1015
▁scenario	-11.1015
▁Peace	-11.1015
▁strip	-11.1015
▁vertical	-11.1015
▁rainforest	-11.1015
▁essence	-11.1015
▁shelter	-11.1016
▁orchestra	-11.1016
▁concert	-11.1016
▁elite	-11.1016
▁spark	-11.1016
▁resolve	-11.1016
▁kidney	-11.1016
▁representative	-11.1017
▁oppos	-11.1017
▁95	-11.1018
▁contribution	-11.1018
▁drum	-11.1018
▁blame	-11.1021
▁vital	-11.1022
▁Nothing	-11.1022
▁dung	-11.1023
▁dive	-11.1023
▁scanner	-11.1033
▁Cla	-11.1044
▁Ki	-11.1045
cha	-11.1049
▁winner	-11.105
dge	-11.1052
▁dose	-11.1056
▁resist	-11.1057
▁logic	-11.106
rick	-11.1061
ugh	-11.1065
▁instantly	-11.1067
▁award	-11.1076
▁anonymous	-11.1077
▁shopp	-11.1089
▁prime	-11.1089
▁Wal	-11.109
▁boundar	-11.1091
dependent	-11.1093
▁specialize	-11.1109
▁sail	-11.1124
iff	-11.1129
▁ratio	-11.1139
▁bull	-11.1141
▁excite	-11.1141
ound	-11.1142
ji	-11.1152
▁photographer	-11.1156
▁Nov	-11.1161
▁Rememb	-11.1174
▁pray	-11.1178
▁cloth	-11.1184
▁Ya	-11.1193
▁anxiety	-11.1197
▁complain	-11.1197
▁curiosity	-11.1197
▁substance	-11.1197
▁suspend	-11.1197
▁robust	-11.1197
▁Brown	-11.1197
▁northern	-11.1197
cellular	-11.1197
▁incident	-11.1197
▁expectanc	-11.1197
▁ultra	-11.1197
▁toxic	-11.1198
▁nonprofit	-11.1198
▁cooperation	-11.1198
▁pr	-11.1198
▁pause	-11.12
▁till	-11.12
▁lens	-11.12
fusion	-11.1201
▁ugl	-11.1202
▁coach	-11.1203
▁welcome	-11.1208
▁mall	-11.1212
▁inspiring	-11.1221
century	-11.1221
ria	-11.1224
ix	-11.1226
▁granted	-11.1239
▁600	-11.1241
Something	-11.1243
▁fears	-11.1266
▁Henr	-11.1276
teen	-11.1281
▁verb	-11.1295
fus	-11.1301
▁pie	-11.1301
meter	-11.1309
org	-11.1318
▁Win	-11.132
stan	-11.132
kind	-11.1327
▁sw	-11.1354
fur	-11.1358
▁recording	-11.1367
▁recogni	-11.138
▁Fellow	-11.1382
▁Should	-11.1382
▁absorb	-11.1382
▁cheese	-11.1382
▁pioneer	-11.1382
▁terrifi	-11.1382
▁Through	-11.1382
▁sauce	-11.1382
▁chaos	-11.1382
ology	-11.1383
▁smartphone	-11.1383
▁copyright	-11.1383
▁1950	-11.1384
▁26	-11.1387
▁MT	-11.1388
▁Per	-11.1391
▁tale	-11.1391
pr	-11.1391
▁accelerat	-11.1393
▁50,000	-11.1393
▁tower	-11.1397
acre	-11.1401
▁quad	-11.1415
20	-11.1415
▁Island	-11.142
level	-11.142
cher	-11.1424
▁ethical	-11.1424
▁None	-11.1426
▁sensory	-11.1426
▁Scott	-11.1428
▁officer	-11.1429
▁identifie	-11.1433
▁personalit	-11.1434
▁infinite	-11.1435
▁approv	-11.1453
path	-11.1471
digit	-11.1472
press	-11.1474
▁10-	-11.1479
made	-11.148
▁axis	-11.1485
hoo	-11.1489
▁cartoons	-11.1496
uch	-11.1504
▁defend	-11.151
▁US	-11.153
pur	-11.153
▁priorit	-11.1533
▁hid	-11.1535
ala	-11.1545
▁observe	-11.1546
▁Wil	-11.1558
▁pot	-11.156
▁Air	-11.1565
▁shocking	-11.1567
▁accomplish	-11.1568
▁adjust	-11.1571
▁alcohol	-11.1571
▁correspond	-11.1571
▁medication	-11.1571
▁tattoo	-11.1571
▁conclude	-11.1571
▁General	-11.1571
▁overcome	-11.1571
▁uncomfortabl	-11.1571
▁Listen	-11.1571
▁Depart	-11.1572
▁Nature	-11.1572
▁reduction	-11.1573
▁refuse	-11.1573
▁Lego	-11.1574
▁boss	-11.1576
▁wo	-11.1576
ndeed	-11.1576
▁killer	-11.1577
maker	-11.1577
▁lamp	-11.1578
lov	-11.158
▁dominant	-11.1588
plan	-11.1593
▁meetings	-11.1594
▁Mac	-11.1596
▁coin	-11.1616
force	-11.1628
word	-11.1644
ux	-11.1645
▁Matt	-11.1646
▁pan	-11.1649
▁inventor	-11.1654
▁cart	-11.1656
hai	-11.1659
▁magnet	-11.1675
▁shipp	-11.1677
wan	-11.1693
▁mere	-11.1697
▁Ken	-11.1712
▁dig	-11.1713
round	-11.1734
▁transfer	-11.1736
generat	-11.1748
▁concentration	-11.1763
▁intuition	-11.1763
▁parallel	-11.1763
▁ceiling	-11.1763
▁reconstruct	-11.1763
▁International	-11.1763
▁drove	-11.1763
▁regulation	-11.1763
▁trash	-11.1763
▁textbook	-11.1764
▁Grand	-11.1764
case	-11.1764
▁football	-11.1765
▁Park	-11.1765
▁transparency	-11.1765
▁Flor	-11.1766
▁dump	-11.1768
▁hook	-11.1769
▁2006	-11.177
▁Nation	-11.1771
▁salt	-11.1771
▁TEDx	-11.1773
▁agricultural	-11.1773
▁mentor	-11.1774
▁representation	-11.1774
▁slice	-11.1781
▁River	-11.1783
▁Marc	-11.1801
bble	-11.1805
▁prepare	-11.1807
▁sales	-11.1815
room	-11.182
two	-11.1825
aday	-11.1828
▁printer	-11.183
part	-11.1831
▁integrate	-11.1833
▁ethic	-11.1848
book	-11.1849
▁Lin	-11.1858
born	-11.1859
▁preserve	-11.1869
▁reported	-11.1874
lash	-11.1881
12	-11.1886
tric	-11.1888
▁suppose	-11.1904
▁shooting	-11.1911
▁employ	-11.1913
ash	-11.1921
▁dominat	-11.1921
▁Gar	-11.1923
▁attribute	-11.1935
▁locate	-11.1938
▁mimic	-11.1939
▁vot	-11.194
▁Was	-11.1951
▁capita	-11.1954
▁soup	-11.1957
▁Blue	-11.1959
▁disappoint	-11.1959
▁jazz	-11.1959
▁mutation	-11.1959
▁neural	-11.1959
▁protocell	-11.1959
▁paralyz	-11.1959
▁blend	-11.196
▁chapter	-11.196
▁partnership	-11.196
▁alien	-11.196
▁ruin	-11.196
▁bullet	-11.1961
▁Jack	-11.1961
▁keyboard	-11.1962
▁Space	-11.1962
▁195	-11.1962
▁exhibition	-11.1963
▁House	-11.1968
▁mice	-11.1976
▁uncertaint	-11.1978
▁20,000	-11.1979
▁peaceful	-11.1982
▁White	-11.1983
▁comic	-11.1984
▁victim	-11.1986
▁Gold	-11.1987
▁compromise	-11.199
▁homeless	-11.1992
bert	-11.1995
▁Pop	-11.2
▁nei	-11.2005
▁introduc	-11.201
▁farmer	-11.2014
▁expos	-11.2018
▁Col	-11.2024
▁nutrient	-11.2029
▁Cal	-11.2047
free	-11.2047
▁quit	-11.206
▁shine	-11.2068
▁bend	-11.208
ership	-11.208
▁tears	-11.2087
▁trends	-11.2088
ui	-11.2101
▁inspire	-11.2104
uk	-11.2109
lli	-11.2116
▁wings	-11.212
▁Chi	-11.2127
▁Korea	-11.2129
▁cats	-11.214
▁profession	-11.2141
net	-11.2149
▁exhibit	-11.2155
▁east	-11.2159
▁aesthetic	-11.2159
▁concentrate	-11.2159
▁exploit	-11.2159
▁explosion	-11.2159
▁unbelievabl	-11.2159
▁dialogue	-11.2159
▁probabilit	-11.216
▁brown	-11.216
▁resident	-11.216
▁tired	-11.216
▁consistent	-11.216
▁burst	-11.216
▁primate	-11.216
▁Centr	-11.216
▁Greek	-11.2161
▁lake	-11.2161
▁5,000	-11.2161
▁array	-11.2161
▁attractive	-11.2162
▁woke	-11.2162
▁Third	-11.2164
▁variable	-11.2164
▁mixed	-11.2165
▁Minister	-11.2167
▁output	-11.217
▁resilienc	-11.217
▁measurement	-11.2175
▁Men	-11.2176
▁Never	-11.2177
▁fortune	-11.2178
▁laid	-11.2179
▁Micros	-11.218
▁fir	-11.2186
▁package	-11.2187
bit	-11.2191
▁Moon	-11.2191
▁Hill	-11.2194
▁nest	-11.2203
iest	-11.2214
▁bell	-11.2226
ologist	-11.2241
▁pulse	-11.2248
▁cop	-11.2249
related	-11.2262
▁corn	-11.2262
minute	-11.2263
while	-11.2263
▁brave	-11.2263
clock	-11.2263
▁distribut	-11.2277
▁theme	-11.2278
▁repeated	-11.2284
itude	-11.2299
▁32	-11.23
ump	-11.2302
▁Make	-11.2307
▁hackers	-11.2317
▁250	-11.2347
for	-11.235
▁ill	-11.2353
▁stair	-11.2357
▁instinct	-11.2362
▁diagram	-11.2364
▁guilt	-11.2364
▁helicopter	-11.2364
▁hemisphere	-11.2364
▁phosphorus	-11.2364
▁pizza	-11.2364
▁traged	-11.2364
▁burden	-11.2364
▁Brian	-11.2364
▁schizophreni	-11.2364
ories	-11.2364
▁borrow	-11.2364
▁comparison	-11.2364
▁Bush	-11.2364
▁collaborative	-11.2364
▁torture	-11.2364
▁tendenc	-11.2364
▁Olympic	-11.2364
▁Lester	-11.2365
▁installation	-11.2367
▁pathway	-11.2367
▁mindset	-11.2367
▁limitation	-11.2367
▁33	-11.2369
▁hyper	-11.2371
▁achievement	-11.2373
▁highlight	-11.2374
▁Fl	-11.2376
▁darkness	-11.2376
▁Sir	-11.2384
▁Tell	-11.2394
▁marker	-11.2418
▁degrad	-11.2427
▁additional	-11.2436
▁Mom	-11.2459
assemble	-11.2459
▁magnetic	-11.246
▁intend	-11.246
▁freak	-11.2466
▁dancer	-11.2469
200	-11.2471
place	-11.2472
ection	-11.2477
▁tech	-11.2477
war	-11.2478
▁28	-11.249
▁ink	-11.2491
▁grave	-11.2506
▁instant	-11.2514
▁reli	-11.2518
▁Kan	-11.2523
grow	-11.2523
▁Design	-11.2534
▁industri	-11.256
▁Ap	-11.2567
▁Cu	-11.2569
▁Ghana	-11.2572
▁Uganda	-11.2572
▁entrop	-11.2572
▁frequent	-11.2572
▁routine	-11.2572
▁awkward	-11.2572
▁tragic	-11.2572
▁fulfill	-11.2572
▁Syria	-11.2572
▁psychopath	-11.2572
▁Koran	-11.2572
▁calorie	-11.2572
▁neat	-11.2572
▁electrode	-11.2572
▁Philip	-11.2572
▁loan	-11.2573
▁devil	-11.2573
▁dignit	-11.2573
▁Pol	-11.2575
▁gradual	-11.2578
▁slides	-11.2583
▁microbe	-11.2583
▁Sunday	-11.2586
▁detector	-11.2589
▁palm	-11.2591
▁geo	-11.2594
▁suggestion	-11.2596
▁electronics	-11.26
▁bless	-11.26
▁pad	-11.26
glasses	-11.2617
▁Wat	-11.2623
▁egg	-11.2624
▁soldier	-11.2626
▁investor	-11.2627
read	-11.2629
▁36	-11.264
▁experienc	-11.2647
▁describ	-11.2648
▁helpful	-11.2652
▁par	-11.2662
▁rape	-11.2662
away	-11.2665
▁achiev	-11.2671
▁typ	-11.2675
▁qualit	-11.2678
clear	-11.2681
▁bother	-11.2682
▁2.	-11.2689
▁acknowledge	-11.2689
▁urge	-11.2692
▁Fin	-11.2692
heart	-11.2698
▁nutrition	-11.27
▁sport	-11.2705
▁personaliz	-11.2708
dollar	-11.2711
erial	-11.2722
run	-11.2727
▁Up	-11.2734
▁mode	-11.2746
▁Ham	-11.2755
▁mat	-11.2756
▁gathering	-11.276
▁Sal	-11.2772
ku	-11.278
▁deploy	-11.2782
▁educat	-11.2784
resolution	-11.2785
▁Oxford	-11.2785
▁ceremon	-11.2785
▁curriculum	-11.2785
▁jihad	-11.2785
▁leather	-11.2785
▁profile	-11.2785
▁pyramid	-11.2785
▁recruit	-11.2785
▁tweet	-11.2785
▁chief	-11.2785
▁skull	-11.2785
▁delay	-11.2785
pleasant	-11.2785
▁thrill	-11.2785
▁garage	-11.2785
▁extension	-11.2785
▁relax	-11.2785
▁kingdom	-11.2785
▁stole	-11.2785
▁vo	-11.2785
▁boot	-11.2785
▁Wait	-11.2786
atrix	-11.2786
▁replicate	-11.2786
▁generous	-11.2786
orient	-11.2787
▁strongly	-11.2789
▁dust	-11.2789
▁synthetic	-11.2791
▁Back	-11.2793
▁glow	-11.2794
han	-11.2795
▁agreement	-11.2796
▁twist	-11.2798
▁wrapp	-11.2819
▁parasite	-11.2821
▁scann	-11.2822
fire	-11.2826
▁Count	-11.2828
ending	-11.2829
aunt	-11.2831
▁div	-11.2835
▁proportion	-11.2841
▁ban	-11.2847
▁experimental	-11.285
▁wipe	-11.2856
▁smok	-11.2869
▁kit	-11.287
▁programmer	-11.2871
▁sharp	-11.2872
▁Shar	-11.2874
▁neuron	-11.2876
▁tricks	-11.2881
▁confident	-11.289
ef	-11.2892
▁Port	-11.2922
bul	-11.2922
bro	-11.2936
▁coat	-11.2944
worth	-11.2944
▁Qu	-11.2947
olds	-11.2951
face	-11.2955
▁tri	-11.2961
▁underly	-11.2965
fold	-11.2966
▁port	-11.2971
▁Eve	-11.2979
▁bound	-11.2979
▁Ron	-11.2981
lick	-11.2982
▁Hol	-11.299
rays	-11.2994
▁distinct	-11.2997
ini	-11.2997
▁determined	-11.2997
▁releas	-11.2998
sky	-11.3001
▁Friday	-11.3002
▁Taliban	-11.3002
▁virtue	-11.3002
▁Soviet	-11.3002
▁Obvious	-11.3002
▁inherent	-11.3002
▁simplicity	-11.3002
▁federal	-11.3002
▁excellen	-11.3002
▁alarm	-11.3002
▁mask	-11.3002
▁broadcast	-11.3002
▁supermarket	-11.3002
▁breakthrough	-11.3002
▁poison	-11.3002
▁amaze	-11.3002
▁Jesu	-11.3003
▁hallucination	-11.3003
▁hypothesis	-11.3003
▁LED	-11.3003
▁infant	-11.3004
▁retirement	-11.3004
▁Super	-11.3004
▁reef	-11.3005
▁Stage	-11.3007
▁native	-11.3007
▁miserable	-11.3007
rail	-11.3009
aging	-11.301
▁pole	-11.301
▁pink	-11.3012
▁Jona	-11.3015
▁Show	-11.3018
▁format	-11.3019
▁Wa	-11.3019
▁autonomous	-11.3021
▁0.	-11.3023
▁wider	-11.3035
phy	-11.3035
ota	-11.3039
udi	-11.3041
▁insist	-11.305
▁remov	-11.3066
▁Kid	-11.3073
▁Carolin	-11.3082
▁tar	-11.3084
▁Edi	-11.3098
▁fate	-11.3105
▁drivers	-11.3113
fin	-11.3116
pro	-11.3139
▁occasional	-11.314
fish	-11.3151
boo	-11.3155
mega	-11.3157
ker	-11.3161
drive	-11.3196
look	-11.3201
our	-11.3203
▁Aristot	-11.3224
▁Beijing	-11.3224
▁December	-11.3224
▁Spanish	-11.3224
▁Square	-11.3224
▁chimpanzee	-11.3224
▁choosing	-11.3224
▁cigarette	-11.3224
▁fabulous	-11.3224
▁philanthrop	-11.3224
▁smooth	-11.3224
▁defeat	-11.3224
▁currenc	-11.3224
▁domestic	-11.3224
▁reserve	-11.3224
▁glad	-11.3224
▁nurtur	-11.3224
▁primari	-11.3224
▁Josh	-11.3225
▁silver	-11.3225
▁circulat	-11.3225
▁boil	-11.3226
▁Watch	-11.3226
▁wedding	-11.3226
▁jam	-11.3228
▁producer	-11.3229
▁mood	-11.3231
▁duck	-11.3234
▁innocent	-11.3235
▁Out	-11.3236
▁opera	-11.3239
▁fastest	-11.3241
▁genetically	-11.3241
▁prepar	-11.3243
▁Age	-11.3252
▁comedy	-11.3252
▁Steph	-11.3257
▁cable	-11.3257
▁constraint	-11.3263
▁Rea	-11.3273
▁Han	-11.3281
▁pal	-11.3284
▁enhance	-11.3292
▁Ji	-11.3301
▁penguin	-11.3307
▁tongue	-11.3314
▁youth	-11.3314
aba	-11.3314
Fi	-11.3314
▁interrupt	-11.3321
▁Bob	-11.3321
▁barb	-11.3325
liv	-11.3331
▁tear	-11.3332
▁twin	-11.3337
▁transmit	-11.3344
▁journal	-11.3347
▁statistical	-11.3351
▁serving	-11.3356
cou	-11.3365
▁Ti	-11.3406
ED	-11.3413
▁neuro	-11.3421
sleep	-11.3429
four	-11.3431
▁compete	-11.3432
ali	-11.3445
▁polle	-11.345
▁script	-11.3451
▁censor	-11.3452
▁bizarre	-11.3452
▁breakfast	-11.3452
▁glacier	-11.3452
▁simulation	-11.3452
▁suppress	-11.3452
▁transparent	-11.3452
▁flavor	-11.3452
▁pigeon	-11.3452
▁luxur	-11.3452
▁division	-11.3452
▁submit	-11.3452
▁damn	-11.3452
▁domain	-11.3452
▁spider	-11.3452
▁bedroom	-11.3452
▁harness	-11.3452
▁pursuit	-11.3452
▁weekend	-11.3453
▁cash	-11.3453
▁brutal	-11.3453
▁4,000	-11.3455
▁FG	-11.3455
▁warning	-11.3455
▁ecological	-11.3458
▁globalization	-11.3458
▁editor	-11.3463
ease	-11.3466
▁upload	-11.3467
▁southern	-11.3468
▁Op	-11.347
illi	-11.3471
some	-11.3474
▁sink	-11.3477
vill	-11.3478
▁disable	-11.3479
▁diagnosi	-11.3482
▁paradox	-11.3482
▁bite	-11.3494
▁2001	-11.3494
▁jet	-11.3494
▁wing	-11.3505
▁Holly	-11.3507
▁Sad	-11.3512
fel	-11.3545
active	-11.3551
▁texting	-11.3552
▁determin	-11.3561
▁cute	-11.3567
ani	-11.3577
▁diver	-11.3581
▁whistle	-11.3605
gging	-11.361
▁120	-11.3618
ulate	-11.3623
▁believ	-11.3632
▁wrap	-11.3648
rap	-11.3658
▁Ford	-11.3664
ridge	-11.3671
third	-11.3678
▁winn	-11.3678
percent	-11.3679
▁blank	-11.3683
▁unemploy	-11.3684
▁Abraham	-11.3684
▁August	-11.3684
▁despair	-11.3684
▁expedition	-11.3684
▁fragment	-11.3684
▁hierarch	-11.3684
▁marathon	-11.3684
▁pandemic	-11.3684
▁pharmaceutical	-11.3684
▁rethink	-11.3684
▁spectacular	-11.3684
▁unprecedented	-11.3684
▁veteran	-11.3684
▁smiling	-11.3684
▁Texa	-11.3684
▁Octo	-11.3684
▁naked	-11.3684
▁ubiquitous	-11.3684
▁geek	-11.3684
▁Daniel	-11.3684
▁grandchild	-11.3684
▁reinvent	-11.3684
▁magn	-11.3685
▁Egyptian	-11.3686
▁prosperity	-11.3686
▁crew	-11.3687
▁navigate	-11.3687
▁refrigerator	-11.3687
▁grandparents	-11.3688
▁artwork	-11.3688
▁upset	-11.3689
▁Lab	-11.369
horn	-11.369
▁cr	-11.3693
▁filmmaker	-11.3694
▁tension	-11.3694
AM	-11.3695
▁compet	-11.3695
▁awake	-11.3698
▁requirement	-11.3698
▁pose	-11.3701
▁arise	-11.371
waves	-11.3715
▁factories	-11.3729
aware	-11.373
▁chat	-11.3735
▁Sand	-11.3741
ank	-11.3744
▁clay	-11.3752
▁disorders	-11.3765
▁delivery	-11.3768
▁scal	-11.3772
▁Mos	-11.3774
▁fed	-11.3781
▁cube	-11.3801
▁heal	-11.3805
▁lega	-11.3805
▁nuts	-11.3817
▁Mov	-11.3822
▁via	-11.3824
▁Swed	-11.3831
▁joint	-11.3836
vity	-11.3842
coli	-11.3853
aged	-11.3862
frontal	-11.3863
▁circuits	-11.3866
▁rob	-11.3873
realistic	-11.388
▁gate	-11.3885
gh	-11.389
▁singer	-11.3894
▁shak	-11.3895
▁hanging	-11.3895
uction	-11.3904
▁prior	-11.3913
▁Oo	-11.3913
▁inject	-11.3919
▁Seven	-11.3922
▁fool	-11.3922
vascular	-11.3922
▁Academ	-11.3922
▁Charli	-11.3922
▁Neanderthal	-11.3922
▁Palestinian	-11.3922
▁Sudden	-11.3922
▁favela	-11.3922
▁strand	-11.3922
▁structural	-11.3922
Arthur	-11.3922
▁recess	-11.3922
▁rope	-11.3922
▁Wolf	-11.3922
▁lifespan	-11.3922
▁leaf	-11.3923
▁Stewar	-11.3923
▁aircraft	-11.3923
▁basket	-11.3923
▁assignment	-11.3924
▁Alex	-11.3924
▁recall	-11.3926
▁skeptic	-11.3927
▁85	-11.3929
▁homework	-11.3929
▁impression	-11.3929
▁lonel	-11.393
gli	-11.3932
spring	-11.3933
▁embodi	-11.3935
▁strain	-11.3941
▁tick	-11.3949
▁coordinat	-11.3951
deaf	-11.3951
▁manipulate	-11.3956
▁indoor	-11.3962
▁gang	-11.3966
▁dial	-11.3971
▁polic	-11.3972
rich	-11.398
hop	-11.3982
▁terrorist	-11.3983
▁restaurants	-11.3988
titude	-11.399
▁Tim	-11.3995
▁clon	-11.3995
▁conc	-11.4014
▁healing	-11.4021
▁previously	-11.4029
▁lotter	-11.4035
▁sta	-11.4036
▁dressed	-11.4063
▁Tit	-11.4074
▁shin	-11.4079
▁assembl	-11.4081
▁copie	-11.4084
▁Mor	-11.4086
▁tackle	-11.4087
urg	-11.41
▁brush	-11.4108
▁makers	-11.4108
air	-11.4111
ril	-11.4111
▁Mil	-11.4114
▁outer	-11.4114
▁Cyr	-11.4123
▁archive	-11.4124
▁integrat	-11.4128
▁stabilit	-11.4138
▁Dea	-11.4148
▁hum	-11.416
▁Islands	-11.4165
▁Afghan	-11.4166
▁Mandela	-11.4166
▁automobile	-11.4166
▁glimpse	-11.4166
▁register	-11.4166
▁terrifying	-11.4166
▁amateur	-11.4166
▁creator	-11.4166
▁pancrea	-11.4166
▁unconscious	-11.4166
▁expansi	-11.4166
▁compress	-11.4166
▁valley	-11.4166
▁bulb	-11.4166
▁Northern	-11.4166
▁bathroom	-11.4166
▁troop	-11.4166
▁flourish	-11.4166
▁arrow	-11.4166
▁Gandhi	-11.4167
▁signature	-11.4167
▁Social	-11.4167
▁backyard	-11.4167
▁flaw	-11.4167
▁grasp	-11.4167
ollege	-11.4167
▁bump	-11.4169
▁Kat	-11.4169
▁leverage	-11.417
▁collaborator	-11.417
▁fragile	-11.4171
▁radi	-11.4171
▁insane	-11.4173
▁refine	-11.4174
▁punch	-11.4174
load	-11.4175
▁Woo	-11.4179
▁nerd	-11.418
rum	-11.4185
friend	-11.4185
▁Home	-11.4185
▁dear	-11.4192
▁Map	-11.4198
shed	-11.42
three	-11.42
BC	-11.4205
▁shit	-11.4215
▁Atlant	-11.4215
▁Global	-11.4218
bye	-11.4223
▁expose	-11.4224
▁flexibl	-11.4234
▁temporar	-11.4242
▁overwhelming	-11.4247
▁tent	-11.425
▁bin	-11.4258
ception	-11.426
▁starv	-11.4264
▁fo	-11.4282
▁Dut	-11.4286
▁mayor	-11.4287
▁plug	-11.4289
matic	-11.4294
▁marine	-11.4307
star	-11.4319
lam	-11.433
law	-11.4331
▁bind	-11.4332
atory	-11.4352
▁Spa	-11.4361
▁tight	-11.437
▁55	-11.4383
▁compos	-11.4392
▁slums	-11.4404
▁combin	-11.4404
ange	-11.4407
▁Ever	-11.4409
▁acquire	-11.441
▁doors	-11.4412
▁retire	-11.4414
ndustrial	-11.4414
▁crystal	-11.4416
▁kilo	-11.4416
▁Indonesia	-11.4416
▁charming	-11.4416
▁confirm	-11.4416
▁simultaneous	-11.4416
▁Church	-11.4416
▁Ocean	-11.4416
▁civic	-11.4416
▁uniform	-11.4416
▁initiative	-11.4416
▁storytelling	-11.4416
▁stereotype	-11.4416
▁junk	-11.4416
▁tropic	-11.4416
▁contemporar	-11.4416
▁snake	-11.4416
▁Norden	-11.4416
▁shore	-11.4416
▁audio	-11.4416
▁neck	-11.4416
▁pipeline	-11.4417
▁Jewish	-11.4417
▁convey	-11.4417
▁Half	-11.4417
▁Coke	-11.4418
▁rice	-11.442
▁geometr	-11.4421
▁crush	-11.4421
▁Mexican	-11.4421
▁portion	-11.4421
▁proposal	-11.4421
▁appearance	-11.4422
▁denial	-11.4423
▁burie	-11.4423
▁Christ	-11.4425
▁workplace	-11.4427
▁manual	-11.4432
▁highway	-11.4433
▁interconnected	-11.4438
▁myceli	-11.4446
▁pond	-11.4447
▁devastating	-11.4454
▁panic	-11.4459
▁satisfy	-11.4459
▁specialist	-11.446
▁Same	-11.4461
▁chas	-11.4467
chan	-11.447
▁endless	-11.4476
▁Put	-11.4485
▁Bell	-11.4486
▁Shi	-11.4488
arch	-11.4497
▁bang	-11.4518
▁examine	-11.4532
▁Sure	-11.4538
▁commit	-11.4547
▁automat	-11.4551
step	-11.4552
▁sir	-11.4562
▁mechanic	-11.4563
▁democrac	-11.4565
▁rhythm	-11.4569
racing	-11.458
cost	-11.4581
ink	-11.4584
▁log	-11.4585
▁communicat	-11.4599
▁beating	-11.4627
▁Lea	-11.4634
▁horizon	-11.4647
▁polar	-11.4647
▁fanc	-11.4655
▁drag	-11.4664
▁ideolog	-11.4669
▁recommend	-11.467
▁pursue	-11.467
▁Jew	-11.4672
▁Detroit	-11.4672
▁Profess	-11.4672
▁commodit	-11.4672
▁endanger	-11.4672
▁fraction	-11.4672
▁garbage	-11.4672
▁guerrilla	-11.4672
▁membrane	-11.4672
▁insulin	-11.4673
▁Queen	-11.4673
▁Work	-11.4673
▁transmission	-11.4673
▁juice	-11.4673
▁Rosling	-11.4673
▁tiger	-11.4673
▁Iceland	-11.4673
▁casual	-11.4673
▁jaw	-11.4673
▁pride	-11.4674
▁Mike	-11.4674
▁Rome	-11.4674
▁contribut	-11.4675
▁29	-11.4676
▁Chile	-11.4676
▁hub	-11.4677
▁logical	-11.4677
▁Yo	-11.4678
▁strategic	-11.4679
▁ego	-11.468
▁TEDster	-11.468
▁annual	-11.4685
▁Music	-11.4688
▁Law	-11.4689
▁prop	-11.469
▁vari	-11.469
lace	-11.4695
▁sue	-11.4697
▁dough	-11.471
audi	-11.471
▁cod	-11.4719
▁appreciat	-11.4726
profit	-11.4742
X	-11.4743
▁offering	-11.4744
social	-11.4744
▁impress	-11.4747
▁Pri	-11.4751
▁Sta	-11.4758
ola	-11.4759
controll	-11.4759
alo	-11.4763
mount	-11.4764
▁freez	-11.4773
▁decrease	-11.4773
inch	-11.4777
▁distribute	-11.4777
pan	-11.4782
▁container	-11.4791
▁shower	-11.4802
▁Rob	-11.481
ulation	-11.4817
▁washing	-11.483
▁Roy	-11.4833
Qa	-11.4839
▁bored	-11.4856
▁thrive	-11.4857
town	-11.4858
eye	-11.4862
▁Wo	-11.4863
▁Andrew	-11.4871
▁Scot	-11.4872
shape	-11.4889
▁burned	-11.49
▁crows	-11.4903
▁architectur	-11.491
▁den	-11.4914
wandering	-11.4927
venue	-11.4933
▁Cambodia	-11.4936
▁Singapore	-11.4936
▁Swiss	-11.4936
▁Technolog	-11.4936
▁Virgin	-11.4936
▁Zealand	-11.4936
▁contagio	-11.4936
▁cylinder	-11.4936
▁disconnect	-11.4936
▁elevator	-11.4936
▁grocer	-11.4936
▁harbor	-11.4936
▁mathematician	-11.4936
▁shrimp	-11.4936
▁sponsor	-11.4936
▁excuse	-11.4936
▁asteroid	-11.4936
▁oyster	-11.4936
▁enterprise	-11.4936
▁Shang	-11.4937
▁Ann	-11.4937
▁towel	-11.4937
▁translat	-11.4937
▁spray	-11.4937
▁preference	-11.4937
▁sensation	-11.4938
▁silk	-11.4939
▁syndrome	-11.4939
▁fence	-11.4939
▁static	-11.4939
▁calm	-11.4939
▁lean	-11.494
▁replacement	-11.4943
▁passive	-11.4946
▁yoursel	-11.4948
▁Bra	-11.4949
▁Lee	-11.4949
▁31	-11.4963
▁ethnic	-11.4975
▁historic	-11.4988
▁Bab	-11.499
▁developer	-11.5
▁Bru	-11.5004
tial	-11.5004
view	-11.5012
▁Jane	-11.5024
interest	-11.5031
vice	-11.5033
nois	-11.5039
mart	-11.504
MA	-11.5057
▁Asian	-11.5057
angle	-11.5059
corn	-11.5069
aking	-11.507
▁millimeter	-11.5071
space	-11.5077
▁abilit	-11.5079
▁popp	-11.5094
met	-11.5103
▁corporations	-11.5108
▁prim	-11.5109
▁overwhelm	-11.5117
▁indicate	-11.5117
▁flowing	-11.5141
quo	-11.5142
▁independen	-11.5142
▁documentar	-11.5154
▁climbing	-11.5154
lips	-11.5158
tub	-11.5163
▁trap	-11.5165
▁30-	-11.5172
▁mono	-11.518
▁Play	-11.5191
▁Yemen	-11.5195
▁supplie	-11.5197
▁Acc	-11.5199
▁sanit	-11.52
▁gods	-11.5201
▁distract	-11.5202
hydro	-11.5206
▁Bronx	-11.5206
▁DVD	-11.5206
▁Shakespeare	-11.5206
▁adolescent	-11.5206
▁aggressive	-11.5206
▁genuine	-11.5206
▁immense	-11.5206
▁neuroscientist	-11.5206
▁potato	-11.5206
▁receptor	-11.5206
▁spontaneous	-11.5206
▁thylacine	-11.5206
▁trajector	-11.5206
▁drown	-11.5206
▁mutual	-11.5206
▁encode	-11.5206
▁microphone	-11.5206
▁1930	-11.5206
▁steer	-11.5206
▁mysterious	-11.5206
▁reproduce	-11.5207
▁export	-11.5207
▁texture	-11.5207
▁renewable	-11.5207
▁subway	-11.521
▁Thai	-11.521
▁assum	-11.5211
▁valve	-11.5214
▁salar	-11.5214
▁sew	-11.5218
▁intent	-11.5219
▁merg	-11.5227
▁sake	-11.5232
▁autist	-11.5243
▁recogniz	-11.5246
▁eliminate	-11.527
▁inmate	-11.5278
own	-11.5286
.5	-11.5287
eaten	-11.5287
▁analyz	-11.5288
cap	-11.5299
▁eradicat	-11.53
▁cooperate	-11.5301
▁Cor	-11.5307
▁cosm	-11.5309
▁occasion	-11.531
▁Less	-11.5313
rhythm	-11.5316
▁span	-11.5319
plus	-11.5321
ora	-11.5324
weight	-11.5325
second	-11.5325
▁association	-11.5335
fall	-11.5345
▁sens	-11.535
found	-11.5354
AT	-11.5362
wear	-11.5368
▁rip	-11.5369
▁din	-11.5372
itting	-11.5387
▁poly	-11.5393
ison	-11.54
rio	-11.5408
▁Ray	-11.5413
▁antibod	-11.5418
▁candy	-11.5418
ook	-11.5435
▁unhapp	-11.5437
▁stranger	-11.5438
▁Has	-11.5447
▁goat	-11.5452
consum	-11.5459
roid	-11.5473
▁teenage	-11.5476
▁nano	-11.5482
adequate	-11.5484
urveillance	-11.5484
▁divorce	-11.5484
▁intimate	-11.5484
▁primitive	-11.5484
▁scaffold	-11.5484
▁sweep	-11.5484
▁threshold	-11.5484
▁impulse	-11.5484
▁terrain	-11.5484
▁dawn	-11.5484
▁inherit	-11.5484
▁augment	-11.5484
▁viral	-11.5484
▁sacred	-11.5484
▁cyber	-11.5484
▁anatom	-11.5484
▁persist	-11.5485
▁delight	-11.5485
▁Simon	-11.5485
▁Republican	-11.5485
▁strict	-11.5485
▁boost	-11.5485
▁courageous	-11.5486
▁Rock	-11.5486
Donald	-11.5486
▁hometown	-11.5487
▁pipe	-11.5487
▁Hunt	-11.5487
▁elementary	-11.5487
▁stamp	-11.5487
▁friendship	-11.5489
ette	-11.549
▁invad	-11.549
▁detection	-11.5496
▁blindness	-11.5497
▁reflection	-11.55
▁Ali	-11.5505
produc	-11.5507
▁explode	-11.5515
▁embrac	-11.5516
▁survived	-11.5519
▁drought	-11.552
▁payment	-11.552
▁terror	-11.5521
▁server	-11.5522
hane	-11.5527
▁destiny	-11.5529
satisfact	-11.553
▁Try	-11.5532
▁update	-11.5532
▁intens	-11.5534
▁Emma	-11.5539
▁Mur	-11.554
▁embarrassing	-11.5541
▁wage	-11.5546
▁purchase	-11.5552
▁lu	-11.5553
▁soap	-11.5555
▁logo	-11.556
▁founder	-11.5564
unch	-11.5565
extinction	-11.5566
BI	-11.5574
bular	-11.558
▁ironic	-11.5581
▁investigat	-11.5582
▁dumb	-11.5596
eff	-11.5598
illa	-11.5601
▁quar	-11.5604
perm	-11.5609
▁beam	-11.5617
▁capitalis	-11.5623
seas	-11.5639
▁diagnos	-11.5649
▁neutral	-11.5653
ulu	-11.5658
▁institutional	-11.5664
▁rever	-11.5672
osity	-11.5674
grad	-11.5675
lap	-11.5684
▁800	-11.5688
version	-11.5691
▁liberat	-11.5727
▁37	-11.5733
assembl	-11.5736
▁bla	-11.574
ith	-11.5741
▁donation	-11.5758
▁consist	-11.5769
inhabit	-11.5769
centimeter	-11.5769
▁Catholic	-11.5769
▁Joseph	-11.5769
▁Montana	-11.5769
▁disturbing	-11.5769
▁genocide	-11.5769
▁gorgeous	-11.5769
▁jewel	-11.5769
▁magnificent	-11.5769
▁sibling	-11.5769
▁swallow	-11.5769
▁explicit	-11.5769
▁marvel	-11.5769
▁fetus	-11.5769
▁cliff	-11.5769
▁Court	-11.5769
▁contrar	-11.5769
▁mustache	-11.577
▁banana	-11.577
▁odor	-11.577
▁permission	-11.577
▁criteri	-11.577
▁regenerate	-11.577
▁marry	-11.577
▁honey	-11.577
thermal	-11.577
▁1900	-11.5771
▁intensive	-11.5771
▁cruel	-11.5771
▁Compan	-11.5771
makers	-11.5771
▁Albert	-11.5771
▁altitude	-11.5772
▁interpretation	-11.5773
▁align	-11.5774
▁canvas	-11.5774
▁investigation	-11.5775
▁advocate	-11.5777
▁broc	-11.5778
▁lever	-11.5779
▁manner	-11.578
▁reliabl	-11.5781
▁Tasmanian	-11.5781
▁campus	-11.5783
▁elegant	-11.5785
▁Water	-11.5788
▁Open	-11.5788
blowing	-11.5793
▁bowl	-11.5798
▁terroris	-11.5806
▁linear	-11.5807
▁survivor	-11.581
▁cur	-11.5811
▁bush	-11.5816
▁tide	-11.5816
▁chess	-11.5825
▁SS	-11.5837
▁deni	-11.5842
gentleman	-11.5847
▁controversial	-11.585
page	-11.5869
▁proven	-11.588
▁flipp	-11.5881
▁upside	-11.589
▁bombs	-11.5909
▁productiv	-11.5913
▁competitive	-11.5917
play	-11.5932
▁replac	-11.5934
pac	-11.5941
world	-11.5942
mail	-11.5944
▁included	-11.5946
▁Bern	-11.5949
bian	-11.5953
take	-11.5958
▁Laur	-11.5959
▁reporter	-11.5959
tail	-11.5967
sight	-11.5968
oto	-11.597
▁dare	-11.5976
aker	-11.598
rane	-11.5981
▁rose	-11.5982
▁sale	-11.5992
▁Prince	-11.6009
▁tone	-11.6009
▁Fo	-11.6013
ause	-11.6023
▁ambitio	-11.6033
▁customiz	-11.6036
▁custom	-11.6038
RS	-11.6038
therland	-11.6045
rcul	-11.6046
▁corrupt	-11.6059
petition	-11.6063
▁immortal	-11.6064
▁obtain	-11.6064
▁temple	-11.6064
▁vacation	-11.6064
▁vacuum	-11.6064
▁violin	-11.6064
▁creep	-11.6064
▁heritage	-11.6064
▁Geograph	-11.6064
▁tomato	-11.6064
▁puppet	-11.6064
▁venture	-11.6064
▁drift	-11.6064
▁proposition	-11.6064
▁monster	-11.6064
▁bombsight	-11.6064
▁Keep	-11.6064
▁confine	-11.6064
▁Alexand	-11.6064
▁displace	-11.6065
▁redesign	-11.6065
▁girlfriend	-11.6065
▁improvisation	-11.6065
▁Organiz	-11.6066
▁negotiation	-11.6067
▁Brother	-11.6067
kar	-11.6068
▁dragg	-11.6069
▁magician	-11.6069
eopard	-11.607
▁frontier	-11.6071
▁loving	-11.6074
▁Carl	-11.6076
▁shout	-11.6076
▁Histor	-11.608
▁700	-11.6084
gged	-11.6087
▁Newton	-11.6089
tact	-11.6091
▁stake	-11.6091
▁horizontal	-11.6093
▁deepest	-11.6093
replica	-11.6094
▁bleed	-11.6094
▁gener	-11.6098
▁astronomer	-11.61
eastern	-11.6104
▁momentum	-11.6106
▁Korean	-11.6109
ogen	-11.6109
▁spare	-11.6111
hind	-11.6112
▁Ky	-11.6116
▁rear	-11.6117
▁Mary	-11.6121
mination	-11.6126
▁20-	-11.6127
▁shy	-11.6128
AO	-11.6145
direct	-11.6146
ake	-11.6173
▁critic	-11.6177
▁stimul	-11.6184
▁explorer	-11.6201
▁mon	-11.6233
▁cue	-11.624
▁Stor	-11.6251
▁passe	-11.6258
field	-11.6263
▁Nel	-11.6266
▁jar	-11.6278
nel	-11.6279
▁Moo	-11.6289
▁relation	-11.6294
ittle	-11.6303
fill	-11.6304
▁Dar	-11.6312
▁dri	-11.6316
▁Gree	-11.6317
activat	-11.6321
▁Kev	-11.6321
▁wir	-11.6326
▁cope	-11.633
▁anticipate	-11.6345
▁impos	-11.6353
▁tele	-11.6359
▁thermo	-11.6363
wire	-11.6365
▁controvers	-11.6366
▁dictator	-11.6366
▁Black	-11.6367
▁Tanzania	-11.6367
▁astronaut	-11.6367
▁caregiver	-11.6367
▁chronic	-11.6367
▁democratiz	-11.6367
▁expense	-11.6367
▁humanitarian	-11.6367
▁minimum	-11.6367
▁scheme	-11.6367
▁syringe	-11.6367
▁warrior	-11.6367
▁batteries	-11.6367
▁deliberate	-11.6367
▁helmet	-11.6367
▁ultrasound	-11.6367
▁congest	-11.6367
▁Saturn	-11.6367
▁triangle	-11.6367
▁advis	-11.6367
▁Lewi	-11.6367
▁exposure	-11.6367
▁Italian	-11.6368
▁reclaim	-11.6368
▁46	-11.6369
▁lobe	-11.6369
nburg	-11.637
▁vibration	-11.637
▁fireflies	-11.6371
tooth	-11.6371
▁galler	-11.6371
▁compassionate	-11.6372
▁minus	-11.6372
▁downtown	-11.6373
▁progressive	-11.6374
traumatic	-11.6374
▁adaptation	-11.6374
▁grabb	-11.6375
▁dispos	-11.6375
discriminati	-11.6376
itch	-11.6376
▁cartoonist	-11.6377
▁assure	-11.6377
eith	-11.6378
▁Ber	-11.638
▁veil	-11.638
oli	-11.6382
▁irre	-11.6383
▁educator	-11.6384
ipping	-11.6384
▁loose	-11.6384
▁Rather	-11.6385
▁30,000	-11.6387
lapse	-11.6387
▁Para	-11.6388
▁administrati	-11.6391
▁Laden	-11.6396
invasive	-11.6398
▁stunning	-11.6398
ament	-11.6399
ada	-11.6404
core	-11.6413
GG	-11.6415
▁graduat	-11.6424
brew	-11.6427
uthern	-11.6427
▁Hall	-11.6435
▁hardest	-11.6437
▁readers	-11.6438
▁helpless	-11.6439
gro	-11.6442
▁surgeons	-11.6451
▁bust	-11.6452
utter	-11.6454
▁hom	-11.646
▁hybrid	-11.6468
▁collaborate	-11.6471
▁jumped	-11.6479
▁criticiz	-11.6485
ima	-11.6487
▁regulate	-11.6505
▁chemist	-11.6507
▁Pan	-11.6511
logical	-11.6512
▁polici	-11.6516
▁swing	-11.6521
▁shap	-11.6526
▁Reg	-11.6533
▁quantit	-11.6537
▁OE	-11.6541
▁realm	-11.6549
▁eu	-11.6553
amma	-11.6553
▁Lot	-11.6558
▁provider	-11.6563
▁chop	-11.6575
efficient	-11.6594
income	-11.6596
▁integr	-11.6607
▁practic	-11.6608
▁Jay	-11.6608
▁lawn	-11.6609
iza	-11.6611
hole	-11.6612
▁abundan	-11.6614
▁continuous	-11.6622
sburg	-11.6628
▁preserv	-11.6652
▁heavi	-11.6671
▁convict	-11.6675
lihood	-11.6675
▁assign	-11.6679
▁scholar	-11.6679
convenient	-11.6679
▁Absolute	-11.6679
▁Hawaii	-11.6679
▁Jordan	-11.6679
▁Medicine	-11.6679
▁Silicon	-11.6679
▁addiction	-11.6679
▁authoritarian	-11.6679
▁blob	-11.6679
▁correlation	-11.6679
▁deforest	-11.6679
▁dopamine	-11.6679
▁elevate	-11.6679
▁encouraging	-11.6679
▁episode	-11.6679
▁striking	-11.6679
▁Disney	-11.6679
▁drunk	-11.6679
▁envelope	-11.6679
▁album	-11.6679
▁mineral	-11.6679
▁Brooklyn	-11.6679
▁tolerance	-11.6679
▁Jean	-11.6679
▁occupy	-11.6679
▁meditation	-11.6679
▁Lord	-11.6679
▁leopard	-11.6679
▁hint	-11.668
▁Somali	-11.668
▁imitat	-11.668
▁destination	-11.668
mund	-11.6681
▁inflation	-11.6682
▁Clint	-11.6682
▁modest	-11.6683
▁shepherd	-11.6683
▁USA	-11.6683
▁brick	-11.6683
▁civilian	-11.6683
▁penis	-11.6685
▁eco	-11.6685
▁toast	-11.6687
▁propos	-11.6691
▁hut	-11.6693
▁philosophical	-11.6694
▁scare	-11.6695
verbal	-11.6697
▁fatal	-11.6701
▁Nick	-11.6703
▁metric	-11.6709
▁summarize	-11.672
▁tile	-11.6721
▁gase	-11.6726
▁interior	-11.673
cock	-11.6737
▁Rose	-11.6739
mba	-11.674
▁axe	-11.6751
▁Bro	-11.676
▁trappe	-11.6766
▁accus	-11.6768
▁beef	-11.677
▁crap	-11.6773
▁dependenc	-11.6773
person	-11.6784
change	-11.6784
nia	-11.681
▁fundrais	-11.6811
▁Ku	-11.6811
vil	-11.6812
▁transmitt	-11.6829
tched	-11.6837
▁staring	-11.6842
▁Mah	-11.6843
▁formal	-11.6851
style	-11.6854
▁monitoring	-11.6865
▁awe	-11.6887
ila	-11.6895
▁Carol	-11.6902
amas	-11.6905
lmost	-11.6913
western	-11.6913
▁qua	-11.6918
alem	-11.6929
Global	-11.6933
ode	-11.6934
▁cleaner	-11.6935
▁eliminat	-11.6939
mine	-11.6958
▁summar	-11.6961
morph	-11.6962
▁psycho	-11.6994
leg	-11.6997
▁minorit	-11.6999
▁autonom	-11.7001
▁negotiate	-11.7001
▁territor	-11.7002
▁Parkinson	-11.7002
▁Saturday	-11.7002
▁Similar	-11.7002
▁chamber	-11.7002
▁commission	-11.7002
▁enzyme	-11.7002
▁irrational	-11.7002
▁secular	-11.7002
▁spaghetti	-11.7002
▁stomach	-11.7002
▁storyteller	-11.7002
▁visceral	-11.7002
▁empire	-11.7002
▁scrap	-11.7002
▁famine	-11.7002
▁vivid	-11.7002
▁Coast	-11.7002
▁distort	-11.7002
▁chimp	-11.7002
▁neocort	-11.7002
▁Sierra	-11.7002
▁Nathan	-11.7002
▁Bosnia	-11.7002
▁spike	-11.7002
▁feminist	-11.7002
▁champion	-11.7003
▁enforce	-11.7003
▁Treat	-11.7004
nformation	-11.7004
▁Sarah	-11.7005
▁Eight	-11.7006
▁44	-11.7006
▁mini	-11.7009
witzer	-11.701
▁Hung	-11.701
zler	-11.7011
▁obsession	-11.7011
▁Jones	-11.7013
▁coverage	-11.7015
▁Hope	-11.7016
▁selfish	-11.7017
▁phenomena	-11.7017
▁Ram	-11.7031
▁Pretty	-11.7031
▁intrinsic	-11.7033
▁realization	-11.7045
▁referr	-11.7045
▁worrying	-11.705
▁nonviolen	-11.7051
put	-11.706
▁Nin	-11.7063
▁disability	-11.7066
▁Kenne	-11.707
▁clari	-11.7073
▁meme	-11.7075
imp	-11.708
▁Line	-11.7088
▁Year	-11.7097
▁branch	-11.7098
▁accelerate	-11.7098
▁discoveries	-11.7099
▁dar	-11.7111
▁stimulate	-11.7116
▁deposit	-11.7121
▁forbid	-11.7133
▁accumulate	-11.7134
▁Medica	-11.7139
▁manufacturer	-11.7142
▁lane	-11.7154
erson	-11.717
▁bask	-11.718
oral	-11.7188
sea	-11.7191
▁Jud	-11.7203
▁38	-11.7207
tangible	-11.7222
ference	-11.7239
▁valid	-11.724
nix	-11.7242
dropping	-11.7246
eb	-11.725
▁visualize	-11.7256
▁nucle	-11.7261
▁significan	-11.7271
▁Turns	-11.7277
print	-11.7288
child	-11.7305
▁blogg	-11.7308
▁Minist	-11.7323
▁compute	-11.7327
▁switched	-11.7328
▁voca	-11.7329
organiz	-11.7331
,500	-11.7335
▁2030	-11.7335
▁ambulance	-11.7335
▁executive	-11.7335
▁fantasy	-11.7335
▁historian	-11.7335
▁iPod	-11.7335
▁introvert	-11.7335
▁janitor	-11.7335
▁simulate	-11.7335
▁stabilize	-11.7335
▁substantial	-11.7335
▁tribal	-11.7335
▁Argentin	-11.7335
▁descend	-11.7335
▁inhibit	-11.7335
▁theoretical	-11.7335
openha	-11.7335
upreme	-11.7335
▁Accord	-11.7335
▁bli	-11.7335
▁premise	-11.7335
▁Columb	-11.7335
▁Still	-11.7335
▁jellyfish	-11.7335
▁optical	-11.7335
▁shatter	-11.7335
▁multiply	-11.7335
▁equit	-11.7335
▁nightmare	-11.7335
▁Swee	-11.7335
▁rabbi	-11.7335
▁carrot	-11.7335
▁cafe	-11.7335
▁Spring	-11.7335
▁cotton	-11.7335
▁libert	-11.7335
▁Palm	-11.7335
▁captain	-11.7335
▁nail	-11.7336
▁naive	-11.7336
▁Twenty	-11.7336
▁entry	-11.7336
▁Johnny	-11.7337
▁selective	-11.7338
▁Canadian	-11.7338
▁preparation	-11.7339
▁Lake	-11.7339
▁unfold	-11.7339
▁invitation	-11.734
▁Fire	-11.7341
▁vend	-11.7341
▁distinction	-11.7341
rill	-11.7342
▁vary	-11.7342
▁entit	-11.7343
▁translator	-11.7343
▁thus	-11.7344
▁frustration	-11.7344
▁Stop	-11.7347
▁fade	-11.7347
▁deck	-11.7347
▁yeast	-11.7348
▁therapist	-11.7349
▁12-	-11.7351
induce	-11.7352
▁bam	-11.7359
▁Muh	-11.7366
▁Old	-11.7369
▁guid	-11.7373
▁tactic	-11.7382
fu	-11.7385
▁Turn	-11.7394
▁AK	-11.7411
logy	-11.7413
▁illuminat	-11.7419
bling	-11.742
train	-11.7426
kel	-11.7427
pox	-11.7436
▁Comp	-11.7438
▁mesh	-11.7464
▁useless	-11.7468
▁Julian	-11.7472
oma	-11.7478
▁processor	-11.7485
▁15-	-11.7492
care	-11.7499
▁voter	-11.7511
▁conceptual	-11.7515
▁spinn	-11.7518
▁masse	-11.7528
▁recycle	-11.7583
▁camel	-11.7587
▁slip	-11.7592
▁redefine	-11.7596
erra	-11.7604
▁Com	-11.7611
▁mud	-11.7614
▁Inter	-11.7618
void	-11.7634
▁settl	-11.7635
scope	-11.7635
▁forgive	-11.7659
fund	-11.7666
stock	-11.7669
▁pant	-11.7673
▁Democrat	-11.7676
▁disagree	-11.7677
▁Leban	-11.7677
▁accura	-11.7679
▁Buddhis	-11.768
▁Elizabeth	-11.768
▁Ethiopia	-11.768
▁Norwegian	-11.768
▁Office	-11.768
▁Sylvi	-11.768
▁dilemma	-11.768
▁hamburger	-11.768
▁immigrant	-11.768
▁obsolet	-11.768
▁octopus	-11.768
▁pheromone	-11.768
▁reinforce	-11.768
▁revelation	-11.768
▁skeleton	-11.768
▁unfair	-11.768
▁victor	-11.768
▁vitamin	-11.768
▁screw	-11.768
▁pirate	-11.768
▁Qatar	-11.768
▁accent	-11.768
▁multinational	-11.768
▁Publi	-11.768
▁slave	-11.768
▁Fift	-11.7681
▁mild	-11.7681
▁lump	-11.7681
▁diagnostic	-11.7681
▁toxin	-11.7681
▁intersection	-11.7681
▁Roger	-11.7681
▁arrangement	-11.7682
▁retail	-11.7683
▁delete	-11.7683
▁Plan	-11.7683
▁visualization	-11.7683
▁48	-11.7685
▁cardio	-11.7685
▁symphon	-11.7688
▁legislat	-11.7688
▁integration	-11.7688
▁insert	-11.7694
lept	-11.7695
▁Earl	-11.7695
▁passage	-11.7695
shot	-11.7696
▁import	-11.7696
month	-11.7703
▁cage	-11.7704
▁fertilizer	-11.7706
▁Stone	-11.7707
▁cosmolog	-11.7708
▁200,000	-11.771
▁baker	-11.7712
▁circu	-11.7712
▁probe	-11.7713
▁Pur	-11.772
stick	-11.7724
▁aspiration	-11.7727
engineering	-11.7727
▁rubb	-11.7732
▁Nik	-11.775
▁Ross	-11.7753
▁Bud	-11.7755
▁playful	-11.7755
▁Lar	-11.7757
▁curl	-11.7766
five	-11.7768
onia	-11.7775
▁lover	-11.778
▁rent	-11.7788
▁42	-11.7791
▁Cel	-11.7794
▁Gil	-11.7803
▁regenerati	-11.7805
▁reader	-11.7806
BA	-11.7809
estate	-11.7814
ER	-11.7834
▁triple	-11.7841
▁approache	-11.7844
EDI	-11.7851
▁vocal	-11.7857
▁Lang	-11.786
▁fuse	-11.7861
▁rang	-11.7871
▁Ital	-11.7871
▁dome	-11.7875
▁hir	-11.788
▁Julia	-11.7892
▁boundary	-11.7892
▁banne	-11.7906
drew	-11.7913
imi	-11.7916
eau	-11.7924
▁impressi	-11.7924
ogether	-11.7929
▁branche	-11.7931
aph	-11.7933
▁stare	-11.7934
istan	-11.7943
▁cookie	-11.7945
▁grip	-11.7955
ilia	-11.7959
▁patholog	-11.7981
▁publisher	-11.7984
▁Yu	-11.799
ura	-11.8014
apped	-11.8017
▁Under	-11.8021
quality	-11.8021
▁vent	-11.8025
▁anesthesi	-11.803
Cola	-11.803
▁socio	-11.803
▁shoe	-11.8031
break	-11.8034
▁punish	-11.8035
▁Republic	-11.8035
▁transit	-11.8035
▁stigma	-11.8035
▁Know	-11.8037
▁Goliath	-11.8037
▁Julie	-11.8037
▁Leonardo	-11.8037
▁Parliament	-11.8037
▁Student	-11.8037
▁Ushahidi	-11.8037
▁Zimbabwe	-11.8037
▁arbitrar	-11.8037
▁artifact	-11.8037
▁calendar	-11.8037
▁crawl	-11.8037
▁cybercriminal	-11.8037
▁depict	-11.8037
▁encrypt	-11.8037
▁endeavor	-11.8037
▁innovator	-11.8037
▁occupation	-11.8037
▁remittance	-11.8037
▁stadium	-11.8037
▁welfare	-11.8037
▁Secur	-11.8037
▁absence	-11.8037
▁anxious	-11.8037
▁delicious	-11.8037
▁orgasm	-11.8037
▁chord	-11.8037
▁decorat	-11.8037
▁erotic	-11.8037
▁regain	-11.8037
▁ladder	-11.8037
▁Power	-11.8037
▁antenna	-11.8037
▁loyal	-11.8037
▁intervene	-11.8037
▁Phoe	-11.8037
▁retain	-11.8037
▁Thirty	-11.8037
▁funeral	-11.8037
▁Hawk	-11.8037
▁contest	-11.8037
▁calculator	-11.8037
▁relief	-11.8037
▁impair	-11.8037
▁glove	-11.8037
▁minimal	-11.8037
▁Edward	-11.8037
▁Broad	-11.8038
▁envision	-11.8038
▁impose	-11.8038
▁Sur	-11.8038
▁angel	-11.8038
▁infectious	-11.8038
▁Tempe	-11.8038
▁biodiversity	-11.8038
▁blink	-11.8038
▁trivial	-11.8039
▁Light	-11.8039
▁workshop	-11.8039
▁conquer	-11.804
▁96	-11.804
▁uncover	-11.804
▁Milk	-11.804
▁Homo	-11.804
▁fungi	-11.804
▁sympath	-11.8041
▁crank	-11.8041
▁tempo	-11.8041
▁butterfl	-11.8041
▁generic	-11.8042
▁queen	-11.8042
▁exot	-11.8043
▁stimulation	-11.8043
▁192	-11.8044
▁Dian	-11.8044
▁Food	-11.8045
▁candle	-11.8045
Z	-11.8049
▁unsee	-11.805
▁sync	-11.805
▁Marco	-11.805
▁packag	-11.8051
▁steam	-11.8053
spread	-11.8053
▁disrupt	-11.8058
▁Doug	-11.8059
wide	-11.806
food	-11.8062
kyo	-11.8063
▁130	-11.8064
▁scarce	-11.8066
▁celebrity	-11.8067
▁dating	-11.8069
▁Mean	-11.8071
▁lowest	-11.8072
▁apologiz	-11.8074
▁Building	-11.8075
centr	-11.8077
bound	-11.8077
▁seventh	-11.8086
stair	-11.809
▁neurological	-11.8093
▁semi	-11.8096
▁epi	-11.8097
MG	-11.8106
cover	-11.8107
▁transcend	-11.8113
▁beaten	-11.8114
▁spit	-11.8114
▁Steven	-11.8117
▁celebrat	-11.8128
▁binar	-11.8129
ado	-11.8129
▁glue	-11.8129
▁animat	-11.8129
▁Fra	-11.8145
▁jur	-11.8146
▁improvise	-11.8149
▁trac	-11.8157
▁longest	-11.8157
100	-11.8165
▁Ask	-11.8191
alai	-11.8194
▁Swa	-11.8207
▁kite	-11.8273
▁sketch	-11.8284
▁Fer	-11.8296
▁admire	-11.83
▁Countr	-11.8332
▁trad	-11.8332
▁plea	-11.8338
▁vibrat	-11.8342
▁constrain	-11.8343
▁manipulat	-11.8351
▁promis	-11.8352
▁Say	-11.8355
zo	-11.8359
▁usage	-11.8372
▁geograph	-11.8379
▁Nu	-11.838
▁350	-11.8388
▁Bag	-11.8388
▁chase	-11.8389
▁ecolog	-11.8391
▁restrict	-11.8403
▁drama	-11.8404
▁tempt	-11.8405
xcept	-11.8406
▁maxim	-11.8407
▁1.2	-11.8407
▁Alpha	-11.8407
▁Education	-11.8407
▁Tunisia	-11.8407
▁adolescence	-11.8407
▁bucket	-11.8407
▁choir	-11.8407
▁conscience	-11.8407
▁default	-11.8407
▁deficit	-11.8407
▁disgust	-11.8407
▁distinguish	-11.8407
▁exaggerat	-11.8407
▁exquisite	-11.8407
▁fault	-11.8407
▁iPad	-11.8407
▁parachute	-11.8407
▁pencil	-11.8407
▁pesticide	-11.8407
▁pubert	-11.8407
▁purple	-11.8407
▁reputation	-11.8407
▁tsunami	-11.8407
▁beneficia	-11.8407
▁enlighten	-11.8407
▁monument	-11.8407
▁orphan	-11.8407
▁sovereign	-11.8407
▁Business	-11.8407
▁ooh	-11.8407
▁Benjam	-11.8407
▁Societ	-11.8407
▁marrow	-11.8407
▁Tibet	-11.8407
▁innovate	-11.8407
▁opposition	-11.8407
▁bonus	-11.8407
▁unveil	-11.8407
▁Computer	-11.8407
▁Learn	-11.8407
▁slope	-11.8407
▁Mountain	-11.8407
▁SMS	-11.8407
▁oppress	-11.8407
▁Tower	-11.8408
▁watt	-11.8408
▁silicon	-11.8408
▁sneak	-11.8408
▁proceed	-11.8408
▁constitution	-11.8408
▁kilogram	-11.8408
▁smash	-11.8408
▁thread	-11.8408
▁shove	-11.8408
▁lethal	-11.8408
▁Nazi	-11.8408
compensat	-11.8408
▁gross	-11.8409
▁sidewalk	-11.8409
▁introduction	-11.8409
▁superpower	-11.8409
▁assessment	-11.8409
▁conserv	-11.841
▁mature	-11.841
▁settlement	-11.841
▁index	-11.841
▁decent	-11.8411
▁6,000	-11.8411
▁Walk	-11.8412
▁weakness	-11.8413
▁roman	-11.8413
▁approximate	-11.8413
▁Susan	-11.8414
mile	-11.8417
▁stain	-11.8417
differentiate	-11.8419
▁browser	-11.842
potent	-11.842
▁Monday	-11.8427
▁petal	-11.8428
▁patch	-11.8428
craft	-11.8434
▁Leone	-11.8435
tti	-11.8439
▁emotionally	-11.8443
lah	-11.8448
▁hopeless	-11.8448
▁nitr	-11.8449
▁overlap	-11.8451
effective	-11.8453
shift	-11.8453
▁Emil	-11.8453
economic	-11.8454
▁72	-11.8454
culture	-11.8456
sense	-11.8457
▁mold	-11.8459
▁surf	-11.846
▁kidd	-11.846
▁Lama	-11.8463
▁settle	-11.8464
▁Head	-11.8466
RA	-11.8469
▁informal	-11.8472
▁dece	-11.8475
▁Start	-11.8475
track	-11.8478
▁Young	-11.8493
▁unite	-11.85
lium	-11.8513
▁hunter	-11.8518
▁owe	-11.8518
▁cla	-11.8523
▁accidental	-11.8527
▁intangible	-11.8534
▁investigate	-11.8549
▁cru	-11.8555
▁Mall	-11.8555
▁Dub	-11.8556
izz	-11.8556
▁Pen	-11.8561
▁seize	-11.8569
▁Dai	-11.8576
olation	-11.8576
▁undermin	-11.8595
ssociation	-11.8618
minded	-11.8626
maid	-11.8632
▁remotely	-11.8633
▁lip	-11.865
▁advanc	-11.8669
▁assist	-11.869
▁solo	-11.8693
▁declin	-11.8696
▁surger	-11.8696
▁Gen	-11.8699
▁grant	-11.8704
▁render	-11.8704
SA	-11.8712
rv	-11.872
▁je	-11.8721
▁sequenc	-11.8724
▁exhaust	-11.8742
▁migrate	-11.8743
▁Cap	-11.8745
AD	-11.8751
▁convention	-11.876
▁185	-11.8761
▁swam	-11.877
▁rig	-11.8771
▁Len	-11.8776
▁chick	-11.8778
omin	-11.8778
▁chem	-11.8785
▁slum	-11.8786
▁rotat	-11.8786
ounce	-11.8789
oil	-11.8789
▁differ	-11.8791
ouncil	-11.8791
▁Francis	-11.8791
mino	-11.8791
qualifie	-11.8792
▁Apollo	-11.8792
▁Bangladesh	-11.8792
▁Buddha	-11.8792
▁Hospital	-11.8792
▁Natural	-11.8792
▁buzz	-11.8792
▁cathedral	-11.8792
▁contemplat	-11.8792
▁exclusive	-11.8792
▁exponential	-11.8792
▁jungle	-11.8792
▁mammogram	-11.8792
▁pedestrian	-11.8792
▁shrink	-11.8792
▁undergraduate	-11.8792
▁virgin	-11.8792
▁whisper	-11.8792
▁Cloud	-11.8792
▁Copernic	-11.8792
▁acoustic	-11.8792
▁dismiss	-11.8792
▁remix	-11.8792
▁Cameron	-11.8792
▁Wonder	-11.8792
plankton	-11.8792
▁Small	-11.8792
▁dentist	-11.8792
▁mosque	-11.8792
▁bypass	-11.8792
▁Berke	-11.8792
▁chunk	-11.8792
▁encyclopedia	-11.8792
▁Media	-11.8792
▁haunt	-11.8793
▁suspicious	-11.8793
▁derive	-11.8793
▁Development	-11.8793
▁Simpl	-11.8793
▁melod	-11.8793
▁sufficient	-11.8793
▁Probab	-11.8794
▁diamond	-11.8794
▁iceberg	-11.8795
▁86	-11.8795
▁posture	-11.8795
▁strap	-11.8795
▁anthropologist	-11.8796
▁dune	-11.8796
▁hypothes	-11.8797
▁adaptive	-11.8797
▁Carne	-11.8797
▁whip	-11.8798
lphi	-11.8799
▁outdoor	-11.8802
▁alert	-11.8803
▁Bolt	-11.8803
▁subjective	-11.8804
▁overlook	-11.8806
▁rubber	-11.8807
▁fisc	-11.8807
▁Mak	-11.8811
▁slaughter	-11.8813
▁anticipat	-11.8819
▁yell	-11.8821
▁Anas	-11.8822
▁phenomenal	-11.8824
ime	-11.8825
▁Add	-11.8842
80	-11.8848
▁farming	-11.8848
uni	-11.8853
▁bench	-11.8856
HC	-11.8864
▁companion	-11.8867
▁traffick	-11.8868
massive	-11.8869
conflict	-11.8869
course	-11.8871
group	-11.8872
▁abundant	-11.8872
▁Nigerian	-11.8874
▁demonstrat	-11.8878
brush	-11.8886
▁gel	-11.8893
▁Cro	-11.8893
▁admir	-11.8904
SE	-11.8905
▁Too	-11.8905
hou	-11.8913
▁Shir	-11.8915
count	-11.8916
DP	-11.8921
▁lucki	-11.8931
▁exp	-11.8933
pack	-11.8956
▁intentional	-11.8967
▁Mau	-11.8968
▁Pass	-11.897
▁bacteri	-11.8995
ister	-11.9
▁Dol	-11.9014
omen	-11.9015
beat	-11.9019
▁warp	-11.902
▁Had	-11.9027
elling	-11.9029
▁accumulat	-11.903
▁decid	-11.9033
rah	-11.9037
▁earning	-11.9045
lanes	-11.9047
▁Miss	-11.905
▁perceiv	-11.9057
▁freeze	-11.9079
▁Tro	-11.9091
itz	-11.9098
▁consen	-11.9101
▁flap	-11.9101
▁patien	-11.9129
▁appl	-11.9131
upp	-11.9147
under	-11.9153
▁detected	-11.917
flo	-11.917
linger	-11.9177
▁brows	-11.9179
▁trauma	-11.9182
gger	-11.9182
▁psychiatr	-11.9186
▁consult	-11.9187
▁possess	-11.9188
▁Val	-11.9191
▁sculpt	-11.9192
CAPTCHA	-11.9192
azeera	-11.9192
▁Civil	-11.9192
▁Government	-11.9192
▁Machine	-11.9192
▁Palestine	-11.9192
▁Scientist	-11.9192
▁Sputnik	-11.9192
▁athletic	-11.9192
▁beekeeper	-11.9192
▁catastrophic	-11.9192
▁configuration	-11.9192
▁existential	-11.9192
▁glorious	-11.9192
▁horrifi	-11.9192
▁horror	-11.9192
▁intimacy	-11.9192
▁irrelevan	-11.9192
▁lobby	-11.9192
▁mammograph	-11.9192
▁migrant	-11.9192
▁neglect	-11.9192
▁optimal	-11.9192
▁underestimate	-11.9192
▁alphabet	-11.9192
▁lawsuit	-11.9192
▁prosecut	-11.9192
▁Clear	-11.9192
▁Glass	-11.9192
▁Siberia	-11.9192
▁Archi	-11.9192
▁composition	-11.9192
▁polite	-11.9192
▁shredd	-11.9192
▁Christoph	-11.9192
▁spear	-11.9192
▁extensive	-11.9192
▁Plato	-11.9192
▁decode	-11.9192
▁Type	-11.9192
▁Help	-11.9192
▁calculating	-11.9192
▁Colombia	-11.9192
▁cooperative	-11.9192
▁rode	-11.9193
▁legitimate	-11.9193
▁1.5	-11.9193
▁timing	-11.9193
▁2.0	-11.9193
iro	-11.9193
▁grape	-11.9194
▁Oliv	-11.9194
▁monk	-11.9194
▁negotiat	-11.9195
▁couch	-11.9196
▁Democratic	-11.9197
▁Kong	-11.9197
▁DJ	-11.9198
▁193	-11.9198
▁germ	-11.92
▁indicator	-11.9203
▁Mag	-11.9203
▁Beau	-11.9205
▁wander	-11.9205
▁rotate	-11.921
▁mustard	-11.9211
▁SO	-11.9213
pago	-11.9214
ira	-11.9219
grade	-11.922
▁ambition	-11.9234
▁banker	-11.9242
▁Kim	-11.9245
▁Rive	-11.9253
▁bitter	-11.9253
▁gramma	-11.9255
▁forge	-11.9256
▁medi	-11.9257
▁skip	-11.9259
▁captur	-11.9267
lvani	-11.927
▁digg	-11.927
▁continuously	-11.927
var	-11.9289
▁Sant	-11.929
polar	-11.9295
story	-11.9295
▁dishe	-11.9296
broad	-11.9303
positive	-11.9304
▁reminder	-11.9305
school	-11.9306
million	-11.9306
▁Ze	-11.931
▁Brit	-11.9315
▁hacker	-11.9322
▁Kenyan	-11.9323
▁revolutionar	-11.9345
▁endur	-11.9345
▁Penn	-11.9356
▁Luc	-11.9357
speed	-11.9361
hold	-11.937
▁Mama	-11.937
▁pest	-11.9378
▁deny	-11.938
finite	-11.9381
▁thoughtful	-11.9383
▁Way	-11.9392
ius	-11.9394
marin	-11.9395
PR	-11.9423
▁sur	-11.9447
roll	-11.9452
▁regional	-11.9453
▁pregnanc	-11.9462
ature	-11.9463
bone	-11.9466
rose	-11.947
touch	-11.9479
iful	-11.9492
▁140	-11.9493
solv	-11.9503
DD	-11.9507
animate	-11.9507
▁performer	-11.9508
pend	-11.9509
▁cu	-11.9522
tlantic	-11.9526
▁microscop	-11.9539
oul	-11.9542
▁Step	-11.9553
divid	-11.9564
▁Spi	-11.957
600	-11.9584
saw	-11.9584
▁precis	-11.9585
▁resilien	-11.9586
xter	-11.959
band	-11.9595
▁advoca	-11.9598
▁BR	-11.96
pop	-11.96
▁arrange	-11.9606
rizon	-11.9608
▁1.3	-11.9609
▁Nanopatch	-11.9609
▁Rachel	-11.9609
▁Telescope	-11.9609
▁accompani	-11.9609
▁cardiac	-11.9609
▁cockroach	-11.9609
▁collision	-11.9609
▁declare	-11.9609
▁entrance	-11.9609
▁execute	-11.9609
▁extremist	-11.9609
▁holiday	-11.9609
▁imperative	-11.9609
▁maneuver	-11.9609
▁parliament	-11.9609
▁peanut	-11.9609
▁powder	-11.9609
▁principal	-11.9609
▁transistor	-11.9609
▁electromagnet	-11.9609
▁retrofit	-11.9609
▁stumbl	-11.9609
▁thorough	-11.9609
▁postcard	-11.9609
▁tutor	-11.9609
▁Fund	-11.9609
▁cream	-11.9609
▁Interesting	-11.9609
▁alumin	-11.9609
▁cerebr	-11.9609
▁cheer	-11.9609
▁numer	-11.9609
▁prophet	-11.9609
▁Fried	-11.9609
▁carpet	-11.9609
▁dispute	-11.9609
▁supercomputer	-11.9609
▁headache	-11.9609
▁Kelly	-11.9609
▁rigid	-11.9609
▁subsidi	-11.9609
▁dissolv	-11.9609
▁notebook	-11.9609
skirt	-11.961
▁debri	-11.961
▁hostile	-11.961
▁Wiki	-11.961
▁outrage	-11.961
▁billboard	-11.961
▁propell	-11.961
▁Khan	-11.961
▁prospect	-11.9611
▁Low	-11.9611
▁instinctive	-11.9611
▁illustration	-11.9611
▁spacecraft	-11.9612
▁punishment	-11.9612
▁novelty	-11.9612
▁problematic	-11.9612
▁64	-11.9613
▁43	-11.9614
▁pillar	-11.9614
▁memorize	-11.9614
▁employment	-11.9614
▁psychiatrist	-11.9614
stein	-11.9614
▁Rick	-11.9615
▁Evan	-11.9615
▁PH	-11.9616
▁Color	-11.9617
▁biotechnolog	-11.9618
▁Robin	-11.9619
▁resonan	-11.9619
▁preach	-11.962
▁minor	-11.9621
▁Case	-11.9621
▁flute	-11.9623
awa	-11.9625
▁trailer	-11.9627
▁41	-11.9627
blew	-11.9628
▁crow	-11.9629
▁outbreak	-11.9629
▁Senat	-11.9652
synthesize	-11.9658
▁hive	-11.966
▁annoying	-11.9684
▁taxe	-11.969
▁screaming	-11.9692
onsider	-11.9704
bati	-11.9704
▁formation	-11.971
▁consent	-11.971
▁Louis	-11.9715
▁shelve	-11.9719
▁Mari	-11.972
alti	-11.9724
orta	-11.9724
▁Hand	-11.9725
wall	-11.9727
▁visitor	-11.9727
adore	-11.9734
▁loser	-11.9735
limate	-11.9735
master	-11.9748
▁Australian	-11.9751
develop	-11.976
▁arena	-11.9766
▁heroic	-11.9795
▁swo	-11.9796
▁union	-11.9796
▁env	-11.9798
▁Arabia	-11.98
▁unpredictabl	-11.9802
Man	-11.9806
▁receiver	-11.9808
▁Rem	-11.9815
viv	-11.9825
▁Kam	-11.9831
cker	-11.9838
▁sometime	-11.9841
▁Berli	-11.9841
uga	-11.9842
▁gentle	-11.9845
▁zoo	-11.987
▁Lib	-11.9875
▁Gall	-11.9876
▁Chad	-11.9877
bla	-11.9888
▁digitize	-11.9904
together	-11.9913
▁enabl	-11.9927
▁resonate	-11.9932
posed	-11.9934
▁laborator	-11.9937
eval	-11.995
▁evaluate	-11.9951
▁embarrass	-11.9951
lcome	-11.9964
sustainabl	-11.9967
▁hug	-11.9975
▁Lev	-11.9975
▁Mul	-11.9995
▁Tal	-11.9997
▁disrupti	-12.0008
▁Ste	-12.0009
▁numb	-12.003
▁Journal	-12.0041
▁sulf	-12.0042
▁Bhutan	-12.0043
▁Lakota	-12.0043
▁Michigan	-12.0043
▁System	-12.0043
▁anniversar	-12.0043
▁checklist	-12.0043
▁clitoris	-12.0043
▁convincing	-12.0043
▁flexibilit	-12.0043
▁incarcerat	-12.0043
▁injustice	-12.0043
▁laundr	-12.0043
▁orangutan	-12.0043
▁peculiar	-12.0043
▁propagand	-12.0043
▁unleash	-12.0043
ectar	-12.0043
▁Modern	-12.0043
▁guest	-12.0043
▁praise	-12.0043
▁modifi	-12.0043
▁nasty	-12.0043
▁nuance	-12.0043
▁surgical	-12.0043
▁algae	-12.0043
▁facult	-12.0043
▁veloci	-12.0043
▁hollow	-12.0043
▁shuttle	-12.0043
▁cattle	-12.0044
▁Defen	-12.0044
▁Tesla	-12.0044
▁Austria	-12.0044
▁1,500	-12.0044
▁devise	-12.0044
▁banjo	-12.0044
▁millennia	-12.0044
▁pension	-12.0044
▁coincidence	-12.0044
▁cabinet	-12.0044
▁suitcase	-12.0044
▁scholarship	-12.0044
▁flesh	-12.0044
▁squid	-12.0044
▁shallow	-12.0044
▁emphasize	-12.0044
▁foster	-12.0044
▁pathogen	-12.0044
▁fame	-12.0045
▁headquarter	-12.0045
▁Maha	-12.0045
▁generator	-12.0045
▁volcano	-12.0045
▁Recent	-12.0045
ique	-12.0045
▁calci	-12.0045
▁Jackson	-12.0046
▁separation	-12.0046
▁temptation	-12.0046
▁reproduction	-12.0047
▁migration	-12.0047
▁97	-12.0047
▁Master	-12.0047
▁hump	-12.0048
▁Gala	-12.0049
▁98	-12.0049
▁Trad	-12.0049
alactic	-12.0049
▁exit	-12.005
▁Jess	-12.0051
▁Sound	-12.0052
▁periodic	-12.0052
▁piss	-12.0052
▁empowerment	-12.0053
▁playground	-12.0054
▁compil	-12.0055
▁greet	-12.0056
▁sadness	-12.0056
▁riot	-12.0057
▁humble	-12.0057
sanitary	-12.0058
▁Death	-12.0059
▁troll	-12.006
gur	-12.006
▁logg	-12.0062
▁scarc	-12.0063
▁Sex	-12.0063
▁worldview	-12.0064
▁Desp	-12.0065
otto	-12.007
▁Book	-12.007
▁memorial	-12.0071
▁ambiguit	-12.0071
▁tuna	-12.0072
▁CN	-12.0072
gill	-12.0073
▁coma	-12.0074
▁assistant	-12.0077
▁operator	-12.0077
▁Heart	-12.0083
▁armor	-12.0085
▁Sara	-12.0096
▁asthma	-12.0096
▁Dave	-12.01
▁Rand	-12.0106
almon	-12.011
▁prayer	-12.0119
Bay	-12.0126
▁wilder	-12.0129
frie	-12.0134
▁sixth	-12.0135
▁loo	-12.0146
▁rendering	-12.0146
nick	-12.0149
mate	-12.0155
ori	-12.0156
nmark	-12.0156
▁indicat	-12.0175
ripped	-12.0183
ugg	-12.0189
▁Ash	-12.02
witz	-12.0204
uter	-12.0209
▁indirect	-12.0211
▁atomic	-12.0219
nutrition	-12.0229
▁Stay	-12.0229
proof	-12.0231
credit	-12.0232
great	-12.0237
resistan	-12.0237
structure	-12.0244
cycle	-12.025
carbon	-12.0251
natural	-12.0259
▁Dam	-12.026
▁Fair	-12.0262
▁Stu	-12.0285
plat	-12.0287
human	-12.029
generation	-12.0295
▁53	-12.0303
▁woo	-12.0312
mediate	-12.0316
▁poke	-12.0319
▁symbolic	-12.0336
▁eradicate	-12.0339
300	-12.0344
vian	-12.0345
▁MR	-12.0349
tress	-12.0354
▁dispers	-12.0356
ggle	-12.0358
▁mic	-12.0365
▁miser	-12.0382
AC	-12.0395
▁scream	-12.0408
▁stat	-12.0418
apes	-12.0423
▁gyr	-12.0423
osphere	-12.0426
ibo	-12.043
▁bounce	-12.0432
▁analytic	-12.0447
omic	-12.0461
dictionarie	-12.0475
uous	-12.0479
▁Radio	-12.0487
▁inflat	-12.0494
▁Jenni	-12.0495
idi	-12.0498
constitute	-12.0498
violet	-12.0498
▁Doctor	-12.0498
▁FOX	-12.0498
▁Himalaya	-12.0498
▁Picture	-12.0498
▁PowerPoint	-12.0498
▁avatar	-12.0498
▁charcoal	-12.0498
▁corridor	-12.0498
▁diameter	-12.0498
▁elaborate	-12.0498
▁genital	-12.0498
▁hobby	-12.0498
▁kindergart	-12.0498
▁mobiliz	-12.0498
▁soccer	-12.0498
▁symmetr	-12.0498
▁testosterone	-12.0498
▁vagina	-12.0498
▁vegetarian	-12.0498
▁worship	-12.0498
▁superior	-12.0498
▁intricate	-12.0498
▁steep	-12.0498
▁violate	-12.0498
▁Sudan	-12.0498
▁slogan	-12.0498
▁faint	-12.0498
▁Nepal	-12.0498
▁scroll	-12.0498
▁Jefferson	-12.0498
▁energetic	-12.0498
▁barrel	-12.0498
▁Speak	-12.0498
▁macro	-12.0498
▁biomaterial	-12.0498
▁prevalen	-12.0498
▁Text	-12.0498
balone	-12.0498
▁multiverse	-12.0499
▁acute	-12.0499
▁portray	-12.0499
▁chole	-12.0499
▁Jeff	-12.0499
▁Margar	-12.0499
▁Self	-12.05
▁Robot	-12.05
▁Report	-12.05
▁Motor	-12.05
▁flock	-12.05
▁Trans	-12.05
▁mixture	-12.05
▁cease	-12.05
▁Kiri	-12.0501
▁marketplace	-12.0501
▁Truth	-12.0501
▁tilt	-12.0501
▁McK	-12.0502
▁rebel	-12.0502
▁Cuba	-12.0502
▁Romo	-12.0502
▁Fox	-12.0503
▁possession	-12.0503
▁Justice	-12.0503
▁52	-12.0503
▁8,000	-12.0503
▁74	-12.0503
▁93	-12.0503
▁conviction	-12.0504
▁Meli	-12.0505
▁Oak	-12.0505
▁unlock	-12.0506
▁injection	-12.0506
▁comprehensive	-12.0507
▁penn	-12.0508
▁merc	-12.051
plex	-12.0511
▁medal	-12.0511
▁Grace	-12.0513
▁globaliz	-12.0514
▁confusion	-12.0515
▁Tru	-12.0518
▁lyric	-12.0519
otherap	-12.0521
▁Luck	-12.0523
▁Teacher	-12.0526
▁mytholog	-12.0527
▁cultivate	-12.0532
axis	-12.0536
▁mum	-12.0537
▁basement	-12.0539
▁governor	-12.0544
▁187	-12.055
▁bay	-12.0553
meditat	-12.0553
▁upward	-12.0558
ingenu	-12.056
illenni	-12.0566
liberation	-12.0567
▁noble	-12.0573
hol	-12.0575
▁Merc	-12.0579
▁eighth	-12.0583
▁strengthen	-12.0584
19	-12.0584
▁methodolog	-12.0589
▁commander	-12.0594
▁dye	-12.0599
▁prostitut	-12.0604
▁prioritize	-12.0608
▁behold	-12.0609
▁tightly	-12.0611
▁Die	-12.0617
▁cycl	-12.0617
▁Find	-12.0624
▁Canc	-12.0628
▁Happ	-12.0656
rtie	-12.066
▁mill	-12.0672
▁Bali	-12.0674
bule	-12.0676
▁Nan	-12.0681
cca	-12.0684
TB	-12.0692
▁pore	-12.0695
▁rehabilitat	-12.0696
AL	-12.0699
▁acknowledg	-12.0707
▁Coc	-12.0707
▁auto	-12.0708
winn	-12.0731
▁fighter	-12.0733
correct	-12.0734
lude	-12.0735
▁planner	-12.0735
▁provoke	-12.0735
complete	-12.0736
cultural	-12.0737
▁Alan	-12.0744
escent	-12.0746
▁ignor	-12.075
color	-12.075
flow	-12.0752
▁Tel	-12.076
wash	-12.0764
▁statistic	-12.0813
SD	-12.0821
▁Kur	-12.0824
▁190	-12.083
etal	-12.0838
▁Terr	-12.0843
tune	-12.0848
zu	-12.0861
▁matche	-12.0864
ngue	-12.0864
18	-12.0896
tract	-12.0912
CT	-12.0916
▁squeeze	-12.0921
▁repli	-12.0921
umor	-12.0926
▁Cart	-12.0936
sourc	-12.0941
ambigu	-12.0944
peech	-12.0948
▁enthusias	-12.0949
▁synthesi	-12.0959
▁legislati	-12.0962
▁pollut	-12.0965
▁counsel	-12.0968
▁influen	-12.097
▁suburb	-12.0971
ssential	-12.0974
▁stereo	-12.0974
ranscript	-12.0974
▁Craig	-12.0974
▁Empire	-12.0974
▁Mitchell	-12.0974
▁Mumbai	-12.0974
▁Nairobi	-12.0974
▁Sleep	-12.0974
▁Taylor	-12.0974
▁Virtual	-12.0974
▁Yellow	-12.0974
▁chaotic	-12.0974
▁communal	-12.0974
▁devote	-12.0974
▁diarrhea	-12.0974
▁ghost	-12.0974
▁graffiti	-12.0974
▁guitar	-12.0974
▁hypothetical	-12.0974
▁incremental	-12.0974
▁juvenile	-12.0974
▁peripher	-12.0974
▁phthalate	-12.0974
▁protocol	-12.0974
▁resurrect	-12.0974
▁rhetoric	-12.0974
▁Alaska	-12.0974
▁Suppose	-12.0974
▁cocktail	-12.0974
▁humiliat	-12.0974
▁timber	-12.0974
▁anecdote	-12.0974
▁steak	-12.0974
▁Film	-12.0974
▁drain	-12.0974
▁warehouse	-12.0974
▁straw	-12.0974
▁indigen	-12.0974
▁stagger	-12.0974
▁cinema	-12.0974
▁feather	-12.0974
▁taboo	-12.0974
▁Garden	-12.0974
▁correlate	-12.0974
▁Cultur	-12.0974
▁Ryan	-12.0974
▁salad	-12.0975
▁urgent	-12.0975
▁offshor	-12.0975
▁preced	-12.0975
▁internet	-12.0975
▁Grant	-12.0975
▁regulator	-12.0975
▁retreat	-12.0976
▁blanket	-12.0976
▁cellphone	-12.0976
Bird	-12.0977
▁duty	-12.0977
▁vaccinate	-12.0977
▁ballot	-12.0977
▁pursu	-12.0977
viation	-12.0978
▁lime	-12.0979
▁fleet	-12.098
▁Brazilian	-12.098
▁Jenn	-12.0981
Vo	-12.0981
▁accomplishment	-12.0981
▁Down	-12.0981
▁digest	-12.0982
acci	-12.0983
▁fertil	-12.0984
▁articulate	-12.0984
▁cement	-12.0984
▁wallet	-12.0989
▁Station	-12.0992
▁wow	-12.0992
▁Monte	-12.0997
▁rust	-12.0997
▁SR	-12.1
▁eternal	-12.1001
▁cubic	-12.1006
utu	-12.1007
▁industrialize	-12.1009
▁Fall	-12.101
oline	-12.1012
▁Jon	-12.1012
▁fisherm	-12.1013
▁sprint	-12.1013
▁progression	-12.1014
▁province	-12.102
▁conception	-12.1025
▁duration	-12.1026
▁experimentation	-12.1033
nova	-12.1033
▁composer	-12.1038
laughter	-12.1042
▁transferr	-12.1043
▁Gw	-12.1043
▁publication	-12.1047
▁Aur	-12.105
lumber	-12.1057
▁Hav	-12.1063
▁Speci	-12.1066
▁arc	-12.107
▁epic	-12.1073
▁incorporate	-12.1086
▁collector	-12.1089
▁stimulat	-12.1097
▁Skyp	-12.1116
▁pla	-12.1127
▁Kal	-12.1132
▁Gene	-12.1174
wrestl	-12.1174
▁persuade	-12.1176
▁Eat	-12.1188
iller	-12.1196
▁Fast	-12.1202
▁Aar	-12.1225
▁unst	-12.1235
ribbe	-12.1244
▁resemble	-12.125
screen	-12.1254
▁Linu	-12.1255
lb	-12.1259
▁Sub	-12.126
organic	-12.126
author	-12.1269
quat	-12.1278
▁erect	-12.1278
▁spi	-12.1283
organism	-12.1285
nonymous	-12.1303
▁Maria	-12.1307
▁neo	-12.1309
opoly	-12.1313
▁doodl	-12.1325
▁debu	-12.133
tention	-12.1335
▁Mill	-12.1342
tunate	-12.1353
link	-12.1363
▁obscure	-12.1365
IP	-12.1371
▁Live	-12.1372
▁180	-12.1381
▁annoy	-12.1386
▁polariz	-12.1396
fford	-12.1413
▁explod	-12.1418
▁rev	-12.1435
visually	-12.1438
nergy	-12.1456
type	-12.1458
▁Aye	-12.1469
etween	-12.1473
▁emphasi	-12.1473
▁virtuo	-12.1474
prejudice	-12.1474
▁Hundred	-12.1474
▁Lawrence	-12.1474
▁Ukrain	-12.1474
▁competitor	-12.1474
▁conspirac	-12.1474
▁diffusion	-12.1474
▁draft	-12.1474
▁frugal	-12.1474
▁identification	-12.1474
▁immerse	-12.1474
▁imperfect	-12.1474
▁interrogat	-12.1474
▁millisecond	-12.1474
▁mutilat	-12.1474
▁paragraph	-12.1474
▁prescription	-12.1474
▁prince	-12.1474
▁reservation	-12.1474
▁spatial	-12.1474
▁unimaginabl	-12.1474
▁Service	-12.1474
▁brainstorm	-12.1474
▁echo	-12.1474
▁adjacen	-12.1474
▁discard	-12.1474
▁minimize	-12.1474
▁idiot	-12.1474
esteem	-12.1474
▁converg	-12.1474
▁lemon	-12.1474
arithm	-12.1474
▁grim	-12.1474
▁polymer	-12.1474
▁trunk	-12.1474
▁Forget	-12.1474
▁provocative	-12.1474
▁chef	-12.1474
▁biosphere	-12.1474
▁motorcycle	-12.1474
▁spoil	-12.1475
▁Secretary	-12.1475
▁distill	-12.1475
▁benign	-12.1475
▁insult	-12.1475
▁brake	-12.1475
▁Victorian	-12.1475
▁Full	-12.1475
▁crab	-12.1475
▁superstar	-12.1475
▁criticism	-12.1476
consistenc	-12.1476
▁textile	-12.1477
▁Game	-12.1477
▁seawater	-12.1477
▁1800	-12.1477
▁Stir	-12.1478
▁evaluation	-12.1478
▁Main	-12.1478
▁exile	-12.1478
▁olive	-12.1478
▁58	-12.1479
▁manipulation	-12.148
▁celebration	-12.148
▁assess	-12.1481
▁gambl	-12.1481
▁utilit	-12.1481
▁pollutant	-12.1482
▁distraction	-12.1482
▁attachment	-12.1484
▁Send	-12.1485
▁Roman	-12.1486
▁acquir	-12.1487
▁Fish	-12.1489
▁dwell	-12.1489
uke	-12.1489
▁CL	-12.149
wak	-12.1492
boyfriend	-12.1496
jack	-12.1497
▁Shake	-12.1498
▁tagg	-12.1501
▁upgrade	-12.1502
▁toaster	-12.1504
▁Coch	-12.1504
▁technologist	-12.1506
▁Cape	-12.1507
▁reconcile	-12.1508
▁47	-12.1512
▁consideration	-12.1513
▁semina	-12.1515
volt	-12.1515
▁Abu	-12.1519
▁reuse	-12.152
▁blogger	-12.1528
▁Rich	-12.1541
atus	-12.1541
uba	-12.1542
▁consol	-12.1543
▁outward	-12.1546
CA	-12.1546
▁presum	-12.1552
▁outlet	-12.1557
▁Prim	-12.1563
▁Designer	-12.1566
▁capitalist	-12.1577
▁Eri	-12.1579
▁nuclei	-12.1585
▁Iraqi	-12.1592
ronto	-12.1601
▁speculat	-12.1605
atic	-12.1616
▁Uni	-12.1617
▁Harri	-12.1619
finishe	-12.162
▁Diet	-12.165
▁Clo	-12.1652
▁backup	-12.1657
▁comp	-12.1666
▁reliev	-12.167
▁Though	-12.1672
▁revolutionize	-12.1678
ibera	-12.1678
▁manufacture	-12.1683
▁Peru	-12.1684
▁reasonabl	-12.1698
▁estimat	-12.1704
▁balanc	-12.1721
▁Polic	-12.1723
engineer	-12.1728
regulat	-12.1728
graphic	-12.1736
haired	-12.1743
enture	-12.1743
▁geographical	-12.1748
▁Best	-12.1764
▁emitt	-12.177
position	-12.1771
▁cosmo	-12.1774
▁rehabilitati	-12.1775
▁sensibl	-12.1781
▁wrestle	-12.1783
aki	-12.1791
SP	-12.1793
front	-12.181
claim	-12.1813
fashion	-12.1816
communication	-12.1816
securit	-12.1817
sexual	-12.1817
piece	-12.1818
government	-12.1818
national	-12.1823
▁MP	-12.1826
cast	-12.183
▁Eli	-12.1832
▁Euro	-12.1837
omi	-12.1844
▁starch	-12.1858
201	-12.1879
▁remark	-12.1879
▁riches	-12.1904
▁Eco	-12.1907
▁commute	-12.1923
▁Use	-12.1923
▁astronom	-12.1928
sonic	-12.193
rigg	-12.1931
▁UN	-12.1936
▁calcul	-12.1953
▁collaps	-12.198
▁defi	-12.1983
▁intellect	-12.1987
cratch	-12.199
▁refrigerat	-12.1994
▁humbl	-12.1996
disciplinar	-12.1996
▁prosper	-12.1997
▁journalis	-12.1997
scribe	-12.1998
ental	-12.1998
▁manifest	-12.1998
▁narrat	-12.1999
clusion	-12.2
RNA	-12.2
ltimate	-12.2
▁Guinea	-12.2
▁Jamaica	-12.2
▁Language	-12.2
▁Photograph	-12.2
▁UCL	-12.2
▁absurd	-12.2
▁acquisition	-12.2
▁catastrophe	-12.2
▁certificate	-12.2
▁cochlea	-12.2
▁convenience	-12.2
▁deplet	-12.2
▁exhilarat	-12.2
▁fuzz	-12.2
▁institute	-12.2
▁mortgage	-12.2
▁occupie	-12.2
▁pivot	-12.2
▁pixel	-12.2
▁pneumo	-12.2
▁rigorous	-12.2
▁serotonin	-12.2
▁skyscraper	-12.2
▁tribute	-12.2
▁triumph	-12.2
▁turtle	-12.2
▁vibran	-12.2
▁voluntar	-12.2
í	-12.2
▁Command	-12.2
▁Hindu	-12.2
▁perfume	-12.2
▁spiral	-12.2
▁Stefan	-12.2
▁scoop	-12.2
▁statue	-12.2
▁steward	-12.2
▁Liberia	-12.2
▁Gaza	-12.2
▁Movement	-12.2
▁immersi	-12.2
▁psyche	-12.2
▁tinker	-12.2
▁spouse	-12.2
▁jacket	-12.2001
▁gluco	-12.2001
▁matern	-12.2001
fensive	-12.2001
▁escalat	-12.2001
▁slate	-12.2001
▁radar	-12.2001
▁bulk	-12.2001
▁interfere	-12.2001
▁microRNA	-12.2001
▁orientation	-12.2001
▁violation	-12.2001
▁curator	-12.2001
▁verge	-12.2001
▁Portug	-12.2001
▁corti	-12.2002
▁council	-12.2002
▁nonverbal	-12.2002
▁hurdle	-12.2002
▁Est	-12.2002
▁deceive	-12.2002
▁missile	-12.2003
▁flick	-12.2003
▁sociologist	-12.2003
CO	-12.2003
▁confer	-12.2003
▁Bring	-12.2003
regon	-12.2003
▁vanish	-12.2004
▁McCa	-12.2004
▁urbanization	-12.2004
▁Trust	-12.2004
▁Guard	-12.2005
▁compris	-12.2005
▁Million	-12.2005
▁microbi	-12.2005
▁54	-12.2005
▁knot	-12.2005
▁Deep	-12.2005
▁Libra	-12.2006
▁innate	-12.2006
▁crater	-12.2006
▁rott	-12.2006
▁consultant	-12.2007
▁Saul	-12.2007
▁halve	-12.2007
▁chok	-12.2007
▁mash	-12.201
▁infra	-12.2011
▁strat	-12.2011
▁Dick	-12.2011
▁vow	-12.2011
▁Meet	-12.2012
▁Mello	-12.2012
cumen	-12.2013
▁reconcili	-12.2013
▁ideological	-12.2014
▁beast	-12.2015
psychotic	-12.2015
▁Harr	-12.2015
▁60,000	-12.2015
▁abstraction	-12.2016
▁laz	-12.2018
▁125	-12.2019
▁Walker	-12.2022
OS	-12.2022
▁margins	-12.2024
entrepreneurship	-12.2025
▁shave	-12.2025
airo	-12.2026
▁Fib	-12.2027
▁Award	-12.2031
▁Aust	-12.2045
▁Nine	-12.205
ansa	-12.206
▁mock	-12.2063
▁migrat	-12.2064
▁paradi	-12.2074
▁Whoa	-12.2087
▁Save	-12.209
dental	-12.2092
▁damag	-12.2093
▁Mira	-12.2097
▁optimize	-12.2098
▁Top	-12.2105
▁employer	-12.2117
▁racis	-12.2125
▁Qui	-12.2127
▁mistaken	-12.213
▁follower	-12.2136
igital	-12.2137
▁Europ	-12.2144
▁vein	-12.2144
▁startling	-12.2149
▁tender	-12.215
▁CC	-12.2159
▁Commun	-12.2161
▁Force	-12.2165
▁mysteri	-12.2165
▁folk	-12.2179
▁77	-12.2188
hicken	-12.2189
▁sketche	-12.219
▁Por	-12.2196
▁Hal	-12.2213
new	-12.2226
offend	-12.2233
▁slap	-12.2237
49	-12.2261
▁secondar	-12.2269
apping	-12.2271
SM	-12.2276
hell	-12.2283
▁auditor	-12.2285
▁Post	-12.2301
▁recreate	-12.2304
▁commentar	-12.2314
▁pul	-12.2358
▁developmental	-12.2376
angu	-12.2387
mmunity	-12.2388
walk	-12.2401
draw	-12.2402
confidence	-12.2403
opening	-12.2405
health	-12.2407
industrial	-12.2407
zero	-12.2408
green	-12.2408
high	-12.2409
▁160	-12.2409
home	-12.2411
turn	-12.2417
▁Bio	-12.2423
icious	-12.2425
▁Code	-12.2426
▁plac	-12.2428
risk	-12.243
lateral	-12.244
▁depriv	-12.2501
▁fertiliz	-12.2503
deli	-12.2511
▁ador	-12.253
▁transformati	-12.2536
ID	-12.254
▁navigat	-12.2545
reasure	-12.2545
▁communi	-12.2553
▁Choi	-12.2553
assa	-12.2554
anthrop	-12.2555
junction	-12.2556
▁Democracy	-12.2556
▁Odysse	-12.2556
▁Studio	-12.2556
▁Venezuela	-12.2556
▁attorney	-12.2556
▁cumulative	-12.2556
▁curtain	-12.2556
▁grassroots	-12.2556
▁inclusive	-12.2556
▁obligation	-12.2556
▁peacekeep	-12.2556
▁reciproc	-12.2556
▁rediscover	-12.2556
▁reluctan	-12.2556
▁semester	-12.2556
▁synapse	-12.2556
▁technician	-12.2556
▁transaction	-12.2556
▁unequal	-12.2556
▁unnecessar	-12.2556
▁affair	-12.2556
▁carcinogen	-12.2556
▁fluorescen	-12.2556
▁glory	-12.2556
▁gravitational	-12.2556
▁initiate	-12.2556
▁mutant	-12.2556
▁scatter	-12.2556
▁widow	-12.2556
ijuana	-12.2556
▁Field	-12.2556
▁Serious	-12.2556
▁audaci	-12.2556
▁dictate	-12.2556
▁fingertip	-12.2556
▁meadow	-12.2556
▁reckless	-12.2556
▁essay	-12.2556
▁resort	-12.2556
▁vegetati	-12.2556
▁feasib	-12.2556
▁Nichol	-12.2556
▁boreal	-12.2556
▁Jacob	-12.2556
▁forecast	-12.2556
▁pollinate	-12.2556
▁railway	-12.2556
▁biograph	-12.2556
partisan	-12.2556
▁illitera	-12.2556
▁Gehr	-12.2556
▁larva	-12.2556
▁bruise	-12.2556
▁alliance	-12.2556
▁thunder	-12.2556
▁condense	-12.2556
▁rival	-12.2556
▁Economist	-12.2557
▁battlefield	-12.2557
moud	-12.2557
▁comedian	-12.2557
▁MoMA	-12.2557
▁hunch	-12.2557
▁quiz	-12.2557
▁Canyon	-12.2557
▁irrita	-12.2557
▁Potter	-12.2557
▁Economic	-12.2557
▁euro	-12.2557
▁biotech	-12.2558
▁persistent	-12.2558
▁landfill	-12.2558
▁MBA	-12.2558
▁communist	-12.2558
▁owl	-12.2558
▁manifestation	-12.2558
▁admitted	-12.2559
▁Grow	-12.2559
▁passport	-12.2559
▁porn	-12.2559
▁roommate	-12.2559
▁persever	-12.2559
▁restoration	-12.2559
▁distinctive	-12.2559
▁57	-12.2559
▁hallway	-12.2559
▁divine	-12.256
▁Connecti	-12.256
▁Lock	-12.256
▁plugg	-12.2561
▁Norman	-12.2562
▁Protect	-12.2562
▁alternat	-12.2563
▁82	-12.2563
▁expressive	-12.2566
▁coca	-12.2566
▁TEDW	-12.2566
▁raft	-12.2567
▁appar	-12.2568
▁anomal	-12.257
hhh	-12.257
▁Islamist	-12.2571
hran	-12.2571
▁airline	-12.2572
▁500,000	-12.2572
Barack	-12.2574
▁Cross	-12.2576
▁attraction	-12.2577
▁planetary	-12.2577
▁freeway	-12.2578
▁coil	-12.2578
corp	-12.2579
achi	-12.2581
▁Often	-12.2581
▁Artist	-12.2582
94	-12.2582
enthusiastic	-12.2585
▁reflectiv	-12.2586
▁demoli	-12.2587
▁flush	-12.2588
spot	-12.259
▁Whit	-12.2592
utilize	-12.2592
▁spor	-12.2592
▁Creat	-12.2594
built	-12.2594
▁rela	-12.2605
▁evaporate	-12.2606
▁Kle	-12.2608
AG	-12.2608
▁connectiv	-12.2619
▁Pakistani	-12.2621
▁dim	-12.2627
▁Mel	-12.2628
▁Bil	-12.2632
▁Zu	-12.2634
▁Biospher	-12.2644
▁Agen	-12.2647
▁thro	-12.2648
scape	-12.2663
▁Call	-12.267
unny	-12.267
▁carb	-12.2671
▁evaluat	-12.2672
▁Mob	-12.2684
▁ignoran	-12.2684
most	-12.2688
▁Ob	-12.2705
▁observer	-12.2706
▁timeline	-12.2711
onference	-12.2722
vasive	-12.2731
▁mindful	-12.2733
▁Bah	-12.2735
▁Fro	-12.274
hili	-12.2755
▁corporation	-12.2764
▁temper	-12.2769
▁Nativ	-12.2781
▁Camp	-12.2783
▁Juan	-12.2805
▁Frankl	-12.2829
udge	-12.2832
▁Alic	-12.2835
▁78	-12.2835
▁painter	-12.2836
▁Pier	-12.2842
▁slipp	-12.2846
▁Missi	-12.2859
▁geographic	-12.2875
▁causal	-12.2883
RC	-12.2924
▁collaborat	-12.2926
hrir	-12.294
▁insur	-12.2966
▁improvis	-12.2967
▁pickle	-12.2971
▁App	-12.299
▁Job	-12.301
▁undergo	-12.302
worm	-12.3026
sensitive	-12.3026
appropriate	-12.3028
original	-12.303
check	-12.303
strong	-12.3031
watch	-12.3035
name	-12.3042
loop	-12.3046
▁lik	-12.305
▁devastat	-12.3051
▁Lim	-12.3052
large	-12.3058
▁behav	-12.3061
▁teache	-12.3068
▁relativ	-12.3073
▁pun	-12.3077
▁snap	-12.3088
huma	-12.3094
▁brin	-12.3095
▁academ	-12.3108
vision	-12.3112
▁electro	-12.3115
margin	-12.3117
olk	-12.3118
▁Nic	-12.312
▁surge	-12.3129
▁standardize	-12.3133
▁physiolog	-12.3134
▁anthropolog	-12.314
echanical	-12.3143
▁Babylon	-12.3143
▁Victor	-12.3143
▁feat	-12.3144
▁affirm	-12.3144
conceivabl	-12.3144
evident	-12.3144
▁Laborator	-12.3144
▁Michel	-12.3144
▁Pantheon	-12.3144
▁Pepsi	-12.3144
▁Sebastia	-12.3144
▁Video	-12.3144
▁Voyage	-12.3144
▁accommodate	-12.3144
▁administrator	-12.3144
▁appliance	-12.3144
▁autobiograph	-12.3144
▁biodegrad	-12.3144
▁deceptive	-12.3144
▁disadvantage	-12.3144
▁exclude	-12.3144
▁eyebrow	-12.3144
▁fraud	-12.3144
▁friction	-12.3144
▁hilarious	-12.3144
▁incubator	-12.3144
▁inexpensive	-12.3144
▁marshmallow	-12.3144
▁pollinator	-12.3144
▁premature	-12.3144
▁prevail	-12.3144
▁promotion	-12.3144
▁pronounce	-12.3144
▁reconnect	-12.3144
▁relevanc	-12.3144
▁respirator	-12.3144
▁sabbatical	-12.3144
▁sensitivit	-12.3144
▁specimen	-12.3144
▁subconscious	-12.3144
▁subsequent	-12.3144
▁synchroniz	-12.3144
▁windmill	-12.3144
▁delusion	-12.3144
▁fungus	-12.3144
▁hyena	-12.3144
▁smuggl	-12.3144
▁sponge	-12.3144
▁queue	-12.3144
▁residu	-12.3144
▁testimon	-12.3144
▁Differen	-12.3144
ubtitle	-12.3144
▁abnormal	-12.3144
▁chew	-12.3144
▁genomic	-12.3144
▁stagna	-12.3144
▁wreck	-12.3144
▁vacan	-12.3144
▁compliment	-12.3144
▁wrist	-12.3144
▁Question	-12.3144
fidel	-12.3144
▁audition	-12.3144
▁roost	-12.3144
▁Honor	-12.3144
▁Politic	-12.3144
▁swarm	-12.3144
▁crude	-12.3144
▁honeybee	-12.3144
▁compact	-12.3144
nourish	-12.3144
▁plaque	-12.3145
▁priest	-12.3145
▁reply	-12.3145
▁Financial	-12.3145
▁aspire	-12.3145
▁logistic	-12.3145
untu	-12.3145
▁Ninety	-12.3145
▁maximize	-12.3145
▁Spider	-12.3145
▁distress	-12.3145
▁Gord	-12.3145
▁outrageous	-12.3146
▁trek	-12.3146
▁Meyer	-12.3146
▁atheist	-12.3146
▁fluctuation	-12.3146
▁Brand	-12.3146
▁McG	-12.3146
▁Compare	-12.3146
▁trustworth	-12.3146
crony	-12.3146
zoning	-12.3146
▁Rocket	-12.3146
▁worthwhile	-12.3147
SDA	-12.3147
▁nudge	-12.3147
hmer	-12.3147
▁guideline	-12.3147
▁chill	-12.3147
▁Plu	-12.3147
▁Honey	-12.3147
litary	-12.3148
▁Fred	-12.3148
▁breakdown	-12.3149
▁slavery	-12.3149
▁pepper	-12.3149
▁Magic	-12.315
▁joyful	-12.3151
withstand	-12.3151
▁deployment	-12.3152
▁bombard	-12.3152
focal	-12.3152
▁astronomical	-12.3152
▁crust	-12.3152
▁hurr	-12.3153
▁dislike	-12.3153
▁commandment	-12.3154
▁Invest	-12.3154
▁physiological	-12.3155
▁simplify	-12.3155
▁gaze	-12.3155
▁Want	-12.3156
▁Tara	-12.3156
▁Russe	-12.3156
▁Blai	-12.3157
▁disruption	-12.3158
▁interg	-12.3158
▁Moz	-12.3159
▁warfar	-12.3159
▁Gand	-12.3174
▁Bonnie	-12.3174
▁Pia	-12.3174
tense	-12.3175
▁shortage	-12.318
▁Large	-12.3181
▁peel	-12.3185
▁Alf	-12.3192
▁catalog	-12.3198
▁soda	-12.3205
▁geneticist	-12.3206
▁Gayl	-12.3218
▁doubl	-12.3222
▁embody	-12.3224
▁blurr	-12.3227
▁linguistic	-12.3238
▁vibrate	-12.3244
▁Gri	-12.3251
▁Tob	-12.3274
endo	-12.3276
▁bureaucra	-12.3283
▁swap	-12.329
flu	-12.3291
▁visionar	-12.3292
▁Aim	-12.3297
▁Gues	-12.3302
rne	-12.3306
▁carbonate	-12.3349
jec	-12.3357
▁Mathematica	-12.3374
▁prototyp	-12.3385
▁considerabl	-12.3424
▁inquir	-12.3455
arable	-12.3461
▁infuse	-12.3461
▁foreigner	-12.3465
Sens	-12.347
ushi	-12.3471
▁Mario	-12.3472
▁clarif	-12.3495
▁Row	-12.3507
▁Cole	-12.3516
ogue	-12.3528
▁exceptional	-12.3534
▁dementi	-12.3536
▁Hop	-12.3552
▁CP	-12.3575
▁Gui	-12.3578
▁diar	-12.3596
▁Uncle	-12.3598
▁Lou	-12.3599
spar	-12.3634
pler	-12.3637
▁110	-12.3658
▁satisf	-12.3658
▁Nav	-12.3687
quarter	-12.3691
wheel	-12.3695
shine	-12.3695
balance	-12.3696
lift	-12.3696
perform	-12.3696
IM	-12.3697
design	-12.3697
brand	-12.3697
model	-12.3698
unset	-12.3701
▁legend	-12.3708
condition	-12.3716
talk	-12.3719
▁PI	-12.3734
▁Teach	-12.3737
urgenc	-12.3738
á	-12.3738
▁Snow	-12.3744
▁Maya	-12.3746
▁reproducti	-12.3765
darin	-12.3767
proving	-12.3767
▁excess	-12.3768
ampaign	-12.3769
▁Mount	-12.3769
=	-12.3769
▁Believe	-12.3769
▁Bloom	-12.3769
▁Excuse	-12.3769
▁Extreme	-12.3769
▁Group	-12.3769
▁Guatemala	-12.3769
▁Laptop	-12.3769
▁Matthew	-12.3769
▁Transition	-12.3769
▁Typical	-12.3769
▁appetite	-12.3769
▁arrogan	-12.3769
▁cafeteria	-12.3769
▁carpenter	-12.3769
▁charisma	-12.3769
▁concussion	-12.3769
▁empirical	-12.3769
▁excerpt	-12.3769
▁extrovert	-12.3769
▁festival	-12.3769
▁grind	-12.3769
▁improbab	-12.3769
▁miraculous	-12.3769
▁necessit	-12.3769
▁opponent	-12.3769
▁registr	-12.3769
▁responsive	-12.3769
▁ridicule	-12.3769
▁template	-12.3769
▁transgender	-12.3769
▁treadmill	-12.3769
▁wetsuit	-12.3769
▁Achill	-12.3769
▁Window	-12.3769
▁bladder	-12.3769
▁embark	-12.3769
▁firefight	-12.3769
▁invasion	-12.3769
▁nanotube	-12.3769
▁nickname	-12.3769
▁pollination	-12.3769
▁sermon	-12.3769
▁oblivio	-12.3769
▁persuasi	-12.3769
▁submarine	-12.3769
▁sentiment	-12.3769
▁Serge	-12.3769
▁graceful	-12.3769
▁Change	-12.3769
▁Visual	-12.3769
▁ancestr	-12.3769
▁Photoshop	-12.3769
▁mutate	-12.3769
▁seamless	-12.3769
▁Animal	-12.3769
▁cereal	-12.3769
▁Ariel	-12.3769
▁Personal	-12.3769
▁cherish	-12.3769
▁Oscar	-12.3769
▁Nico	-12.3769
▁exceed	-12.3769
▁sterile	-12.3769
▁sanctuar	-12.3769
▁Index	-12.377
▁resign	-12.377
▁gymn	-12.377
▁stink	-12.377
golia	-12.377
▁Airport	-12.377
▁nanoscale	-12.377
▁fingerprint	-12.377
▁counterpart	-12.377
▁pinpoint	-12.377
▁Ahmed	-12.377
▁Hmm	-12.377
▁flame	-12.377
▁progeri	-12.377
▁bait	-12.377
▁penetrate	-12.377
▁throat	-12.377
▁boson	-12.377
▁zip	-12.377
▁Zero	-12.3771
▁composite	-12.3771
▁Dennis	-12.3771
▁nomad	-12.3771
jev	-12.3771
▁soundscape	-12.3771
▁Robbi	-12.3771
▁blueprint	-12.3771
▁fridge	-12.3771
▁Libya	-12.3771
▁blade	-12.3772
▁heartbreak	-12.3772
▁gamma	-12.3773
▁clash	-12.3773
▁cynic	-12.3773
▁Darwinian	-12.3773
▁forgiveness	-12.3773
▁navigation	-12.3774
▁Pink	-12.3774
▁trail	-12.3775
▁indication	-12.3775
▁Money	-12.3776
▁68	-12.3776
transcendence	-12.3777
▁Poet	-12.3777
▁mast	-12.3777
▁Hanna	-12.3777
pathetic	-12.3778
▁NO	-12.3779
▁payoff	-12.3779
▁Helen	-12.3779
stella	-12.378
▁186	-12.3781
aptain	-12.3782
▁booth	-12.3785
▁Max	-12.3785
hatred	-12.3786
iel	-12.3786
▁Vel	-12.3787
▁roughness	-12.3788
▁Iron	-12.3788
▁conductor	-12.3788
▁Rule	-12.3788
▁crisp	-12.3789
▁Hadr	-12.3792
▁900	-12.3793
▁tourist	-12.3793
▁Trac	-12.3794
▁extraction	-12.3795
▁lend	-12.3795
▁tailor	-12.3796
▁spaceship	-12.3797
▁clapp	-12.3798
án	-12.38
▁correction	-12.3804
▁disk	-12.3805
▁reside	-12.3806
▁Mayan	-12.381
ARPA	-12.3811
▁gland	-12.3812
▁dorm	-12.3812
mostat	-12.3813
▁Mist	-12.3814
ruct	-12.3815
▁daf	-12.3821
elig	-12.3821
▁respectful	-12.3822
▁mania	-12.3832
▁Rebe	-12.3833
ennis	-12.3834
▁aggregate	-12.3841
▁Stein	-12.385
RE	-12.3853
▁Rang	-12.3853
post	-12.3858
▁cancel	-12.3864
ija	-12.3866
▁Financ	-12.3868
▁Intel	-12.3869
▁populat	-12.3874
EP	-12.3905
▁Tak	-12.3907
▁Nar	-12.3915
▁redefin	-12.3925
▁360	-12.3936
raging	-12.3938
▁carv	-12.3943
▁pat	-12.3945
parate	-12.3945
▁Idea	-12.3949
▁doodle	-12.396
moor	-12.3963
▁Twi	-12.3968
▁cel	-12.3968
azar	-12.3971
▁defender	-12.398
NT	-12.398
▁unto	-12.3986
▁whistl	-12.3989
▁chopp	-12.3989
▁Ror	-12.4009
emost	-12.4039
▁nut	-12.4075
▁Brea	-12.4077
▁Colli	-12.4082
chk	-12.4091
▁Esse	-12.4109
▁protester	-12.4118
▁emit	-12.4137
bao	-12.4146
▁450	-12.4147
▁digitiz	-12.4156
stitution	-12.418
▁Anna	-12.4188
▁bugg	-12.4199
nya	-12.422
▁convers	-12.422
▁requir	-12.4236
door	-12.4264
▁SB	-12.4288
▁weave	-12.4309
explored	-12.431
▁reimagine	-12.4317
▁destin	-12.4325
▁disabilit	-12.4327
grader	-12.4331
▁Rub	-12.4332
▁gentl	-12.4333
70	-12.4338
huse	-12.4347
▁nurs	-12.4353
▁lymph	-12.4353
coordinate	-12.4354
▁uncertain	-12.4372
▁stab	-12.4376
elect	-12.4383
▁characterize	-12.4387
rock	-12.4389
▁bake	-12.4399
▁chu	-12.4406
MRI	-12.4407
infect	-12.441
birth	-12.4411
familiar	-12.4411
material	-12.4411
white	-12.4412
pattern	-12.4412
machine	-12.4412
bank	-12.4415
present	-12.4433
libr	-12.4433
▁anonym	-12.4435
ompassion	-12.4435
▁flour	-12.4436
▁misunderst	-12.4436
▁Stockh	-12.4436
▁unthink	-12.4436
▁alpha	-12.4436
▁embryo	-12.4436
▁imprison	-12.4436
▁reperto	-12.4436
Thousands	-12.4436
transducer	-12.4436
▁Certain	-12.4436
▁DIY	-12.4436
▁Orleans	-12.4436
▁Schwarz	-12.4436
▁Taiwan	-12.4436
▁Thursday	-12.4436
▁Toraja	-12.4436
▁Traditional	-12.4436
▁Tweet	-12.4436
▁algebra	-12.4436
▁antidote	-12.4436
▁apprentice	-12.4436
▁balcon	-12.4436
▁catalyst	-12.4436
▁confession	-12.4436
▁delicate	-12.4436
▁epiphan	-12.4436
▁equator	-12.4436
▁hazard	-12.4436
▁hippocamp	-12.4436
▁inferior	-12.4436
▁laureate	-12.4436
▁leisure	-12.4436
▁pavilion	-12.4436
▁serendipit	-12.4436
▁sprawl	-12.4436
▁supplement	-12.4436
▁suspens	-12.4436
▁turbine	-12.4436
▁turbulen	-12.4436
▁vector	-12.4436
phobic	-12.4436
▁Cooper	-12.4436
▁Effect	-12.4436
▁Pearl	-12.4436
▁Rouge	-12.4436
▁pediatric	-12.4436
▁reunion	-12.4436
▁whiske	-12.4436
▁Critic	-12.4436
▁Hiroshi	-12.4436
▁altruist	-12.4436
▁plunge	-12.4436
▁strive	-12.4436
▁vague	-12.4436
utheast	-12.4436
▁Anthon	-12.4436
▁holistic	-12.4436
▁socket	-12.4436
▁empathiz	-12.4436
▁pragmati	-12.4436
▁Exact	-12.4436
▁collage	-12.4436
▁prompt	-12.4436
▁mourn	-12.4436
▁intractable	-12.4436
▁Shame	-12.4436
▁eager	-12.4436
▁Cruz	-12.4436
▁lexicograph	-12.4436
▁Persian	-12.4436
▁cautio	-12.4436
▁schema	-12.4436
▁budd	-12.4436
▁royal	-12.4436
▁gossip	-12.4436
▁Control	-12.4436
▁histories	-12.4436
▁Short	-12.4436
▁Trice	-12.4436
▁scour	-12.4436
▁worn	-12.4436
▁Point	-12.4436
▁verify	-12.4436
▁craving	-12.4436
▁revolv	-12.4436
nowledge	-12.4436
▁quantitative	-12.4437
▁moderate	-12.4437
▁plaster	-12.4437
▁harsh	-12.4437
▁lesion	-12.4437
▁waist	-12.4437
▁inhabitant	-12.4437
▁pillow	-12.4437
▁contradiction	-12.4437
counterintuitive	-12.4437
▁attain	-12.4437
▁suburbia	-12.4437
▁cult	-12.4437
▁ovari	-12.4437
trophy	-12.4437
▁headphone	-12.4438
▁appall	-12.4438
▁Agn	-12.4438
▁Kind	-12.4438
nspired	-12.4438
▁committee	-12.4438
▁allocate	-12.4439
▁toolbox	-12.4439
▁Night	-12.4439
▁enrich	-12.4439
▁tolerate	-12.444
▁recreation	-12.444
▁Jake	-12.444
▁Normal	-12.4441
▁Diver	-12.4441
▁fatty	-12.4441
▁constructive	-12.4442
▁gigant	-12.4442
▁Brook	-12.4442
▁nonviolence	-12.4443
▁fluent	-12.4444
▁Pick	-12.4444
inister	-12.4446
▁Malco	-12.4446
▁HP	-12.4446
▁keen	-12.4447
▁liar	-12.4448
▁dragon	-12.4449
antha	-12.445
▁Break	-12.445
▁relational	-12.4451
▁rejection	-12.4452
▁uh	-12.4452
sterda	-12.4452
▁INC	-12.4453
▁delightful	-12.4454
▁Miller	-12.4454
▁Fear	-12.4455
▁thou	-12.4456
▁39	-12.4456
▁supplier	-12.4458
▁youngster	-12.4459
▁puzzl	-12.4463
▁multitask	-12.4463
▁substitute	-12.4464
▁ignit	-12.4465
▁meaningless	-12.4466
▁Alto	-12.4467
FL	-12.447
▁illustrat	-12.4474
▁Player	-12.4475
homa	-12.4477
▁Forty	-12.4478
▁seren	-12.448
▁antique	-12.4483
▁naught	-12.4489
PL	-12.4493
terior	-12.4496
MF	-12.4499
▁mimick	-12.4507
▁hostilit	-12.4511
▁accountant	-12.4513
SG	-12.4528
▁nitro	-12.4536
▁bark	-12.4537
▁murderer	-12.4547
▁participator	-12.4547
▁nap	-12.4556
▁Near	-12.4559
lux	-12.4567
emia	-12.4571
essage	-12.4596
▁BP	-12.4596
▁tinie	-12.4602
ductive	-12.4603
▁Pres	-12.4606
motivat	-12.4619
TH	-12.463
nim	-12.4638
▁thriv	-12.4641
undi	-12.4652
▁tickle	-12.4654
eject	-12.4655
▁Midwest	-12.468
▁67	-12.4684
▁Osa	-12.4684
▁functionalit	-12.4687
asia	-12.4691
location	-12.4695
ecto	-12.4696
▁Perc	-12.4736
▁Huh	-12.4749
▁organizer	-12.4756
▁cub	-12.4761
agne	-12.4801
▁flor	-12.4802
▁Limb	-12.4825
▁Univers	-12.4829
▁dogma	-12.4854
▁continual	-12.4864
▁wrinkle	-12.4867
ovo	-12.4911
▁gravel	-12.492
▁Jami	-12.4922
▁Sky	-12.494
▁miniatur	-12.4947
▁savanna	-12.4949
▁fog	-12.4959
wick	-12.4968
▁purchas	-12.4973
wesome	-12.4979
bureaucrat	-12.4983
lix	-12.4994
asca	-12.5014
actic	-12.5035
▁neurologic	-12.5037
▁Environment	-12.5059
▁wav	-12.5066
▁blur	-12.5067
▁activis	-12.5087
▁giga	-12.5088
▁Pun	-12.5094
▁cultivat	-12.5096
manda	-12.5099
minent	-12.51
▁Tasmania	-12.512
▁dominan	-12.5135
▁compass	-12.5146
▁bioluminescen	-12.5147
▁cabin	-12.5149
▁sanct	-12.515
rief	-12.515
è	-12.515
▁Author	-12.515
▁CIA	-12.515
▁Current	-12.515
▁Fantastic	-12.515
▁Jacque	-12.515
▁Netflix	-12.515
▁Rhode	-12.515
%	-12.515
percussion	-12.515
perpetuat	-12.515
pocalyp	-12.515
–	-12.515
▁Charlotte	-12.515
▁Conservati	-12.515
▁Electro	-12.515
▁Engineer	-12.515
▁Freud	-12.515
▁Papua	-12.515
▁Scoop	-12.515
▁Strange	-12.515
▁WorldWide	-12.515
▁ambassador	-12.515
▁amputee	-12.515
▁antiretroviral	-12.515
▁assault	-12.515
▁bottleneck	-12.515
▁bundle	-12.515
▁choreograph	-12.515
▁coalition	-12.515
▁condemn	-12.515
▁cricket	-12.515
▁decisive	-12.515
▁diffuse	-12.515
▁diminish	-12.515
▁discourag	-12.515
▁disintegrat	-12.515
▁doctrine	-12.515
▁elusive	-12.515
▁embroider	-12.515
▁estrogen	-12.515
▁fragrance	-12.515
▁handwrit	-12.515
▁homosexual	-12.515
▁intimidat	-12.515
▁lettuce	-12.515
▁microblogg	-12.515
▁mockingbird	-12.515
▁neurosurge	-12.515
▁outweigh	-12.515
▁patron	-12.515
▁perceptual	-12.515
▁plummet	-12.515
▁quirk	-12.515
▁rainbow	-12.515
▁reassure	-12.515
▁rectangle	-12.515
▁recurren	-12.515
▁refresh	-12.515
▁ribbon	-12.515
▁scribbl	-12.515
▁singular	-12.515
▁stakeholder	-12.515
▁superhero	-12.515
▁taxpayer	-12.515
▁Club	-12.515
▁irrigati	-12.515
▁Common	-12.515
▁slime	-12.515
▁tweak	-12.515
▁gadget	-12.515
▁mangrove	-12.515
▁Reddit	-12.515
▁Shaw	-12.515
▁Fifteen	-12.515
▁Lanka	-12.515
▁shipyard	-12.515
▁daunting	-12.515
▁ingenious	-12.515
▁vaccination	-12.515
▁cliche	-12.515
▁terminal	-12.515
▁Massac	-12.515
▁juni	-12.515
nnovation	-12.515
▁crave	-12.515
NES	-12.515
▁forensic	-12.515
▁paranoi	-12.515
▁rodent	-12.5151
▁Word	-12.5151
▁fibro	-12.5151
umann	-12.5151
▁cellulos	-12.5151
▁Morning	-12.5151
▁championship	-12.5151
▁meritocra	-12.5151
▁dictatorship	-12.5151
▁telecom	-12.5151
▁Geoff	-12.5151
▁knob	-12.5151
▁stripped	-12.5152
▁latitude	-12.5152
▁Barbar	-12.5152
▁Solar	-12.5152
▁Program	-12.5152
▁humid	-12.5152
▁Naj	-12.5152
▁sulfur	-12.5152
▁Pitt	-12.5152
zzar	-12.5152
▁aisle	-12.5153
▁preview	-12.5153
▁Planet	-12.5153
ircle	-12.5153
▁latter	-12.5153
▁landmine	-12.5153
▁instructor	-12.5153
▁Prison	-12.5153
▁Sufi	-12.5154
▁facade	-12.5154
▁dissection	-12.5154
▁Fight	-12.5154
▁Bayes	-12.5154
▁Patent	-12.5155
▁Zip	-12.5155
▁devastation	-12.5155
▁Bono	-12.5155
▁76	-12.5156
▁disagreement	-12.5156
▁spam	-12.5156
▁iteration	-12.5156
▁Raise	-12.5157
▁mitigat	-12.5157
▁Wang	-12.5157
▁83	-12.5158
▁Marsha	-12.5158
▁Chop	-12.5158
eague	-12.5158
▁restriction	-12.5158
▁reset	-12.5158
▁Wide	-12.5159
negat	-12.5159
▁livelihood	-12.516
▁hail	-12.516
▁pedal	-12.516
▁mandate	-12.5163
▁variant	-12.5163
▁treasure	-12.5164
▁blast	-12.5165
▁baseline	-12.5165
▁backpack	-12.5165
▁Brain	-12.5167
▁fond	-12.5168
▁Hous	-12.5174
▁Pran	-12.5175
secure	-12.5175
▁Tso	-12.5176
▁advancement	-12.5177
▁Gilli	-12.5177
▁Face	-12.5177
▁judg	-12.518
▁Yemeni	-12.518
famous	-12.518
function	-12.5181
computer	-12.5181
rosion	-12.5181
focus	-12.5181
▁foresee	-12.5183
▁Bots	-12.5184
help	-12.5186
haul	-12.5194
▁Fortun	-12.5194
▁Fold	-12.5194
▁dug	-12.5198
▁Java	-12.5199
▁separat	-12.5199
▁ramp	-12.5202
polis	-12.5203
▁Bonn	-12.5204
phone	-12.5206
▁Basi	-12.521
groom	-12.5213
text	-12.5214
▁slot	-12.5217
▁canoe	-12.5217
▁legendar	-12.5222
▁Conne	-12.5223
▁Chap	-12.5235
▁Environmental	-12.5242
zel	-12.5251
▁Kite	-12.5252
▁amuse	-12.5259
▁Safe	-12.5267
▁Genom	-12.5297
▁Rap	-12.5312
▁bagg	-12.5317
▁Beyon	-12.5317
Maker	-12.5367
pont	-12.5386
atops	-12.5416
illus	-12.5418
esert	-12.5451
cited	-12.5463
▁originate	-12.5502
MM	-12.5503
cott	-12.5509
▁heroin	-12.5547
heid	-12.5589
nuit	-12.5595
educat	-12.5596
▁Mali	-12.562
SF	-12.5632
▁whal	-12.5673
nthia	-12.5682
▁proportional	-12.5713
glu	-12.5729
▁complet	-12.5741
▁expo	-12.5765
spen	-12.5775
amie	-12.5789
▁cran	-12.5804
ipped	-12.5824
▁Auto	-12.5839
▁Leg	-12.584
nnett	-12.5848
▁utiliz	-12.5869
violent	-12.5871
▁generalize	-12.5879
cientific	-12.5893
volut	-12.5914
▁dissect	-12.5915
▁invisib	-12.5916
▁legitima	-12.5918
iamond	-12.5918
incidence	-12.5918
▁renew	-12.5919
▁Secret	-12.5919
arroça	-12.5919
eclaration	-12.5919
granddaughter	-12.5919
▁EEG	-12.5919
▁Further	-12.5919
▁Gapminder	-12.5919
▁Ottoman	-12.5919
▁Picasso	-12.5919
▁Progress	-12.5919
▁Record	-12.5919
▁Tamiflu	-12.5919
▁altruism	-12.5919
▁asphalt	-12.5919
▁bailout	-12.5919
▁calibrat	-12.5919
▁dashboard	-12.5919
▁deconstruct	-12.5919
▁detergent	-12.5919
▁devotion	-12.5919
▁gecko	-12.5919
▁heterosexual	-12.5919
▁leapfrog	-12.5919
▁misconception	-12.5919
▁module	-12.5919
▁municipal	-12.5919
▁orthopedic	-12.5919
▁perpetual	-12.5919
▁plague	-12.5919
▁plume	-12.5919
▁plutocra	-12.5919
▁primordial	-12.5919
▁railroad	-12.5919
▁reconfigur	-12.5919
▁reflex	-12.5919
▁republic	-12.5919
▁sediment	-12.5919
▁surrender	-12.5919
▁surrogate	-12.5919
▁troubling	-12.5919
▁vapor	-12.5919
▁yogurt	-12.5919
borough	-12.5919
enthrall	-12.5919
▁1.4	-12.5919
▁Explor	-12.5919
▁Hirsh	-12.5919
▁astounding	-12.5919
▁inequit	-12.5919
▁ripple	-12.5919
▁stockpile	-12.5919
▁webcam	-12.5919
dialect	-12.5919
▁conjure	-12.5919
▁fierce	-12.5919
▁pessimist	-12.5919
▁teapot	-12.5919
▁announcement	-12.5919
▁shareholder	-12.5919
▁empti	-12.5919
▁recline	-12.5919
frost	-12.5919
▁Brenda	-12.5919
▁unsafe	-12.5919
▁premier	-12.5919
▁Minne	-12.5919
▁venom	-12.5919
▁Johann	-12.5919
▁summon	-12.5919
▁Khal	-12.592
▁warrant	-12.592
▁snapshot	-12.592
▁IKE	-12.592
▁underpin	-12.592
▁ballast	-12.592
▁billionaire	-12.592
▁compatib	-12.592
▁Malawi	-12.592
▁capaciti	-12.592
▁deteriorat	-12.592
▁hurricane	-12.592
▁scandal	-12.592
▁byproduct	-12.592
▁napkin	-12.592
welve	-12.592
▁palette	-12.592
▁sniff	-12.592
▁crunch	-12.592
▁maze	-12.592
▁radiologist	-12.592
plasma	-12.592
▁masterpiece	-12.592
▁engulf	-12.592
▁blunt	-12.592
▁Heather	-12.592
▁grandmaster	-12.592
▁feminism	-12.592
▁metropolitan	-12.592
▁parameter	-12.592
▁dissent	-12.592
▁interference	-12.592
▁kidnappe	-12.592
▁anchor	-12.592
▁pledg	-12.592
▁subtract	-12.592
▁provision	-12.592
▁Search	-12.592
▁automo	-12.592
▁gridlock	-12.5921
▁prescribe	-12.5921
electrif	-12.5921
▁obey	-12.5921
▁Kiva	-12.5921
▁saturat	-12.5921
▁statistician	-12.5921
▁womb	-12.5921
▁mason	-12.5922
▁Seventy	-12.5922
▁forehead	-12.5922
▁foolish	-12.5922
▁conform	-12.5922
▁emulate	-12.5922
www	-12.5922
▁champ	-12.5922
▁Galil	-12.5923
▁Mind	-12.5923
▁outfit	-12.5923
▁cruise	-12.5923
▁interconnection	-12.5923
▁niche	-12.5923
▁Danny	-12.5923
▁semen	-12.5923
▁dysfunctional	-12.5923
▁droplet	-12.5923
▁grill	-12.5923
▁Holland	-12.5923
▁Turkish	-12.5923
▁tradeoff	-12.5923
▁Moham	-12.5924
▁Shah	-12.5924
▁Choice	-12.5924
▁underlie	-12.5924
▁geological	-12.5925
venge	-12.5925
▁shortcut	-12.5925
▁Pool	-12.5926
▁speculation	-12.5926
▁potter	-12.5926
▁uninten	-12.5927
▁Town	-12.5927
▁offender	-12.5927
▁reception	-12.5927
▁firefl	-12.5927
▁89	-12.5927
▁wax	-12.5928
▁packet	-12.5929
▁waterfall	-12.5929
▁Nano	-12.5929
alaria	-12.5929
▁misuse	-12.593
▁Gamb	-12.593
▁Huck	-12.593
▁Whale	-12.5931
▁Claus	-12.5931
▁reign	-12.5932
▁confrontation	-12.5933
shmi	-12.5934
▁Rita	-12.5936
▁Nir	-12.5936
▁wetland	-12.5937
▁Fourth	-12.5937
▁Rena	-12.5938
melon	-12.5939
▁visualiz	-12.594
▁Ala	-12.5943
▁Mayor	-12.5944
▁dilat	-12.5945
▁Cleve	-12.5947
▁crumbl	-12.5949
▁Understand	-12.5961
acco	-12.5963
idden	-12.5975
insurgenc	-12.5976
▁Rama	-12.5979
▁Kins	-12.5987
pork	-12.5996
locate	-12.5997
▁Marine	-12.5997
▁hatch	-12.6006
▁analytical	-12.6007
portrait	-12.6009
conventional	-12.601
border	-12.601
protect	-12.6013
mouth	-12.6014
finance	-12.6014
performance	-12.6015
grain	-12.6015
ggy	-12.6015
game	-12.6017
week	-12.6017
medical	-12.6017
▁Born	-12.602
▁entitle	-12.6026
urance	-12.6049
LM	-12.6067
woman	-12.6093
ulli	-12.6121
▁Luk	-12.6125
▁investigati	-12.6128
▁59	-12.6129
▁Infinit	-12.6142
▁debat	-12.6166
▁lag	-12.6172
chai	-12.6174
▁tackl	-12.6181
▁Jerem	-12.6197
▁erase	-12.6205
▁rib	-12.6225
treat	-12.6252
ibu	-12.6306
▁Elv	-12.6308
▁welcom	-12.631
▁Mada	-12.6312
▁Carri	-12.635
handler	-12.6358
razo	-12.6367
ascar	-12.6372
▁Jose	-12.6389
▁Berg	-12.6403
▁persuad	-12.6403
▁decreas	-12.6423
▁metaboliz	-12.6425
PO	-12.6461
▁remedi	-12.6474
▁Loca	-12.6487
flyer	-12.6488
▁colonize	-12.6524
▁competenc	-12.6539
iki	-12.6581
▁ethnicit	-12.6625
spiring	-12.6641
▁Build	-12.6663
▁stunn	-12.6663
▁astonish	-12.6664
▁accord	-12.6664
lage	-12.6676
▁brillian	-12.6689
iev	-12.6696
Tun	-12.6704
400	-12.6716
caust	-12.6719
▁atmospher	-12.6723
▁disast	-12.6723
▁suicid	-12.6725
▁commercializ	-12.6725
▁desperat	-12.6729
▁spectro	-12.6731
▁comprehensi	-12.6736
▁cogniti	-12.6736
omorrow	-12.6743
▁restorati	-12.675
▁Develop	-12.675
▁versa	-12.6751
orruption	-12.6752
▁lexico	-12.6753
▁multimedia	-12.6753
▁adversar	-12.6753
▁jealous	-12.6753
▁proxim	-12.6753
Chryst	-12.6753
ó	-12.6753
▁99.9	-12.6753
▁Challenge	-12.6753
▁Convention	-12.6753
▁Gabriel	-12.6753
▁Georgia	-12.6753
▁Harbor	-12.6753
▁Malaysia	-12.6753
▁Mushroom	-12.6753
▁Physici	-12.6753
▁Psychologist	-12.6753
▁Statistic	-12.6753
▁abdomen	-12.6753
▁archetyp	-12.6753
▁biblical	-12.6753
▁bloom	-12.6753
▁bonobo	-12.6753
▁cadaver	-12.6753
▁capsule	-12.6753
▁complication	-12.6753
▁crocodile	-12.6753
▁cucumber	-12.6753
▁cyberattack	-12.6753
▁cyborg	-12.6753
▁defect	-12.6753
▁definitive	-12.6753
▁discrete	-12.6753
▁drastic	-12.6753
▁dyslexi	-12.6753
▁execution	-12.6753
▁explosive	-12.6753
▁fiddle	-12.6753
▁fracture	-12.6753
▁hustle	-12.6753
▁immigrat	-12.6753
▁immoral	-12.6753
▁immunization	-12.6753
▁implicit	-12.6753
▁indefinite	-12.6753
▁influenza	-12.6753
▁intertwine	-12.6753
▁lightbulb	-12.6753
▁microprocessor	-12.6753
▁moisture	-12.6753
▁pajama	-12.6753
▁practitioner	-12.6753
▁precaution	-12.6753
▁psychotherap	-12.6753
▁scrutin	-12.6753
▁soprano	-12.6753
▁stirring	-12.6753
▁submersible	-12.6753
▁typewriter	-12.6753
▁unravel	-12.6753
▁Psycho	-12.6753
▁asylum	-12.6753
▁embryonic	-12.6753
▁examination	-12.6753
▁miscarri	-12.6753
▁rupee	-12.6753
▁segment	-12.6753
▁strawberr	-12.6753
▁collide	-12.6753
▁cramm	-12.6753
▁crippl	-12.6753
▁prehistor	-12.6753
▁stunt	-12.6753
▁thrust	-12.6753
▁enlist	-12.6753
▁trawl	-12.6753
tyrann	-12.6753
▁advertisement	-12.6753
▁ozone	-12.6753
▁siege	-12.6753
▁coworker	-12.6753
▁cowboy	-12.6753
▁harass	-12.6753
▁nominate	-12.6753
▁Hotel	-12.6753
▁gluten	-12.6753
entagon	-12.6753
▁bookstore	-12.6753
▁slamm	-12.6753
bilitat	-12.6753
▁profan	-12.6753
▁detach	-12.6753
▁savor	-12.6753
▁coincide	-12.6753
Monkey	-12.6753
▁crease	-12.6753
▁Clark	-12.6753
▁subset	-12.6753
▁smack	-12.6753
▁stitch	-12.6753
▁precursor	-12.6753
▁admission	-12.6754
▁bumblebee	-12.6754
▁Trini	-12.6754
▁LOL	-12.6754
▁leash	-12.6754
▁Missou	-12.6754
flamma	-12.6754
▁imaginative	-12.6754
▁ferment	-12.6754
▁rooftop	-12.6754
▁excessive	-12.6754
▁Memor	-12.6754
▁costume	-12.6754
▁NSA	-12.6755
▁guru	-12.6755
vicini	-12.6755
▁proliferation	-12.6756
▁1940	-12.6756
▁tidy	-12.6756
▁impart	-12.6756
▁Director	-12.6756
▁Bandu	-12.6756
▁seque	-12.6756
▁Among	-12.6756
▁erupt	-12.6756
▁graft	-12.6756
▁ascend	-12.6756
▁Zeta	-12.6756
▁suburban	-12.6756
▁skydiv	-12.6756
▁bioluminescence	-12.6757
▁Judge	-12.6757
▁Nicole	-12.6757
▁Sacr	-12.6757
▁bald	-12.6758
▁embarrassment	-12.6758
closure	-12.6758
▁waterfront	-12.6758
▁curb	-12.6758
Lebanese	-12.6759
▁enact	-12.6759
▁Walter	-12.6759
▁cartel	-12.6759
▁fuck	-12.6759
▁microwave	-12.676
▁pupp	-12.676
dez	-12.676
▁clinician	-12.676
▁hover	-12.676
▁recommendation	-12.6761
▁handsome	-12.6762
▁73	-12.6762
▁poop	-12.6762
▁precipitat	-12.6762
▁Block	-12.6762
▁batch	-12.6763
▁Knight	-12.6763
▁crest	-12.6763
▁classify	-12.6763
▁counselor	-12.6764
▁Curi	-12.6764
▁1982	-12.6765
▁formulation	-12.6765
▁repel	-12.6765
▁claw	-12.6765
netary	-12.6766
▁Axi	-12.6766
▁Board	-12.6769
HO	-12.6774
amara	-12.6775
▁Generati	-12.6778
▁lava	-12.6779
▁Tree	-12.678
▁prosthes	-12.6785
▁hike	-12.6802
Contra	-12.6803
▁Giv	-12.6808
▁Architectur	-12.6821
colonial	-12.6832
▁inhale	-12.6832
▁prominen	-12.6854
▁complian	-12.6856
▁commut	-12.6879
▁Hyde	-12.6879
▁reviv	-12.6912
Prince	-12.6913
muddi	-12.6919
bird	-12.6921
market	-12.6921
limited	-12.6922
belief	-12.6922
square	-12.6923
spoke	-12.6923
billion	-12.6924
people	-12.6925
▁harp	-12.6933
▁locomoti	-12.6944
exist	-12.6972
▁validate	-12.7001
▁predictabl	-12.7105
▁Patric	-12.7178
▁auditori	-12.7179
provok	-12.7193
▁Cloni	-12.7196
▁blu	-12.7242
hocke	-12.7254
▁categorize	-12.7282
imming	-12.7321
▁cooperat	-12.7333
▁750	-12.7362
▁temporari	-12.7375
▁congratulat	-12.7385
enhanc	-12.7389
▁spiritualit	-12.7391
shel	-12.7395
▁slid	-12.7406
▁Greg	-12.7422
emic	-12.7451
▁locomot	-12.7457
gras	-12.7479
▁financ	-12.7521
▁lenti	-12.7537
▁pharmac	-12.755
glob	-12.7606
▁Davi	-12.7609
elimina	-12.7622
heikh	-12.7632
ynthetic	-12.7635
▁clap	-12.7635
imulator	-12.7646
▁hung	-12.765
vaccin	-12.7654
solate	-12.7654
▁fright	-12.7655
▁situat	-12.7658
▁femini	-12.7659
flection	-12.7659
▁symbio	-12.766
▁advent	-12.766
▁crate	-12.7661
sippi	-12.7662
▁catheter	-12.7662
▁eyewitness	-12.7662
▁gelatin	-12.7662
▁irregular	-12.7662
▁repositor	-12.7662
@	-12.7662
NICE	-12.7662
bimetal	-12.7662
clamation	-12.7662
▁1.6	-12.7662
▁Agricultur	-12.7662
▁Amazing	-12.7662
▁Electric	-12.7662
▁Embrac	-12.7662
▁Exxon	-12.7662
▁Hispanic	-12.7662
▁LOLcat	-12.7662
▁Magazine	-12.7662
▁Michoac	-12.7662
▁Mozambi	-12.7662
▁Senegal	-12.7662
▁Simpson	-12.7662
▁Sinclair	-12.7662
▁adrenalin	-12.7662
▁aerodynamic	-12.7662
▁amygdala	-12.7662
▁antidepressant	-12.7662
▁archaeolog	-12.7662
▁benchmark	-12.7662
▁briquette	-12.7662
▁buffalo	-12.7662
▁cannibal	-12.7662
▁caterpillar	-12.7662
▁ceramic	-12.7662
▁coherent	-12.7662
▁congress	-12.7662
▁demoralize	-12.7662
▁desalinati	-12.7662
▁devour	-12.7662
▁dilute	-12.7662
▁discharge	-12.7662
▁dissonance	-12.7662
▁dreadful	-12.7662
▁duplicate	-12.7662
▁ecsta	-12.7662
▁excavat	-12.7662
▁excruciating	-12.7662
▁fatigue	-12.7662
▁fifty	-12.7662
▁fountain	-12.7662
▁frantic	-12.7662
▁ghetto	-12.7662
▁giraffe	-12.7662
▁glaze	-12.7662
▁gradient	-12.7662
▁immunize	-12.7662
▁incentiviz	-12.7662
▁jurisdiction	-12.7662
▁juxtaposition	-12.7662
▁latrine	-12.7662
▁manuscript	-12.7662
▁motorbike	-12.7662
▁overestimat	-12.7662
▁patriarch	-12.7662
▁plural	-12.7662
▁poignant	-12.7662
▁prohibit	-12.7662
▁questionnaire	-12.7662
▁reassuring	-12.7662
▁rejuvenat	-12.7662
▁rhyme	-12.7662
▁sausage	-12.7662
▁segregat	-12.7662
▁squirt	-12.7662
▁utilitarian	-12.7662
▁volatile	-12.7662
▁whistleblower	-12.7662
▁yawn	-12.7662
▁Federal	-12.7662
▁chalk	-12.7662
▁crayon	-12.7662
▁hectare	-12.7662
▁instantaneous	-12.7662
▁intestine	-12.7662
▁messenger	-12.7662
▁metasta	-12.7662
▁muffin	-12.7662
▁predominant	-12.7662
▁Enlighten	-12.7662
▁disparit	-12.7662
▁embass	-12.7662
▁evolutionarily	-12.7662
▁landmark	-12.7662
▁pianist	-12.7662
▁prophec	-12.7662
▁sleeve	-12.7662
sophist	-12.7662
▁carcass	-12.7662
▁proverb	-12.7662
▁Jarret	-12.7662
▁churn	-12.7662
▁compuls	-12.7662
▁griev	-12.7662
▁Train	-12.7662
▁dispense	-12.7662
▁Belgi	-12.7662
▁Commission	-12.7662
▁Eames	-12.7662
▁voyage	-12.7662
▁propulsi	-12.7662
▁Hyper	-12.7662
▁Living	-12.7662
▁disseminat	-12.7662
▁Prosper	-12.7662
▁glamo	-12.7662
▁grappl	-12.7662
▁kettle	-12.7662
▁marble	-12.7662
▁Improv	-12.7662
▁propagat	-12.7662
▁Nikola	-12.7662
▁Templ	-12.7662
▁burial	-12.7662
▁CDC	-12.7662
▁hospi	-12.7662
▁Adria	-12.7662
▁Survey	-12.7662
▁permit	-12.7662
▁sequester	-12.7662
▁Ferris	-12.7662
▁Parent	-12.7662
▁polish	-12.7663
▁grue	-12.7663
▁league	-12.7663
▁ruling	-12.7663
▁disclosure	-12.7663
▁launder	-12.7663
▁Medit	-12.7663
▁Blak	-12.7663
▁Tiger	-12.7663
▁synthesizer	-12.7663
▁Nicola	-12.7663
▁omni	-12.7664
▁discount	-12.7664
▁Creative	-12.7664
▁quantify	-12.7664
nough	-12.7664
▁vocation	-12.7664
▁actress	-12.7664
▁enroll	-12.7664
rchestra	-12.7664
▁impatien	-12.7665
▁funnel	-12.7665
▁editorial	-12.7665
▁motive	-12.7665
▁Veg	-12.7665
▁teammate	-12.7665
▁frail	-12.7665
▁Reserv	-12.7665
▁Newcast	-12.7665
▁stigmatiz	-12.7666
▁roar	-12.7666
▁1920	-12.7666
eautiful	-12.7666
▁Journalist	-12.7666
tigation	-12.7666
▁hull	-12.7667
▁pearl	-12.7667
▁prolong	-12.7667
▁Morgan	-12.7667
▁coerc	-12.7667
▁Chair	-12.7667
▁56	-12.7667
▁66	-12.7668
▁Kendal	-12.7668
▁Boom	-12.7668
▁Gho	-12.7669
▁stance	-12.7669
▁Marx	-12.767
▁deform	-12.767
penetra	-12.767
▁abor	-12.7671
▁lust	-12.7671
tasting	-12.7671
defy	-12.7672
▁recap	-12.7672
▁Vila	-12.7673
▁visi	-12.7675
quake	-12.7676
blanc	-12.7676
trenche	-12.7678
▁Name	-12.7689
ML	-12.769
▁Found	-12.7703
azi	-12.7706
anza	-12.7717
▁messag	-12.7742
▁wobbl	-12.775
▁snapp	-12.777
ollider	-12.777
pharmacolog	-12.7775
Card	-12.779
▁Arr	-12.7807
ometric	-12.7824
aya	-12.7824
▁Preg	-12.7829
Cash	-12.7854
▁assistan	-12.7894
skies	-12.7898
pilot	-12.792
threaten	-12.792
creation	-12.792
violence	-12.7922
speaking	-12.7922
Lee	-12.7922
skill	-12.7923
process	-12.7923
normal	-12.7924
teacher	-12.7924
comfort	-12.7925
catch	-12.7926
dense	-12.7926
lush	-12.7927
purpose	-12.7935
LP	-12.7955
epression	-12.796
▁copulat	-12.7964
UV	-12.798
metri	-12.8003
▁internalize	-12.8058
cob	-12.808
▁interdependenc	-12.8094
abba	-12.8165
gatherer	-12.8193
▁crowdsourc	-12.8198
▁liabilit	-12.8267
▁temperat	-12.828
▁antibiotic	-12.8284
▁emission	-12.8286
▁rebuil	-12.8287
▁Happi	-12.8316
compli	-12.8343
▁repressi	-12.8354
▁measurabl	-12.8404
▁decompos	-12.8408
▁randomize	-12.841
▁incorporat	-12.8424
▁energ	-12.848
▁parasit	-12.8489
▁linguist	-12.8501
OL	-12.8503
ragg	-12.8538
▁Biolog	-12.8546
▁interconnect	-12.8568
DAR	-12.8595
tasking	-12.8621
▁Northwest	-12.8626
▁Hug	-12.8632
hadow	-12.8637
Kerr	-12.8637
▁hypoth	-12.8645
ague	-12.8649
ransparency	-12.8651
rocco	-12.8659
urricane	-12.8661
uza	-12.8662
conclusive	-12.8662
necdo	-12.8662
neurotransmitter	-12.8662
vantage	-12.8662
ü	-12.8662
▁1.7	-12.8662
▁Ancient	-12.8662
▁Balkan	-12.8662
▁Buffet	-12.8662
▁Committe	-12.8662
▁Denisovan	-12.8662
▁Dictionar	-12.8662
▁Marriage	-12.8662
▁Metaphor	-12.8662
▁PET	-12.8662
▁Perfect	-12.8662
▁Plastic	-12.8662
▁Scientolog	-12.8662
▁Viagra	-12.8662
▁accelerometer	-12.8662
▁administer	-12.8662
▁amplify	-12.8662
▁applaud	-12.8662
▁appointment	-12.8662
▁assassinat	-12.8662
▁breadwinner	-12.8662
▁bulldoze	-12.8662
▁cascade	-12.8662
▁cassette	-12.8662
▁circumcis	-12.8662
▁combusti	-12.8662
▁complement	-12.8662
▁constituenc	-12.8662
▁contempt	-12.8662
▁contraceptive	-12.8662
▁delicac	-12.8662
▁demobiliz	-12.8662
▁disengage	-12.8662
▁expenditure	-12.8662
▁extremism	-12.8662
▁fratern	-12.8662
▁geopolitic	-12.8662
▁mafia	-12.8662
▁meteorite	-12.8662
▁mistrust	-12.8662
▁multiplic	-12.8662
▁multiplie	-12.8662
▁neutrino	-12.8662
▁nugget	-12.8662
▁photojournalist	-12.8662
▁picnic	-12.8662
▁pluripoten	-12.8662
▁preoccup	-12.8662
▁privatiz	-12.8662
▁punctuat	-12.8662
▁reintroduc	-12.8662
▁restraint	-12.8662
▁retrospect	-12.8662
▁sapien	-12.8662
▁shield	-12.8662
▁snippet	-12.8662
▁spawn	-12.8662
▁spreadsheet	-12.8662
▁squirrel	-12.8662
▁superficial	-12.8662
▁surpass	-12.8662
▁synagogue	-12.8662
▁thirty	-12.8662
▁toothpaste	-12.8662
▁whims	-12.8662
▁Quixot	-12.8662
▁biochemical	-12.8662
▁detriment	-12.8662
▁interpersonal	-12.8662
▁playwright	-12.8662
▁redundan	-12.8662
▁squish	-12.8662
▁sunflower	-12.8662
▁swirl	-12.8662
constru	-12.8662
▁brigade	-12.8662
▁carriage	-12.8662
▁inadvertent	-12.8662
▁patriot	-12.8662
▁pornograph	-12.8662
▁preconce	-12.8662
▁Dragon	-12.8662
▁niece	-12.8662
▁Network	-12.8662
▁buffer	-12.8662
▁summit	-12.8662
▁Beatle	-12.8662
▁Standard	-12.8662
▁adversit	-12.8662
▁fringe	-12.8662
▁hippie	-12.8662
▁Express	-12.8662
▁Gross	-12.8662
▁bunker	-12.8662
▁Blackberr	-12.8662
▁patern	-12.8662
▁pellet	-12.8662
jerk	-12.8662
▁absent	-12.8662
▁redistribut	-12.8662
▁roast	-12.8662
▁toddler	-12.8662
▁notorious	-12.8662
▁dizzy	-12.8662
▁aphid	-12.8662
▁Bowl	-12.8662
▁crazi	-12.8662
▁motel	-12.8662
▁Algeria	-12.8662
▁outlier	-12.8662
▁slang	-12.8662
▁archeolog	-12.8662
▁Major	-12.8662
elope	-12.8662
▁chore	-12.8662
▁Sophi	-12.8662
▁monarch	-12.8662
▁bleep	-12.8662
▁Saint	-12.8662
▁seductive	-12.8662
▁nanometer	-12.8662
nnica	-12.8662
▁cohesi	-12.8663
▁offense	-12.8663
▁Knee	-12.8663
▁cosmetic	-12.8663
▁foreground	-12.8663
▁contingen	-12.8663
▁subscribe	-12.8663
▁snack	-12.8663
▁safeguard	-12.8663
▁Mommy	-12.8663
▁scripture	-12.8663
▁garment	-12.8664
▁rebellio	-12.8664
▁Babylonian	-12.8664
▁Romantic	-12.8664
▁Galax	-12.8664
▁emanat	-12.8664
▁classmate	-12.8664
,700	-12.8664
▁symbiotic	-12.8664
▁interval	-12.8665
▁Casa	-12.8665
▁aquari	-12.8665
▁reorganize	-12.8665
vada	-12.8666
▁Barbi	-12.8666
▁beaver	-12.8666
profe	-12.8666
▁reverbera	-12.8666
▁rumor	-12.8666
▁fantasi	-12.8666
▁exert	-12.8667
▁Genetic	-12.8667
disproportionate	-12.8667
▁geologist	-12.8668
▁Biologist	-12.8668
Murdo	-12.8669
asket	-12.8669
▁nanotechnolog	-12.8669
▁ministr	-12.867
▁tenaci	-12.8675
Foot	-12.8678
▁aqua	-12.868
▁luna	-12.8682
MCA	-12.8685
▁chap	-12.8691
▁alleviat	-12.8693
▁civiliz	-12.8698
▁Snowde	-12.8704
iscons	-12.8721
tute	-12.8732
▁interpla	-12.8751
▁glide	-12.8757
▁wiggl	-12.8758
simplification	-12.8761
▁Fai	-12.877
▁squeez	-12.8777
mphatic	-12.8793
ninsula	-12.887
▁localiz	-12.8898
Gregor	-12.8934
building	-12.8952
argon	-12.8978
guard	-12.8997
▁Constitu	-12.9016
know	-12.9029
ethical	-12.9029
define	-12.903
consumption	-12.9031
destructi	-12.9032
fiction	-12.9032
Muslim	-12.9033
dynamic	-12.9033
distance	-12.9033
peace	-12.9034
meaning	-12.9035
through	-12.9035
girl	-12.9035
population	-12.9035
important	-12.9036
first	-12.9036
▁wicke	-12.9037
reason	-12.9037
evolution	-12.904
stopp	-12.9046
tigr	-12.9052
create	-12.9054
rmia	-12.9057
▁curse	-12.9058
glass	-12.9071
▁adventur	-12.9139
▁captiv	-12.9164
irstream	-12.9179
mmit	-12.9228
▁exchang	-12.9295
thesis	-12.9337
▁Success	-12.9369
▁submissi	-12.9373
mission	-12.9445
illuminate	-12.9488
llusion	-12.9506
transcendent	-12.9516
▁preferabl	-12.9532
▁bubbl	-12.9542
ISA	-12.9547
▁optimiz	-12.9565
▁battl	-12.9568
compromis	-12.9592
trinsic	-12.9661
▁vulnerabilit	-12.9665
▁Independen	-12.9667
▁credi	-12.9702
▁etern	-12.971
▁elegan	-12.971
▁hype	-12.973
▁Costa	-12.9739
ymphon	-12.9746
▁fragil	-12.9751
▁precipi	-12.976
▁trivia	-12.9767
sufficien	-12.9768
▁volcan	-12.9769
▁intersect	-12.9769
▁hallucinat	-12.9769
▁Olymp	-12.9769
▁hurd	-12.977
rilliant	-12.9771
ccasional	-12.9772
ö	-12.9773
▁Urban	-12.9773
▁discontinu	-12.9773
▁fractal	-12.9773
▁geriatric	-12.9773
▁synesthe	-12.9773
inflict	-12.9773
munition	-12.9773
orthodox	-12.9773
quawk	-12.9773
tuitous	-12.9773
ycorrhiza	-12.9773
ã	-12.9773
▁Behavior	-12.9773
▁Bitcoin	-12.9773
▁Correction	-12.9773
▁District	-12.9773
▁Elliot	-12.9773
▁Excellen	-12.9773
▁Feminist	-12.9773
▁Glacier	-12.9773
▁Glenn	-12.9773
▁Hoffman	-12.9773
▁Impossib	-12.9773
▁Instagram	-12.9773
▁MOOC	-12.9773
▁Neuroscientist	-12.9773
▁Randolph	-12.9773
▁Schwartz	-12.9773
▁Torosaurus	-12.9773
▁abolish	-12.9773
▁agnostic	-12.9773
▁annihilat	-12.9773
▁barbecue	-12.9773
▁bilingual	-12.9773
▁biochemistr	-12.9773
▁biofuel	-12.9773
▁blossom	-12.9773
▁caffein	-12.9773
▁camouflage	-12.9773
▁clutch	-12.9773
▁coconut	-12.9773
▁comrade	-12.9773
▁cunning	-12.9773
▁disguise	-12.9773
▁dismantle	-12.9773
▁exacerbate	-12.9773
▁granular	-12.9773
▁infringe	-12.9773
▁judicia	-12.9773
▁kangaroo	-12.9773
▁lattice	-12.9773
▁legitimize	-12.9773
▁lobbie	-12.9773
▁lollipop	-12.9773
▁majest	-12.9773
▁mismatch	-12.9773
▁mitochondria	-12.9773
▁neurologist	-12.9773
▁nostalgi	-12.9773
▁parabola	-12.9773
▁paraphras	-12.9773
▁portfolio	-12.9773
▁reconsider	-12.9773
▁rehearsal	-12.9773
▁reintegrat	-12.9773
▁relentless	-12.9773
▁remorse	-12.9773
▁repetitive	-12.9773
▁repulsi	-12.9773
▁revisit	-12.9773
▁résumé	-12.9773
▁skyrocket	-12.9773
▁sprinkle	-12.9773
▁stereotypical	-12.9773
▁succumb	-12.9773
▁tentacle	-12.9773
▁terawatt	-12.9773
▁thirst	-12.9773
▁tornado	-12.9773
▁umbrella	-12.9773
▁unacceptabl	-12.9773
▁vigorous	-12.9773
▁virulen	-12.9773
▁wavelength	-12.9773
affiliat	-12.9773
▁Hazle	-12.9773
▁Isabel	-12.9773
▁Sisyph	-12.9773
▁Yugoslav	-12.9773
▁Zambia	-12.9773
▁bankrupt	-12.9773
▁dessert	-12.9773
▁eleven	-12.9773
▁fission	-12.9773
▁frown	-12.9773
▁hiccup	-12.9773
▁marginaliz	-12.9773
▁menstrua	-12.9773
▁prestig	-12.9773
▁tremor	-12.9773
▁wingsuit	-12.9773
▁Advanc	-12.9773
▁Answer	-12.9773
▁Engel	-12.9773
▁TNC	-12.9773
▁Tinker	-12.9773
▁evoke	-12.9773
▁remake	-12.9773
▁superstitio	-12.9773
▁utopia	-12.9773
▁Pioneer	-12.9773
▁typograph	-12.9773
▁ulcer	-12.9773
▁boast	-12.9773
▁modalit	-12.9773
▁Clean	-12.9773
▁diaper	-12.9773
▁flirt	-12.9773
▁ravage	-12.9773
▁surreal	-12.9773
argass	-12.9773
▁corona	-12.9773
▁Model	-12.9773
▁Skid	-12.9773
misunderstanding	-12.9773
▁permeate	-12.9773
▁Legend	-12.9773
▁Suzan	-12.9773
▁puppeteer	-12.9773
▁videotape	-12.9773
▁Crime	-12.9773
▁jelly	-12.9773
▁Match	-12.9773
▁Horse	-12.9773
▁aristocra	-12.9773
▁phant	-12.9773
▁salut	-12.9773
▁Khad	-12.9773
▁consolidat	-12.9773
▁lord	-12.9773
▁Utopia	-12.9773
▁duct	-12.9773
cense	-12.9773
▁uterus	-12.9774
▁brute	-12.9774
▁Bureau	-12.9774
▁embed	-12.9774
▁equate	-12.9774
▁Moderat	-12.9774
▁plausib	-12.9774
▁Hacker	-12.9774
▁orchid	-12.9774
▁Krist	-12.9774
▁filing	-12.9774
▁bleach	-12.9774
▁Valenti	-12.9774
▁rehab	-12.9774
redeem	-12.9774
▁Invent	-12.9774
▁impersona	-12.9774
▁cervi	-12.9774
▁roam	-12.9775
▁maim	-12.9775
▁deathbed	-12.9775
▁handshak	-12.9775
▁font	-12.9775
▁resume	-12.9776
▁husk	-12.9777
▁Frederic	-12.9777
emeral	-12.9777
consequential	-12.9778
cursor	-12.9778
▁squatt	-12.9778
▁riddle	-12.9778
▁Curiosit	-12.9784
▁inoculat	-12.9786
▁Atheis	-12.9787
▁modulat	-12.9788
libi	-12.9789
bject	-12.9797
▁staple	-12.9802
▁squea	-12.9809
▁marit	-12.9814
▁Theodo	-12.9816
blaze	-12.9821
▁germinat	-12.9825
▁telegraph	-12.9827
▁rude	-12.9848
▁Vote	-12.9862
gabyte	-12.9866
▁inertia	-12.9877
▁Identi	-12.9901
▁Vivi	-12.9916
▁bounc	-12.9947
▁archiv	-12.9978
▁tacti	-13
▁Jeh	-13.0028
▁Babb	-13.0028
fabricate	-13.0185
serving	-13.0228
technology	-13.0247
issue	-13.0275
visual	-13.0278
Israel	-13.0281
narrative	-13.0283
evolv	-13.0283
capacity	-13.0283
driving	-13.0283
benefit	-13.0285
blood	-13.0285
definition	-13.0285
robot	-13.0285
species	-13.0285
yourself	-13.0285
different	-13.0286
spora	-13.0288
ickli	-13.0616
edited	-13.0682
spiration	-13.0736
▁sacrific	-13.0746
riplet	-13.0797
zzi	-13.0845
aggregat	-13.0877
▁insignifican	-13.0891
▁celebrit	-13.0914
▁biologic	-13.0929
eadership	-13.0954
▁innocen	-13.096
▁pleasur	-13.0961
▁whil	-13.0979
▁Scra	-13.0989
▁advert	-13.1006
▁proliferat	-13.1019
▁fluctuat	-13.1019
▁suspicio	-13.102
ocracy	-13.1021
ncyclopedia	-13.1021
▁disclos	-13.1023
ndustry	-13.1023
ntelligence	-13.1023
▁mush	-13.1023
ulnerability	-13.1023
▁narcissis	-13.1023
▁Volta	-13.1023
▁XDR	-13.1023
▁discern	-13.1023
▁incongru	-13.1023
Baptist	-13.1023
Script	-13.1023
curricula	-13.1023
franchise	-13.1023
ocular	-13.1023
ongwriter	-13.1023
▁Adventist	-13.1023
▁Albania	-13.1023
▁AlloSphere	-13.1023
▁Bionicle	-13.1023
▁Corporation	-13.1023
▁Festival	-13.1023
▁Frankenstein	-13.1023
▁Governor	-13.1023
▁Krishna	-13.1023
▁Kuwait	-13.1023
▁Kuznet	-13.1023
▁Malthus	-13.1023
▁Okinawa	-13.1023
▁Production	-13.1023
▁Religion	-13.1023
▁Whirlwind	-13.1023
▁affectionate	-13.1023
▁airstrip	-13.1023
▁allegiance	-13.1023
▁amplification	-13.1023
▁amplifie	-13.1023
▁amputation	-13.1023
▁anesthetize	-13.1023
▁barricade	-13.1023
▁biennial	-13.1023
▁centrifug	-13.1023
▁chirp	-13.1023
▁chorus	-13.1023
▁chronolog	-13.1023
▁commemorat	-13.1023
▁consecutive	-13.1023
▁constituent	-13.1023
ä	-13.2452
#	-13.4118
ø	-13.4118
â	-13.8618
&	-14.1218
	-14.1952
	-14.1952
à	-14.1952
ë	-14.1952
́	-14.1952
Á	-14.6951
(	-14.6952
_	-14.6952
£	-14.6952
É	-14.6952
ā	-14.6952
ร	-14.6952
่	-14.6952
ย	-15.6943
ñ	-15.6944
ê	-15.6945
อ	-15.6946
ï	-15.6947
)	-15.6948
ç	-15.6949
+	-15.695
!	-15.6951
*	-15.6952
¡	-15.6952
Å	-15.6952
Ă	-15.6952
ē	-15.6952
Ť	-15.6952
€	-15.6952
你	-15.6952
葱	-15.6952
?	-15.6952
Č	-15.6952
送	-15.6952
