<pad>	0
<s>	0
</s>	0
<unk>	0
▁,	-3.344
▁.	-3.41504
▁là	-4.12846
▁tôi	-4.24868
▁và	-4.26083
▁một	-4.30893
▁có	-4.32205
▁những	-4.56417
▁chúng	-4.57993
▁của	-4.58764
▁ta	-4.76496
▁không	-4.77323
i	-4.79308
ng	-4.84103
▁đó	-4.88542
▁người	-4.91208
▁bạn	-4.91619
▁trong	-4.98909
▁thể	-5.00742
▁này	-5.0588
▁đã	-5.06358
▁các	-5.08512
▁được	-5.10622
;	-5.13214
▁&	-5.15826
▁với	-5.17778
quot	-5.21276
▁cho	-5.21813
▁Và	-5.24363
▁sự	-5.2536
▁ra	-5.25569
t	-5.28168
▁làm	-5.3268
▁nó	-5.36756
▁ở	-5.39066
▁mà	-5.39862
▁để	-5.41887
▁về	-5.42933
▁như	-5.44433
▁sẽ	-5.45019
▁điều	-5.54182
▁thế	-5.55049
▁khi	-5.55753
y	-5.64729
▁họ	-5.65137
▁Tôi	-5.66451
▁nói	-5.67805
n	-5.71617
▁đến	-5.72693
▁?	-5.76448
▁phải	-5.76634
m	-5.8012
▁rằng	-5.8053
▁	-5.81183
▁gì	-5.81562
▁vào	-5.81682
▁đang	-5.81753
▁từ	-5.81947
▁việc	-5.82302
▁lại	-5.85128
▁thấy	-5.86561
▁cách	-5.88983
▁cả	-5.8975
▁hơn	-5.89841
▁nhiều	-5.92389
▁rấ	-5.93795
▁Đ	-5.95663
▁thực	-5.97833
▁đầu	-5.9825
▁đây	-6.00541
▁học	-6.0224
▁con	-6.02905
▁khác	-6.02986
▁trên	-6.05466
▁công	-6.05663
▁cái	-6.08297
▁vì	-6.08644
▁nào	-6.08654
▁chỉ	-6.09333
▁biết	-6.0943
▁Chúng	-6.09927
▁b	-6.14332
▁đi	-6.15675
▁năm	-6.15837
▁nghĩ	-6.17761
ây	-6.17862
▁thứ	-6.17984
▁thành	-6.19741
▁:	-6.20876
▁--	-6.23503
▁cũng	-6.24942
▁nhà	-6.25291
▁Như	-6.26917
▁số	-6.27119
▁bị	-6.2894
▁quan	-6.30598
▁muốn	-6.31047
a	-6.32911
▁mình	-6.34572
▁nhất	-6.35985
▁tạo	-6.37493
▁nhưng	-6.37688
▁giới	-6.38523
▁chính	-6.3859
▁động	-6.38624
▁N	-6.394
▁1	-6.40043
▁nên	-6.4069
▁vậy	-6.4195
▁hình	-6.47595
▁giờ	-6.4903
▁hiện	-6.49285
▁sống	-6.50945
▁tại	-6.51024
▁nếu	-6.5147
▁nhận	-6.51506
▁mọ	-6.52255
▁cuộc	-6.54251
▁cần	-6.55043
▁hay	-6.55445
▁tự	-6.56577
▁ch	-6.56764
▁thì	-6.56898
▁đề	-6.57066
▁đ	-6.5839
▁tất	-6.60106
▁t	-6.60202
▁ông	-6.60444
▁ấy	-6.61259
▁bởi	-6.61579
▁tới	-6.62134
▁theo	-6.62605
▁bắt	-6.6296
▁còn	-6.6365
▁nhìn	-6.64045
▁lớn	-6.6429
▁cơ	-6.65013
▁cùng	-6.6538
▁bằng	-6.65648
▁ý	-6.65836
▁cảm	-6.66636
▁tế	-6.66789
▁sau	-6.675
▁dụng	-6.67831
▁thật	-6.6791
▁lên	-6.68121
▁gia	-6.68426
▁anh	-6.68499
▁câu	-6.68565
▁bản	-6.68714
▁tin	-6.69801
▁qua	-6.70212
▁bộ	-6.7053
▁sao	-6.7072
▁thời	-6.70809
ất	-6.70824
▁chuyện	-6.71134
▁trở	-6.71429
▁ngày	-6.72129
▁nhân	-6.72318
▁sinh	-6.73045
u	-6.75249
▁năng	-6.76138
▁trước	-6.76803
▁nước	-6.7699
▁phát	-6.77032
▁đổi	-6.77629
▁Nó	-6.77756
▁toàn	-6.78717
▁phần	-6.79111
▁nơi	-6.79591
▁thông	-6.80501
▁tìm	-6.81453
▁nhau	-6.81454
▁mới	-6.81892
▁thay	-6.81908
▁vấn	-6.8325
▁định	-6.83372
▁hệ	-6.8469
▁trường	-6.85051
▁nhiên	-6.85483
▁sử	-6.85571
▁tính	-6.86365
nh	-6.86539
▁trình	-6.87254
▁c	-6.87366
▁tốt	-6.88075
▁tưởng	-6.8834
▁kết	-6.88845
▁vật	-6.90472
▁lý	-6.9119
▁hàng	-6.91209
▁T	-6.91632
▁hỏi	-6.92154
▁n	-6.93315
▁Bạn	-6.93866
▁máy	-6.94809
▁ảnh	-6.94864
▁hợp	-6.96475
▁Đó	-6.97063
c	-6.97573
▁mặt	-6.97731
▁C	-6.98375
▁tiếp	-6.98797
▁hành	-6.98869
▁nữa	-6.99601
▁kinh	-6.99666
▁thức	-7.00817
▁hội	-7.00907
▁gian	-7.01004
▁thiết	-7.01577
▁rồi	-7.01919
▁cô	-7.02117
▁xem	-7.02676
▁liệu	-7.02679
▁m	-7.02709
▁vị	-7.02763
▁trọng	-7.03205
▁độ	-7.03207
▁hoá	-7.03297
▁thích	-7.03865
▁đồng	-7.05947
▁giải	-7.06536
▁tr	-7.06834
▁trẻ	-7.08609
▁lượng	-7.08809
▁hai	-7.09142
o	-7.09678
▁ai	-7.09789
▁thường	-7.10526
▁B	-7.11304
▁đều	-7.11374
▁quá	-7.1181
▁tiên	-7.12047
▁Một	-7.12202
▁sáng	-7.12751
▁đối	-7.12765
▁do	-7.12947
▁hiểu	-7.14169
▁quả	-7.14778
▁tâm	-7.14878
▁nay	-7.14969
▁loại	-7.15415
▁giống	-7.15662
▁lần	-7.15928
▁Vì	-7.15979
▁cứu	-7.16518
▁bệnh	-7.17373
▁bao	-7.17422
▁thống	-7.17442
▁viên	-7.18842
iều	-7.19328
-	-7.19468
▁nghệ	-7.20644
▁điểm	-7.21163
▁Vậ	-7.21616
▁nghĩa	-7.21679
▁gọi	-7.2169
▁l	-7.21715
▁Có	-7.21757
▁nhỏ	-7.22733
h	-7.22948
▁mô	-7.23651
▁hoàn	-7.24532
▁Họ	-7.25248
▁đưa	-7.25591
▁nghiệm	-7.26544
▁tác	-7.27374
▁đường	-7.27635
▁vẫ	-7.27885
▁khoả	-7.29043
▁cố	-7.29886
▁xả	-7.30708
▁thuật	-7.31335
▁bên	-7.31788
▁biệt	-7.31795
▁dân	-7.3202
▁dự	-7.3207
▁giá	-7.32159
▁dùng	-7.3217
▁đại	-7.32279
▁hoặc	-7.3232
▁triển	-7.33997
▁lúc	-7.34171
▁chuyển	-7.34215
p	-7.3429
▁diễn	-7.34686
hững	-7.34735
▁ma	-7.35056
▁trị	-7.35863
▁quyết	-7.3596
▁từng	-7.36694
▁nghe	-7.36695
▁cao	-7.36706
▁ăn	-7.37452
▁tuyệt	-7.38492
▁mỗi	-7.3882
▁cầu	-7.3908
▁kế	-7.39742
▁lực	-7.40106
▁thu	-7.40383
▁chất	-7.40567
▁phụ	-7.40771
▁khá	-7.41013
.	-7.42163
▁lời	-7.42959
▁giáo	-7.43102
▁giúp	-7.43478
▁đất	-7.4384
▁ơn	-7.44217
ắc	-7.44248
▁trung	-7.45048
▁cá	-7.45395
▁hã	-7.45423
▁bảo	-7.45956
▁nữ	-7.4604
▁tiến	-7.46525
▁hết	-7.46691
▁phòng	-7.46883
▁khả	-7.46961
▁nghiên	-7.47282
▁chưa	-7.4744
▁tình	-7.47476
▁liên	-7.47684
▁xuất	-7.47889
▁xe	-7.47948
▁th	-7.48488
▁phân	-7.49737
▁M	-7.49832
▁Anh	-7.49978
▁tranh	-7.50156
▁em	-7.5033
▁đơn	-7.50371
▁não	-7.50605
▁truyền	-7.50709
▁tập	-7.5075
▁bài	-7.50777
▁tuổi	-7.51079
▁đúng	-7.51186
▁phương	-7.51332
▁điện	-7.51376
▁khoa	-7.51434
▁bình	-7.51532
▁sản	-7.51753
▁đặt	-7.51961
▁Khi	-7.52234
▁tượng	-7.52385
▁biến	-7.5259
▁Các	-7.5284
▁tiền	-7.53394
▁giữa	-7.53528
▁yêu	-7.53546
▁tiếng	-7.54163
▁2	-7.54167
▁trả	-7.55651
▁ngay	-7.56311
▁Không	-7.57424
▁thú	-7.57701
▁tay	-7.58548
▁lấy	-7.58572
▁xã	-7.59591
▁bỏ	-7.59625
▁gần	-7.5965
▁ng	-7.59778
▁S	-7.60134
▁hoạt	-7.60272
▁chiến	-7.61035
▁sách	-7.61569
▁đáng	-7.61945
▁Tro	-7.61963
s	-7.62323
▁phẩm	-7.62521
▁cứ	-7.62756
▁thân	-7.62797
▁pháp	-7.62908
▁khó	-7.62915
▁trí	-7.62975
▁hiệu	-7.63116
▁kh	-7.63166
▁cuối	-7.63364
ên	-7.63517
▁chủ	-7.63702
▁dụ	-7.6377
▁đời	-7.63779
▁v	-7.63915
▁chơi	-7.64256
▁-	-7.654
▁sức	-7.65495
▁minh	-7.65509
▁mất	-7.65579
▁kể	-7.66134
▁V	-7.66368
▁Mỹ	-7.66946
▁đồ	-7.67232
▁mạnh	-7.67836
▁bé	-7.68626
▁nghiệp	-7.68787
▁chí	-7.68869
▁ngoài	-7.69027
▁r	-7.69309
▁khí	-7.69325
▁dẫn	-7.69388
▁ít	-7.69404
▁đấy	-7.69913
▁lập	-7.69954
▁tài	-7.69997
ân	-7.70098
▁vi	-7.7059
▁loài	-7.70667
▁kỳ	-7.70961
▁bức	-7.7106
▁tinh	-7.71823
▁luôn	-7.72069
▁vô	-7.72252
▁tiêu	-7.73098
▁dựng	-7.7351
▁văn	-7.73571
▁tên	-7.73803
▁cộng	-7.74097
▁âm	-7.74414
▁chứng	-7.74744
ếu	-7.74986
▁tử	-7.75345
ương	-7.75463
▁phố	-7.75502
▁3	-7.7575
▁hướng	-7.7598
▁di	-7.76019
▁nhạc	-7.76572
▁giả	-7.76744
ông	-7.77412
▁x	-7.77455
▁thử	-7.77612
▁ba	-7.78279
▁Hã	-7.7832
▁viết	-7.78407
▁đâu	-7.78649
▁chức	-7.78659
▁kiến	-7.78703
▁nguyên	-7.78751
▁quốc	-7.78924
▁bà	-7.79012
▁hạn	-7.79436
▁ứng	-7.79524
▁vời	-7.79621
▁thị	-7.79745
▁chọn	-7.80052
▁chế	-7.80113
▁tư	-7.8021
▁quyền	-7.80326
▁giản	-7.80605
▁đặc	-7.80879
▁án	-7.814
▁chết	-7.82048
▁bào	-7.82083
▁mạng	-7.821
▁cấp	-7.824
▁suy	-7.82466
▁khu	-7.82547
▁phá	-7.82723
▁triệu	-7.82842
▁L	-7.83035
▁tăng	-7.83037
▁thần	-7.83418
▁đạo	-7.83893
▁xu	-7.85095
▁lẽ	-7.85281
▁sĩ	-7.85785
▁khỏ	-7.85857
ến	-7.85994
▁cụ	-7.87186
▁đánh	-7.87365
▁mẹ	-7.87396
▁màu	-7.8749
▁vụ	-7.87537
ánh	-7.87626
▁gặp	-7.87928
▁tháng	-7.87996
▁Thế	-7.88214
▁dưới	-7.88287
▁nề	-7.88288
▁chút	-7.8966
▁xuống	-7.89684
▁xác	-7.89703
▁H	-7.90297
▁gắng	-7.91024
▁đá	-7.91559
▁thậ	-7.91876
ắp	-7.92017
▁phép	-7.9215
▁nhóm	-7.92388
▁dịch	-7.92529
▁mở	-7.9254
▁quanh	-7.93073
▁vực	-7.93295
iểu	-7.93445
▁dữ	-7.93589
▁%	-7.93819
▁trò	-7.9428
▁chia	-7.943
▁bay	-7.94871
▁thêm	-7.94915
▁duy	-7.95303
▁tổ	-7.95637
▁thuyết	-7.95684
▁mức	-7.9586
▁nhanh	-7.95923
▁đàn	-7.96485
▁dạng	-7.96847
▁rõ	-7.97113
▁cực	-7.97136
▁gây	-7.972
▁quay	-7.97393
▁vọng	-7.97448
▁tươ	-7.97952
▁xa	-7.97987
▁nguồn	-7.98544
▁dù	-7.98851
▁vùng	-7.98983
▁đẹp	-7.99763
▁báo	-7.99943
▁cảnh	-7.99954
ận	-8.00108
▁tục	-8.00199
▁10	-8.01045
▁giác	-8.01096
▁sát	-8.01577
▁dễ	-8.01746
▁càng	-8.01906
▁đủ	-8.01992
▁ví	-8.0202
▁sợ	-8.031
▁cây	-8.03216
▁nhớ	-8.03249
▁vũ	-8.03285
▁phía	-8.03374
▁trang	-8.03518
▁phim	-8.0357
▁hưởng	-8.03928
▁đoạn	-8.04371
▁ph	-8.05027
▁...	-8.05502
▁kiểm	-8.05642
▁trái	-8.05685
▁thư	-8.05795
▁chú	-8.06372
▁thương	-8.06506
▁Quốc	-8.06777
▁kì	-8.06796
▁Ông	-8.07588
▁dài	-8.07611
▁vòng	-8.07919
ầm	-8.0804
▁ngữ	-8.0829
▁Tạ	-8.08349
▁luận	-8.08361
▁phản	-8.08815
▁chiế	-8.09004
▁Th	-8.09023
ầu	-8.09336
▁Trung	-8.09715
▁đôi	-8.10073
▁đầy	-8.10265
▁Cả	-8.10944
▁dục	-8.10964
▁bố	-8.11225
▁lợi	-8.11341
▁kia	-8.11995
▁so	-8.12204
▁chẳ	-8.12464
▁giảm	-8.12581
▁d	-8.12963
▁thuốc	-8.13043
ằm	-8.1343
▁kiếm	-8.1347
▁quy	-8.13901
tham	-8.1404
▁chân	-8.14054
▁tích	-8.14149
ăm	-8.14212
▁trăm	-8.14493
▁thôi	-8.14723
pos	-8.14943
▁ty	-8.15341
▁g	-8.16063
▁đình	-8.1625
▁s	-8.16251
▁bước	-8.16792
▁Cá	-8.16912
▁giao	-8.17055
▁Người	-8.17382
▁lai	-8.17707
▁sâu	-8.18123
hiếc	-8.18653
▁toán	-8.18866
▁trời	-8.19434
▁sư	-8.19571
▁tồn	-8.19746
▁diện	-8.20058
▁rộng	-8.2076
▁phi	-8.20761
▁giữ	-8.20776
▁trải	-8.20805
▁vừ	-8.20815
▁phục	-8.21082
▁thanh	-8.2119
▁lã	-8.21409
▁Tr	-8.21465
▁đô	-8.21528
▁nối	-8.21728
▁địa	-8.21961
▁đoán	-8.21969
▁lòng	-8.22161
▁trụ	-8.22224
▁thuộc	-8.22386
▁riêng	-8.22473
▁20	-8.22591
▁vệ	-8.22735
▁Bở	-8.22763
▁tạp	-8.22803
▁;	-8.2303
▁chi	-8.23114
▁mắt	-8.23359
▁mục	-8.23477
▁!	-8.23605
▁tra	-8.23651
▁phủ	-8.23814
▁đứng	-8.23886
▁dạy	-8.23953
▁nổi	-8.24072
▁thí	-8.24142
▁vẻ	-8.24357
▁đạt	-8.24444
ứa	-8.2473
▁sai	-8.24977
▁căn	-8.25336
▁kỹ	-8.25383
▁thúc	-8.25473
▁luật	-8.25487
▁lệ	-8.25592
▁sẻ	-8.25712
▁mẫu	-8.26482
tương	-8.26521
▁xâ	-8.26593
iếc	-8.26683
▁tối	-8.27061
▁lịch	-8.27208
▁bàn	-8.28005
▁đọc	-8.28195
▁tá	-8.28415
▁lớp	-8.28596
▁kỷ	-8.29255
▁yếu	-8.29611
▁Nế	-8.29812
▁D	-8.30088
▁la	-8.30437
▁vui	-8.30945
▁khoẻ	-8.31133
▁tiết	-8.31534
▁ngồi	-8.31697
▁chương	-8.31715
▁chạy	-8.31808
▁Là	-8.32289
▁gái	-8.32537
▁cuốn	-8.32709
▁phí	-8.32751
▁phút	-8.32856
▁bấ	-8.32942
▁cậu	-8.32957
▁trợ	-8.33191
▁mối	-8.33466
▁chắn	-8.3416
▁sắc	-8.3427
▁buổi	-8.34278
▁Phi	-8.34806
▁hầu	-8.34916
▁suốt	-8.35023
▁5	-8.35643
▁kiện	-8.35736
▁biển	-8.36186
▁trúc	-8.36322
▁tố	-8.36742
▁chung	-8.37057
▁hoà	-8.3738
▁ngôn	-8.37486
▁Nh	-8.37496
▁mua	-8.37612
▁doanh	-8.37716
▁4	-8.3793
▁R	-8.37971
hôm	-8.38072
▁kiểu	-8.38341
▁Thậ	-8.38701
▁Vâng	-8.38788
▁tỉ	-8.38789
▁ngạc	-8.39276
▁cửa	-8.39382
▁nh	-8.39437
▁sở	-8.39529
--	-8.39709
ào	-8.39817
g	-8.40073
▁ké	-8.4031
▁cánh	-8.40577
▁xúc	-8.40623
▁xét	-8.40669
▁khám	-8.40917
▁ràng	-8.41268
▁thiên	-8.41287
▁lâu	-8.41415
▁thoại	-8.41475
▁tuần	-8.41485
▁bán	-8.41543
▁hiểm	-8.42099
▁lạ	-8.42731
▁hồi	-8.42838
▁h	-8.42894
▁Sau	-8.4327
▁cấu	-8.43565
▁nhiệm	-8.43733
▁dàn	-8.44339
ể	-8.44639
▁phức	-8.4476
▁cha	-8.44999
▁kích	-8.45013
▁da	-8.45197
▁cung	-8.45586
▁chụp	-8.45923
▁chuyên	-8.4597
▁k	-8.46037
▁nhập	-8.4609
ục	-8.46154
Ở	-8.46556
ần	-8.46913
▁bóng	-8.47398
▁trạ	-8.47724
▁sa	-8.47785
▁kẻ	-8.48012
▁thái	-8.48013
e	-8.48044
▁cạnh	-8.48142
▁y	-8.48397
▁ngô	-8.48761
▁TED	-8.49033
▁chứ	-8.49114
▁lí	-8.49193
▁viện	-8.49483
▁độc	-8.49601
▁ghi	-8.49927
▁hữu	-8.50002
▁băng	-8.5006
▁đa	-8.50222
▁chỗ	-8.50704
▁ngành	-8.50756
▁hoạ	-8.51415
▁trưởng	-8.51518
▁xin	-8.51801
▁khủng	-8.51909
▁vẽ	-8.51931
▁ích	-8.52389
ự	-8.53427
▁Cô	-8.53738
▁chuẩn	-8.53859
▁bác	-8.5409
▁quý	-8.54138
iễn	-8.54141
▁to	-8.54157
▁phúc	-8.54161
▁hoa	-8.54187
▁ca	-8.54193
ắm	-8.54251
▁thiếu	-8.54587
▁Xi	-8.54643
▁Độ	-8.54677
▁chịu	-8.5492
▁hề	-8.55555
▁khăn	-8.55562
▁lắng	-8.55701
ĩ	-8.55703
▁hạ	-8.55961
▁xanh	-8.56014
ốc	-8.56026
▁tấm	-8.56028
▁sẵn	-8.56263
ăn	-8.56293
▁tệ	-8.56384
▁niệm	-8.5655
▁phạm	-8.56987
▁nhiêu	-8.56997
▁tức	-8.57046
▁đau	-8.57999
▁sắp	-8.5821
▁hơi	-8.58319
▁áp	-8.58389
▁an	-8.58626
▁trai	-8.58811
▁Giờ	-8.58882
▁Thực	-8.59484
▁mặc	-8.59655
▁dung	-8.59731
âu	-8.59769
ọi	-8.59925
▁lạc	-8.6008
▁chống	-8.60294
▁thất	-8.60709
▁xử	-8.60839
▁châu	-8.61556
▁đứ	-8.62504
ẩy	-8.62818
ấp	-8.62985
▁lựa	-8.63109
▁trực	-8.6313
▁hộ	-8.63769
▁hậu	-8.64184
ắt	-8.6433
▁cổ	-8.64357
ăng	-8.64592
▁bánh	-8.64613
▁khổ	-8.64687
ch	-8.64826
▁lo	-8.64962
▁vượ	-8.65312
▁nội	-8.65339
▁dò	-8.65442
1	-8.6564
ôi	-8.65749
▁mo	-8.65886
▁khắc	-8.65919
▁tổng	-8.66014
▁mật	-8.66111
▁ban	-8.66339
▁xấu	-8.6642
▁tỷ	-8.66423
▁toà	-8.66549
▁gử	-8.66699
▁dần	-8.66734
▁30	-8.66913
▁ẩn	-8.66952
▁nguy	-8.67071
▁Ý	-8.67818
▁đội	-8.67864
▁hứng	-8.67979
▁thiện	-8.68126
▁u	-8.68653
▁hạt	-8.68838
▁tim	-8.6904
▁vậ	-8.69598
▁lưu	-8.69949
ấu	-8.70009
▁Ấn	-8.70104
▁danh	-8.70229
▁nhiệt	-8.70437
ập	-8.70992
▁chiều	-8.71009
▁kê	-8.7116
▁ô	-8.71246
▁dầu	-8.71655
▁niề	-8.71788
▁K	-8.72202
ao	-8.7251
▁tội	-8.72816
▁nghèo	-8.72943
▁nghi	-8.73254
▁nạn	-8.7328
▁ngoại	-8.73299
▁cận	-8.73866
▁kính	-8.74366
▁Do	-8.74393
▁Ch	-8.745
▁chữa	-8.74556
ối	-8.74579
▁qu	-8.74914
▁Châu	-8.75017
▁đấu	-8.75149
▁dấu	-8.75207
▁New	-8.75257
▁nỗi	-8.76313
▁thủ	-8.76909
▁đố	-8.77074
▁già	-8.77279
▁hát	-8.77325
▁thách	-8.77501
ấy	-8.7759
▁50	-8.78109
▁mù	-8.78161
▁đen	-8.78211
▁may	-8.78376
▁hô	-8.78377
▁giấy	-8.78712
▁tắc	-8.78884
▁G	-8.78941
▁ngược	-8.79088
▁tả	-8.79114
▁khách	-8.79393
▁chữ	-8.7942
▁nuôi	-8.79432
ấn	-8.79553
▁100	-8.7984
▁hy	-8.7996
▁bại	-8.80544
▁ước	-8.80594
▁nghị	-8.81142
▁6	-8.81336
▁soát	-8.81625
▁Con	-8.81863
▁ngủ	-8.82481
▁lĩnh	-8.82551
▁nửa	-8.82557
▁tiện	-8.82618
▁lỗi	-8.82665
▁Tây	-8.8267
▁mơ	-8.82784
▁quản	-8.82819
▁hoạch	-8.82947
▁thi	-8.83228
▁gồm	-8.83688
▁nhiễm	-8.83867
▁cư	-8.83893
▁dương	-8.84156
▁khố	-8.84268
▁khiển	-8.84455
▁sóc	-8.84829
▁cắt	-8.85148
▁giết	-8.86016
▁thẳng	-8.8639
▁mã	-8.86484
▁ngờ	-8.86615
▁quen	-8.86786
▁hại	-8.86822
▁quân	-8.86991
▁cử	-8.87046
▁tàu	-8.87141
▁trừ	-8.87192
▁dây	-8.87425
▁đích	-8.87765
▁lưới	-8.87931
▁bày	-8.88024
▁chiếu	-8.88094
▁đức	-8.88114
▁nhờ	-8.88134
▁Chỉ	-8.88329
▁thấp	-8.88645
▁mê	-8.88945
▁đông	-8.89053
▁đổ	-8.89104
▁cười	-8.89352
▁niên	-8.89539
▁đêm	-8.89583
▁lái	-8.90034
▁khai	-8.90349
▁phóng	-8.9037
▁dàng	-8.90442
▁sàng	-8.9053
▁khoá	-8.90617
▁ngắn	-8.90932
▁xếp	-8.90949
▁rối	-8.90993
ẩn	-8.91146
▁gốc	-8.91183
▁Ph	-8.91354
▁kỉ	-8.91559
▁gấp	-8.91977
▁phong	-8.92083
▁đo	-8.92094
▁đem	-8.92328
▁/	-8.92351
▁đỡ	-8.92617
▁hồ	-8.93155
▁bạo	-8.93273
▁giây	-8.93325
ằng	-8.93435
▁lắm	-8.935
í	-8.94116
ường	-8.94215
▁trách	-8.94256
▁Rồ	-8.94391
▁gắn	-8.94416
▁vai	-8.95001
▁cáo	-8.95013
▁tù	-8.95217
▁thụ	-8.95399
▁bốn	-8.95569
▁ngàn	-8.95601
▁đợi	-8.95924
▁Bà	-8.96002
▁tôn	-8.96388
▁bí	-8.97012
ơi	-8.97265
▁đóng	-8.974
Với	-8.97466
▁hài	-8.9764
▁xuyên	-8.97674
▁chị	-8.98145
▁nhảy	-8.98549
▁lộ	-8.98752
▁chuyến	-8.9896
▁siêu	-8.99195
▁dừng	-8.99205
▁Hiệ	-8.99486
▁thoả	-8.99536
âm	-8.99574
▁&#9	-8.99834
ừng	-9.00322
▁&#93;	-9.00502
▁nghiê	-9.00568
▁ký	-9.00738
ỗi	-9.00986
▁lao	-9.00995
▁chá	-9.01001
▁tầng	-9.01179
▁15	-9.01227
▁đảm	-9.01427
▁chim	-9.0207
▁ảo	-9.02309
▁Tuy	-9.02527
▁phổ	-9.02636
▁hấp	-9.02694
rời	-9.0295
▁video	-9.02991
▁tải	-9.03152
ẻ	-9.03575
ù	-9.04086
à	-9.04472
▁lá	-9.04597
▁Ai	-9.04728
▁lồ	-9.04754
ước	-9.0503
▁món	-9.05248
▁nhắc	-9.0528
▁rừng	-9.05367
úng	-9.05694
▁Nam	-9.05727
▁góc	-9.06259
▁Internet	-9.06487
ưa	-9.06551
▁khở	-9.07125
▁thải	-9.07126
▁hút	-9.07211
òn	-9.07483
▁chỉnh	-9.07518
▁gen	-9.07582
▁Việ	-9.07714
▁thơ	-9.07749
▁hộp	-9.07778
▁Ta	-9.07894
▁luyện	-9.08165
▁Được	-9.08317
▁ổn	-9.08427
▁nam	-9.08448
▁Âu	-9.08675
▁khuôn	-9.08801
iết	-9.09036
▁tín	-9.09423
▁giàu	-9.09551
▁chuột	-9.09627
▁trù	-9.0979
▁cập	-9.09794
▁nhu	-9.09948
ền	-9.10107
▁X	-9.1056
▁chà	-9.10565
▁đỏ	-9.10644
ảy	-9.10675
▁liệt	-9.10892
▁Cho	-9.10977
▁coi	-9.11077
▁tấn	-9.11302
▁Hoa	-9.11407
▁tuyến	-9.11864
▁phận	-9.1195
▁thắng	-9.12116
ẫu	-9.12368
▁Trá	-9.13007
▁màn	-9.13291
▁Chúa	-9.13651
▁đảo	-9.13983
▁huỷ	-9.13988
▁nặng	-9.14128
▁Từ	-9.14339
▁hẳn	-9.14349
▁vĩ	-9.14419
▁khiế	-9.14608
▁mềm	-9.14654
▁dậy	-9.14655
▁phẫ	-9.14861
▁chứa	-9.15059
▁vân	-9.15109
▁York	-9.15125
▁khoản	-9.16068
▁mấy	-9.16078
▁môn	-9.16317
▁cà	-9.1636
inh	-9.16447
▁mạch	-9.16795
▁Bắc	-9.16896
▁quyển	-9.16989
▁mẽ	-9.17324
iếng	-9.17435
▁điển	-9.17538
▁ống	-9.17627
▁chóng	-9.17654
▁buộc	-9.17674
▁dưỡng	-9.17788
▁máu	-9.17835
▁sóng	-9.17852
▁cũ	-9.18157
▁sơ	-9.18534
▁Công	-9.18553
▁A	-9.18604
▁linh	-9.18679
▁in	-9.19349
▁7	-9.19523
▁dõi	-9.19657
▁uống	-9.19667
▁buồn	-9.19806
▁Ngà	-9.19828
▁khán	-9.19837
▁loạn	-9.19974
▁chờ	-9.19989
iêu	-9.20064
▁8	-9.20112
▁robot	-9.20197
▁Kỳ	-9.20201
▁tồi	-9.20236
▁mắn	-9.20705
▁Nga	-9.2076
▁điên	-9.20986
▁Thứ	-9.21107
▁lầm	-9.21254
▁vững	-9.21293
▁tảng	-9.21379
▁hi	-9.21735
ữa	-9.21745
▁nô	-9.22085
▁góp	-9.22678
▁chủng	-9.22745
▁lan	-9.22882
▁hãi	-9.22967
▁thưởng	-9.22993
ệt	-9.23036
eo	-9.23057
ốn	-9.23077
ỏng	-9.23461
▁9	-9.23475
▁tường	-9.23998
▁40	-9.24063
▁sửa	-9.24252
uyên	-9.24837
▁đèn	-9.25268
▁12	-9.25402
▁lạnh	-9.25447
ã	-9.25694
▁ủng	-9.26158
▁mái	-9.26197
êu	-9.26498
▁thả	-9.26542
▁du	-9.26626
▁trắng	-9.26684
▁bảng	-9.26747
▁tộc	-9.26951
▁lẫn	-9.27
▁tờ	-9.2707
▁tổn	-9.27222
ùng	-9.27485
▁đỉnh	-9.27548
▁diệu	-9.2784
▁núi	-9.28126
▁web	-9.2838
uổi	-9.28965
▁trì	-9.29519
▁Đông	-9.29771
▁tiểu	-9.29884
▁chó	-9.29951
ễ	-9.29972
ật	-9.30003
▁tô	-9.30045
ép	-9.30228
▁giọng	-9.30353
▁bề	-9.3048
▁áo	-9.30898
▁tốn	-9.31026
▁ấn	-9.31053
▁trận	-9.31136
▁trồng	-9.3118
ành	-9.31327
▁hảo	-9.3135
▁quên	-9.31355
▁giỏi	-9.31445
▁200	-9.31885
▁Hồi	-9.32411
▁ngừ	-9.32656
▁chạm	-9.32676
▁sâ	-9.33156
▁kim	-9.33298
▁cỡ	-9.33333
▁nhé	-9.33402
▁thù	-9.33466
▁khuẩn	-9.33634
▁mãi	-9.33634
▁cầm	-9.3366
▁bền	-9.3408
▁bật	-9.34114
▁Liệ	-9.34289
▁phấn	-9.34564
hẳng	-9.34881
▁gi	-9.34883
▁sánh	-9.34962
▁tiề	-9.35014
▁chố	-9.3513
▁hôn	-9.3557
▁nghỉ	-9.35773
▁chấm	-9.35877
▁19	-9.35983
▁Đại	-9.36123
▁vợ	-9.36276
▁hoảng	-9.36662
▁rơ	-9.36749
▁mời	-9.36808
▁khích	-9.36844
▁quần	-9.37413
▁bang	-9.37591
▁lửa	-9.37726
▁hào	-9.37824
uỗi	-9.37901
hiển	-9.3805
▁vỡ	-9.38058
▁điệu	-9.38081
▁ghế	-9.38348
▁hỗ	-9.38375
▁xương	-9.38588
▁hổ	-9.3867
▁tha	-9.3872
▁nổ	-9.38857
▁đừng	-9.389
ia	-9.38905
▁tách	-9.39413
▁Ba	-9.39654
▁dường	-9.39713
▁18	-9.39718
er	-9.39719
ợ	-9.39788
▁rút	-9.40057
▁ong	-9.40067
▁kịch	-9.40348
▁khẩu	-9.40356
▁chảy	-9.40622
▁sót	-9.40721
▁thịt	-9.40798
▁biên	-9.40807
ẽ	-9.40841
▁gió	-9.40996
▁Mà	-9.41271
▁phối	-9.41627
▁sớm	-9.41665
▁gợ	-9.41998
▁loạt	-9.42011
▁I	-9.42183
▁thoát	-9.4222
▁bè	-9.42233
▁khứ	-9.42692
▁chồng	-9.42791
▁chậm	-9.42814
▁dĩ	-9.43146
▁tàn	-9.43318
▁Ồ	-9.43365
▁sạch	-9.43385
ghề	-9.43464
▁Qu	-9.43685
ảo	-9.44036
▁tắt	-9.44038
▁giấc	-9.44054
ảnh	-9.44229
hắc	-9.44418
▁lặp	-9.45155
▁suất	-9.45512
ức	-9.45867
▁J	-9.46185
d	-9.46456
▁quỹ	-9.46507
▁lỗ	-9.4715
▁25	-9.4744
▁80	-9.4766
▁nghì	-9.47794
▁E	-9.47845
▁trưng	-9.47947
▁phê	-9.4809
▁ngại	-9.48296
uộc	-9.48618
▁túi	-9.48732
▁nâ	-9.48901
▁Google	-9.48918
▁sông	-9.4901
▁trữ	-9.49022
ở	-9.49359
▁bờ	-9.49498
▁tán	-9.49688
▁nguyện	-9.49743
▁thiệ	-9.49958
▁dặm	-9.50134
▁kiệm	-9.50554
▁thước	-9.50565
▁đe	-9.50605
▁khuyế	-9.51214
▁trại	-9.51275
▁Hay	-9.51336
▁chặ	-9.51861
▁cờ	-9.51983
▁sỹ	-9.52719
▁11	-9.5295
A	-9.5298
ực	-9.53128
▁né	-9.53185
õ	-9.53245
▁mỏ	-9.53515
son	-9.53529
▁nhẹ	-9.53597
▁nóng	-9.53743
ung	-9.53929
▁nhắn	-9.53957
ếp	-9.53985
▁Cuố	-9.54138
k	-9.54214
▁bơi	-9.54224
▁vỏ	-9.54243
on	-9.54556
▁ghép	-9.54665
▁60	-9.5468
ý	-9.54761
▁thở	-9.55093
en	-9.55228
▁thăm	-9.55257
▁nhị	-9.55387
▁rẻ	-9.55855
▁thảm	-9.56533
▁Mặ	-9.56574
▁nỗ	-9.56574
▁dã	-9.56801
▁nhật	-9.56971
▁tàng	-9.57073
▁lặng	-9.57345
▁chu	-9.575
▁bọn	-9.57882
▁sáu	-9.58153
ược	-9.58314
▁Hai	-9.58482
▁Nhật	-9.58555
▁lọc	-9.58619
▁Bản	-9.58654
▁lố	-9.59216
▁tụ	-9.59227
▁hùng	-9.59402
▁trống	-9.5943
ống	-9.59434
ũng	-9.59487
ẩm	-9.59605
▁rác	-9.59645
▁Gi	-9.59705
▁bò	-9.60135
▁nấ	-9.60219
iện	-9.60299
▁đà	-9.60509
▁tròn	-9.60756
▁hà	-9.60865
2	-9.61037
▁ưu	-9.61164
▁đẳng	-9.61442
▁vế	-9.61487
▁doạ	-9.61784
▁Ng	-9.61792
▁Bộ	-9.61797
▁voi	-9.61797
ượng	-9.62115
▁Đất	-9.62254
▁ghé	-9.6254
r	-9.63085
▁đam	-9.63112
▁mùi	-9.63173
▁Hà	-9.63821
▁can	-9.63869
▁đựng	-9.63962
▁thừa	-9.64334
▁thác	-9.64641
▁đoàn	-9.65558
▁HIV	-9.6598
ặc	-9.66142
▁Theo	-9.66508
▁xứ	-9.66853
▁nhuận	-9.66905
êm	-9.66964
▁quang	-9.66976
ồng	-9.67145
▁thang	-9.67668
▁đạp	-9.67775
▁dị	-9.68239
▁Đức	-9.68473
▁lược	-9.68695
▁Dù	-9.68708
ịch	-9.68809
▁khô	-9.68891
▁nhựa	-9.69045
▁cãi	-9.69055
ề	-9.69055
▁Nào	-9.69203
▁sốt	-9.69471
▁90	-9.69523
▁khấu	-9.69619
▁đế	-9.6965
l	-9.6969
▁tật	-9.69705
▁chặn	-9.69903
▁P	-9.70253
ặp	-9.70271
▁đò	-9.7056
▁ngoái	-9.7083
▁hè	-9.70897
ấm	-9.71024
ong	-9.71429
▁mừng	-9.71491
▁thai	-9.71765
▁ngang	-9.71793
▁huố	-9.71809
hìn	-9.71865
,000	-9.71881
▁yên	-9.71905
ũ	-9.71906
▁Em	-9.72099
▁dà	-9.72256
▁vú	-9.72269
▁diệt	-9.72285
▁$	-9.72649
▁mại	-9.72794
▁Phả	-9.72844
▁thao	-9.72906
▁giảng	-9.73083
▁xoá	-9.73155
▁hương	-9.73359
ình	-9.73513
▁tràn	-9.73547
▁sổ	-9.73578
ét	-9.73608
▁70	-9.73735
▁ko	-9.73808
▁Á	-9.74104
▁chép	-9.74257
▁thận	-9.74258
▁tri	-9.74286
hiến	-9.74335
▁tỏ	-9.74353
▁mộ	-9.74427
▁đùa	-9.74621
▁vong	-9.74626
ỷ	-9.7589
▁mây	-9.76099
▁ám	-9.76237
▁mập	-9.76687
▁Ả	-9.76795
▁mực	-9.76999
▁bom	-9.77121
hập	-9.77507
▁nhạ	-9.77523
oặc	-9.77733
▁va	-9.77801
▁ADN	-9.7784
▁súng	-9.77954
úc	-9.78156
▁hiếm	-9.78338
▁bắn	-9.78354
ính	-9.7846
▁chán	-9.78648
ọc	-9.78723
▁trào	-9.78737
▁thổ	-9.78762
▁tiêm	-9.78866
hiếp	-9.79137
ơn	-9.79141
ỡ	-9.79475
▁ngọn	-9.79526
▁cát	-9.79548
te	-9.79728
▁Mẹ	-9.79801
▁móc	-9.79877
▁kí	-9.79951
▁lừa	-9.80378
óm	-9.80632
▁mả	-9.80692
▁ro	-9.80697
▁liền	-9.80817
▁Pháp	-9.80823
ạo	-9.80885
▁dối	-9.809
▁óc	-9.80985
▁Bằng	-9.80985
▁gỗ	-9.81308
▁John	-9.81447
▁thờ	-9.81551
▁đua	-9.81948
▁cứng	-9.8197
▁béo	-9.8218
▁nhấ	-9.82308
uỳ	-9.828
▁thầy	-9.83359
▁lũ	-9.83669
▁mạc	-9.83775
▁căng	-9.83802
▁bậc	-9.83826
▁sụ	-9.83987
▁cỏ	-9.84041
▁Thái	-9.84122
▁ạ	-9.84252
▁hoàng	-9.84312
▁ngưỡng	-9.84375
▁hối	-9.84529
▁che	-9.84888
iệp	-9.84942
▁ác	-9.84999
ton	-9.85113
▁cam	-9.85666
▁rượu	-9.85908
D	-9.8594
▁khung	-9.85995
▁thuyền	-9.86013
▁dư	-9.86107
.000	-9.86165
▁táo	-9.86338
us	-9.86441
▁Al	-9.86505
▁mét	-9.8659
el	-9.86768
▁nhũng	-9.86992
ậu	-9.86997
▁côn	-9.87294
ẩu	-9.87333
▁hỗn	-9.87473
▁Hô	-9.87497
▁16	-9.87536
▁vâng	-9.87543
▁mì	-9.87618
▁bi	-9.8816
uấn	-9.88171
éo	-9.88345
▁cú	-9.8855
▁bó	-9.88753
▁cản	-9.88848
▁ức	-9.89068
hay	-9.89135
▁Iran	-9.89149
▁bã	-9.89447
▁lành	-9.89788
▁ngón	-9.90162
▁thọ	-9.90222
▁nút	-9.90231
▁rủ	-9.90418
▁ngu	-9.90428
▁tỉnh	-9.90671
▁mồ	-9.90726
rước	-9.90774
▁truy	-9.912
▁Afghanistan	-9.91296
▁hắn	-9.91311
▁mò	-9.91576
áu	-9.92019
ưởng	-9.92134
▁hồn	-9.9215
es	-9.92221
▁tò	-9.9231
▁David	-9.92411
▁mạo	-9.92536
ua	-9.92559
xoay	-9.92669
▁đắn	-9.93032
▁gọn	-9.93129
▁túc	-9.93152
▁à	-9.93187
▁thiểu	-9.93405
▁protein	-9.93537
▁hư	-9.93556
▁cỗ	-9.93931
▁phán	-9.93968
▁mũi	-9.94038
▁trứng	-9.94134
▁song	-9.94256
▁giận	-9.94259
▁thạch	-9.9477
▁Liê	-9.948
ậy	-9.94809
▁W	-9.9599
▁khiếp	-9.9603
▁thiệp	-9.96112
in	-9.96166
▁dày	-9.96232
▁Y	-9.96379
▁gà	-9.96399
▁xong	-9.96595
ội	-9.9671
huỵ	-9.96714
▁rồ	-9.9682
ê	-9.96925
▁hước	-9.97054
▁cột	-9.97172
la	-9.97394
▁Cơ	-9.97404
▁thánh	-9.97488
▁phó	-9.97544
▁Kế	-9.97607
▁TV	-9.97629
▁lộn	-9.97737
ười	-9.978
▁21	-9.98023
▁huy	-9.98026
ách	-9.98073
▁cụt	-9.98163
▁14	-9.98179
▁truyện	-9.98183
▁tóc	-9.98281
▁xưa	-9.98887
▁răng	-9.98972
▁tuy	-9.99098
▁dọc	-9.99411
▁mát	-9.99502
▁nơ	-9.99804
▁bạc	-9.99917
▁rưỡi	-9.99972
▁đài	-9.99986
▁huyết	-10.0001
▁lù	-10.0003
áp	-10.0017
▁pha	-10.0053
▁miền	-10.0061
▁Lú	-10.0062
▁17	-10.0094
▁tặng	-10.0119
▁đĩa	-10.0121
▁gương	-10.0151
hảo	-10.0167
▁ấm	-10.023
▁xạ	-10.0239
▁vườn	-10.0242
▁nhỉ	-10.0243
▁ngài	-10.0253
uỷ	-10.0259
▁trộn	-10.0304
▁ổ	-10.0314
hính	-10.0321
▁quê	-10.0335
ời	-10.0365
▁Israel	-10.0367
▁ư	-10.0393
hiệu	-10.0395
▁Tổ	-10.0398
▁khóc	-10.0412
▁than	-10.0432
▁tạ	-10.0454
▁Lan	-10.0472
▁lẻ	-10.0474
▁vả	-10.0482
huyện	-10.049
▁dính	-10.0498
▁U	-10.0507
uyển	-10.0519
▁mai	-10.0548
▁miệng	-10.0557
▁đớn	-10.0557
iệt	-10.0586
▁tuệ	-10.0621
oá	-10.0652
▁À	-10.0686
▁hẹn	-10.0689
▁hả	-10.0715
▁bọ	-10.073
man	-10.0742
▁Giáo	-10.0758
▁lỏng	-10.0771
▁ngầm	-10.0791
ầy	-10.08
▁game	-10.0812
▁Facebook	-10.0815
▁kho	-10.085
▁kiên	-10.0881
▁vuông	-10.0882
▁đậu	-10.0898
▁bắc	-10.0913
▁mãn	-10.0917
ới	-10.0921
▁cốc	-10.0957
▁24	-10.097
▁bạch	-10.0976
▁tí	-10.0984
▁phổi	-10.0985
▁lão	-10.1
▁Gia	-10.1014
ùa	-10.1017
▁bổ	-10.1047
▁cường	-10.1051
▁ga	-10.1055
▁hố	-10.1072
▁Cực	-10.1099
▁rô	-10.1138
▁California	-10.1149
▁bột	-10.1151
▁pin	-10.1161
▁Mĩ	-10.1175
▁thoảng	-10.1177
▁13	-10.1184
an	-10.1205
▁DNA	-10.1217
▁hằng	-10.1225
▁The	-10.1247
▁500	-10.1256
▁O	-10.127
▁nướng	-10.1296
▁hứa	-10.1301
▁leo	-10.1305
▁ngã	-10.1305
▁buôn	-10.1306
▁hạng	-10.131
▁Ban	-10.1311
òng	-10.134
▁Giá	-10.1361
▁đảng	-10.1372
▁ngự	-10.1376
▁gã	-10.1402
▁Thờ	-10.1423
▁giày	-10.1492
▁su	-10.1497
▁Kinh	-10.15
▁nét	-10.1531
uân	-10.1533
▁chăng	-10.1556
▁hoại	-10.156
▁OK	-10.1564
▁Bố	-10.1571
▁lưng	-10.1572
▁ti	-10.1605
▁tuyết	-10.1636
▁quà	-10.1649
▁xí	-10.1653
▁mẻ	-10.1665
ỗ	-10.1688
▁tĩnh	-10.1708
ẳng	-10.1712
▁vắc	-10.1715
▁Chris	-10.1727
ích	-10.174
▁ly	-10.1776
▁kèm	-10.1783
▁mèo	-10.1784
▁Nhân	-10.1806
▁Toà	-10.181
▁Khán	-10.1817
ạch	-10.1827
▁dán	-10.1854
▁tây	-10.1866
▁trà	-10.1878
hiệp	-10.1883
▁quán	-10.1887
▁trăng	-10.1891
ởi	-10.1896
ore	-10.191
▁gói	-10.1926
▁trú	-10.1927
▁bụng	-10.1931
▁F	-10.1937
hỉnh	-10.1997
▁hỏng	-10.2003
▁lăn	-10.2034
▁chợ	-10.2051
▁lõ	-10.2056
▁Mexico	-10.2071
▁blog	-10.2074
▁phì	-10.2101
ụ	-10.211
▁Bill	-10.2116
▁tám	-10.2134
▁mờ	-10.2144
▁email	-10.2146
▁tiệc	-10.2147
ghệ	-10.2148
▁giấu	-10.215
▁cong	-10.217
▁Số	-10.2178
▁trần	-10.2195
▁thó	-10.2204
▁2000	-10.2226
▁tị	-10.2235
▁cự	-10.2239
▁sàn	-10.2268
▁Khoản	-10.2271
▁Canada	-10.2297
▁dứt	-10.2299
ừa	-10.2314
S	-10.2318
ốt	-10.2371
▁lệnh	-10.2374
▁heo	-10.238
▁phiền	-10.2384
▁ngon	-10.2388
▁Hộ	-10.2392
▁chìm	-10.2392
▁Cứ	-10.2392
▁trốn	-10.2395
ướng	-10.2409
▁lặn	-10.2448
▁Brazil	-10.245
▁kẹ	-10.2458
▁bão	-10.2463
ron	-10.2509
▁Giả	-10.251
▁ngọt	-10.2529
▁giơ	-10.2531
▁tung	-10.2557
▁AIDS	-10.2606
▁Kenya	-10.2606
▁cụm	-10.2608
▁thoá	-10.2609
▁bụ	-10.2621
▁Úc	-10.2685
▁virus	-10.2689
▁mệnh	-10.2692
▁quí	-10.2692
▁Điển	-10.2697
▁Dự	-10.2705
ám	-10.2714
▁300	-10.274
▁thuế	-10.2767
▁vò	-10.2769
▁and	-10.2774
▁Trường	-10.2774
▁nho	-10.278
▁cúm	-10.2809
▁quái	-10.2828
▁Paul	-10.2839
▁San	-10.2862
▁hang	-10.2866
▁trưa	-10.2874
▁hàm	-10.2901
àng	-10.2909
▁lề	-10.2923
▁London	-10.2925
▁sữa	-10.2935
▁dáng	-10.2971
quang	-10.2975
ải	-10.298
huyền	-10.3013
▁Rập	-10.3019
▁im	-10.3029
▁lô	-10.3039
ệp	-10.306
▁Ho	-10.3081
▁La	-10.3088
▁tuý	-10.3089
▁san	-10.3097
▁khỉ	-10.3112
▁tủ	-10.313
▁khoan	-10.3152
▁Tiếp	-10.3173
▁rét	-10.318
hấp	-10.3186
▁cấm	-10.3194
▁ngắm	-10.3203
▁Hy	-10.3214
▁Điề	-10.3225
▁tân	-10.324
▁Chà	-10.3241
z	-10.3244
▁kị	-10.3254
ợt	-10.3296
▁gián	-10.3325
hậm	-10.3328
ine	-10.3336
▁bù	-10.3338
–	-10.3338
▁khuy	-10.3346
v	-10.341
óc	-10.3441
le	-10.3448
▁Chủ	-10.3449
▁muỗi	-10.345
mera	-10.3489
huỷ	-10.3489
▁cưới	-10.349
▁Iraq	-10.3508
▁lướt	-10.351
ưỡng	-10.3516
▁CO	-10.3517
▁tháp	-10.3518
ày	-10.3523
▁sứ	-10.3533
▁rãi	-10.3554
ley	-10.3555
▁khôn	-10.3568
▁phú	-10.3581
▁Cha	-10.3588
▁George	-10.3594
▁nhẫn	-10.3596
▁trượt	-10.3597
ay	-10.3598
▁nở	-10.3619
▁sơn	-10.3619
▁Cộ	-10.3629
▁cuộ	-10.3672
▁chúa	-10.368
▁Thiên	-10.3686
▁thám	-10.369
▁ngập	-10.3712
▁ngốc	-10.3716
▁Nha	-10.3723
▁kín	-10.3732
▁say	-10.3742
0.000	-10.3744
▁feet	-10.3769
▁nốt	-10.3782
▁nàng	-10.3785
▁tướng	-10.3786
▁ngư	-10.3818
iên	-10.3822
▁châm	-10.3828
▁GDP	-10.3858
▁lò	-10.3872
▁xóm	-10.3877
▁thính	-10.3885
▁Bao	-10.3925
▁Twitter	-10.3947
▁khớp	-10.3947
ắn	-10.3974
▁bơ	-10.4016
▁thua	-10.4027
huê	-10.4034
▁nắng	-10.4046
▁Ok	-10.4054
00	-10.4064
amp	-10.4064
M	-10.4067
uốt	-10.4069
▁vở	-10.4078
▁Hệ	-10.411
▁toả	-10.4129
▁phạt	-10.413
▁tháo	-10.4135
by	-10.4137
▁sung	-10.4149
▁nhãn	-10.418
▁co	-10.4186
▁củ	-10.4191
▁bớ	-10.4207
▁Nghĩ	-10.4219
▁mạn	-10.4224
▁hầm	-10.4244
ie	-10.4245
▁mũ	-10.425
▁nọ	-10.4252
iệu	-10.4287
G	-10.429
▁bốt	-10.4295
▁đuôi	-10.4312
▁lông	-10.4314
▁thô	-10.4314
▁Khoa	-10.4316
▁Tự	-10.4329
▁Ôi	-10.4339
▁Thông	-10.4359
▁Bình	-10.4422
▁Cậ	-10.4462
▁quát	-10.4463
C	-10.4463
▁Einstein	-10.45
▁slide	-10.45
▁thuẫn	-10.4506
▁nhở	-10.4506
ra	-10.4541
▁150	-10.4544
▁dạ	-10.4573
▁muộn	-10.4595
▁hoả	-10.4616
▁Dương	-10.4634
0,000	-10.4638
▁400	-10.4653
▁quạ	-10.4657
▁Dan	-10.4661
al	-10.4692
▁Khá	-10.4697
▁lát	-10.4709
▁Tin	-10.4713
▁mỹ	-10.4797
▁hòn	-10.4809
K	-10.4847
▁thấ	-10.4885
▁Hoả	-10.4887
▁phẳng	-10.4892
▁bút	-10.491
▁Loạ	-10.4911
▁ngực	-10.4913
▁ồn	-10.4914
▁thôn	-10.4921
▁Quá	-10.4934
ưu	-10.4966
▁ngoa	-10.4969
ái	-10.497
▁xoa	-10.4971
▁Washington	-10.4985
▁carbon	-10.4988
ler	-10.4988
▁múa	-10.499
▁khúc	-10.4995
▁giam	-10.5007
▁đới	-10.5007
▁Quan	-10.5013
▁trấn	-10.5033
▁Cập	-10.5051
▁xô	-10.5074
▁Ngài	-10.5086
▁lụ	-10.5098
ắng	-10.5112
▁the	-10.5123
▁phái	-10.5168
▁chả	-10.5172
ệnh	-10.5199
▁rung	-10.5221
N	-10.5236
▁Nigeria	-10.5288
▁Charles	-10.5289
▁nghiện	-10.5289
▁websi	-10.5304
ey	-10.5321
▁gố	-10.5362
▁gan	-10.5389
▁internet	-10.5391
▁ráp	-10.5402
▁Phụ	-10.5406
▁mỏi	-10.5408
▁Oh	-10.5411
▁hưu	-10.5417
ảng	-10.5424
ít	-10.5458
▁nhặt	-10.5496
▁đỗ	-10.5497
▁Thổ	-10.5498
▁Hình	-10.5504
▁ngộ	-10.5547
▁tu	-10.5549
▁lưỡng	-10.5553
▁1000	-10.5569
ài	-10.5596
▁cuồng	-10.5612
▁Tốt	-10.5618
▁Na	-10.562
ỹ	-10.5622
▁vươn	-10.5684
▁Hàn	-10.5696
▁MIT	-10.5707
▁Nghe	-10.5707
▁hẹp	-10.5708
▁2008	-10.5709
▁bá	-10.5722
▁phô	-10.5737
▁Ma	-10.5752
ậm	-10.5778
▁sốc	-10.5787
▁rắn	-10.5789
▁45	-10.58
▁Adam	-10.5816
▁vé	-10.5826
J	-10.5828
uồng	-10.5855
▁Tiến	-10.5859
ẫn	-10.5869
co	-10.5874
▁hồng	-10.5894
hử	-10.5912
▁Joe	-10.5928
▁Los	-10.5935
▁Francis	-10.5948
▁dá	-10.5955
ỗng	-10.5957
▁35	-10.5961
T	-10.5962
▁Chín	-10.5965
ô	-10.5972
▁dả	-10.5991
ồi	-10.6033
▁rửa	-10.6036
▁cừu	-10.6036
▁đoan	-10.6038
▁0	-10.6038
▁đáo	-10.6049
▁vây	-10.6055
▁non	-10.6058
iểm	-10.6081
▁..	-10.6116
▁cạn	-10.6143
▁stress	-10.6145
▁Pakistan	-10.6145
3	-10.6147
▁lọ	-10.6149
▁giã	-10.6152
omas	-10.6183
ụt	-10.6187
9	-10.62
▁Gầ	-10.6222
▁đươ	-10.6226
▁Michael	-10.6237
H	-10.6245
▁Â	-10.6246
▁đạn	-10.6248
▁sạn	-10.6258
▁dẻo	-10.6258
▁tần	-10.6268
▁dạo	-10.6274
▁dâm	-10.6274
▁Xe	-10.6284
hủ	-10.6305
da	-10.633
▁Đa	-10.6337
▁gene	-10.6342
▁đồi	-10.6353
▁lận	-10.6366
▁vặ	-10.637
▁vẹn	-10.6375
▁lệch	-10.6392
▁e	-10.6395
ớt	-10.6414
▁de	-10.6423
ne	-10.6444
▁cacbon	-10.6447
ạp	-10.6471
▁cướ	-10.648
▁lợn	-10.6486
▁PM	-10.6486
▁đạc	-10.6487
▁hò	-10.6501
▁Dar	-10.6509
▁manh	-10.6525
▁lờ	-10.6526
▁Sa	-10.6587
▁Haiti	-10.6603
▁long	-10.6616
▁chừ	-10.6629
ta	-10.6635
▁75	-10.6687
▁trán	-10.6695
▁phiế	-10.6702
▁Nghiê	-10.6711
▁rau	-10.6718
▁GPS	-10.6719
▁buýt	-10.672
▁2010	-10.6721
▁kẹo	-10.6732
▁dọn	-10.6741
▁Má	-10.6744
▁ham	-10.6751
land	-10.6793
▁May	-10.6802
ếm	-10.6806
iếm	-10.6812
ỳ	-10.6828
▁Lạ	-10.6853
▁chín	-10.6888
ri	-10.6906
ỏ	-10.6912
▁kiê	-10.6937
▁mòn	-10.6943
▁Ngô	-10.6945
ử	-10.6961
ị	-10.697
▁Robert	-10.6973
▁bia	-10.6979
hẩm	-10.6986
▁bắp	-10.7072
▁xám	-10.7111
▁rập	-10.7125
▁amp	-10.7127
▁rì	-10.713
▁vay	-10.7179
win	-10.7189
ói	-10.7204
▁Jame	-10.7206
▁dở	-10.7216
▁ố	-10.7225
▁Di	-10.7262
▁lũng	-10.7288
R	-10.7305
▁chăn	-10.732
▁Hả	-10.7324
▁Richard	-10.7334
▁Tuyệt	-10.7336
▁Lạp	-10.734
▁dồ	-10.7352
▁dốc	-10.7359
▁khói	-10.7375
▁ngừa	-10.7414
▁ồ	-10.7432
▁Bang	-10.7434
▁cương	-10.7441
▁nát	-10.7472
▁Chú	-10.7472
áo	-10.7473
▁lượt	-10.7484
▁Mark	-10.7497
▁lơ	-10.7515
▁kiệ	-10.7517
▁sôi	-10.7557
ma	-10.7558
▁ruộ	-10.7576
com	-10.7591
▁phác	-10.7669
▁Bác	-10.7691
▁nản	-10.7699
ice	-10.77
▁Ben	-10.77
▁ho	-10.7703
▁iPhone	-10.7714
▁Mo	-10.7716
▁đai	-10.7725
▁hung	-10.7743
èo	-10.7745
▁pho	-10.7753
▁men	-10.776
▁Talk	-10.7846
▁2007	-10.7847
▁NAS	-10.7851
▁Luậ	-10.7859
▁vá	-10.7864
▁dội	-10.787
▁mọc	-10.7878
▁Sinh	-10.7879
▁Dere	-10.7879
ED	-10.7882
hờ	-10.7885
▁qui	-10.7897
▁Quả	-10.7912
▁vượng	-10.7967
▁bách	-10.7969
▁van	-10.798
▁nghiệt	-10.7987
▁võ	-10.7998
▁xăng	-10.8018
▁đẽ	-10.8036
▁xé	-10.804
▁23	-10.8071
▁Đồ	-10.8109
▁Obama	-10.8114
▁muối	-10.8114
▁Bos	-10.8122
▁tiễn	-10.8122
▁bìa	-10.8131
▁thẳ	-10.8175
▁mỉ	-10.818
▁Steve	-10.8199
ượn	-10.8237
▁giặ	-10.8251
▁ruồi	-10.8252
▁xích	-10.8264
li	-10.8272
▁ngẩn	-10.8289
ce	-10.8325
em	-10.8348
ba	-10.8352
ợp	-10.8357
▁Qua	-10.8358
▁of	-10.8375
▁trộm	-10.839
▁Nob	-10.839
▁lúa	-10.8392
▁hóc	-10.8395
▁chì	-10.8403
▁Hoà	-10.8431
▁Z	-10.8435
▁An	-10.8453
▁Quy	-10.846
b	-10.8464
uỹ	-10.8466
▁lắc	-10.8469
ẫy	-10.847
oài	-10.849
B	-10.8491
▁sọ	-10.8511
▁gá	-10.852
úp	-10.8528
▁Wikipedia	-10.8531
▁Martin	-10.8531
▁gũi	-10.8531
▁Trans	-10.8531
▁mươi	-10.8536
▁rũ	-10.8547
ụp	-10.8574
▁tím	-10.8593
▁mộng	-10.8621
▁Da	-10.863
▁lân	-10.8631
rus	-10.864
▁ngẫm	-10.8674
▁Harvard	-10.8674
▁Peter	-10.8674
▁dũ	-10.8674
▁Big	-10.8678
▁ếch	-10.8695
▁dỗ	-10.871
▁hét	-10.8711
▁Phá	-10.8721
▁Giọ	-10.8723
▁tráng	-10.873
▁chẽ	-10.8732
dio	-10.8741
▁há	-10.8755
▁ván	-10.8773
▁hacker	-10.882
▁Paris	-10.882
▁Chị	-10.882
▁Sam	-10.8821
▁nhường	-10.884
de	-10.8911
x	-10.8947
▁sô	-10.8961
▁Angeles	-10.8966
▁bẩn	-10.8979
▁Thá	-10.9
▁cọ	-10.9003
▁Frank	-10.902
lo	-10.9029
W	-10.9042
▁vụn	-10.9044
▁Điện	-10.9061
▁bám	-10.9063
▁Thu	-10.9066
ỵ	-10.9111
▁Sahara	-10.9116
▁nhạt	-10.9118
▁sáo	-10.912
▁oh	-10.9121
▁rỗng	-10.9125
▁loa	-10.9133
▁soạ	-10.9134
▁mến	-10.9156
▁sắm	-10.9172
▁Eric	-10.918
▁lánh	-10.9193
▁phun	-10.9246
ứt	-10.9253
▁logic	-10.9267
▁nhện	-10.9267
▁mổ	-10.9271
▁Nguyên	-10.9271
▁chôn	-10.9273
▁Tom	-10.9315
▁El	-10.9317
uỵ	-10.9329
▁giọ	-10.9374
▁ngợ	-10.938
▁Đô	-10.9392
▁ơ	-10.9394
▁Smith	-10.942
aptop	-10.9421
▁2005	-10.9421
▁micro	-10.9425
▁vạch	-10.9432
▁nhó	-10.9437
▁Van	-10.9437
▁---	-10.947
est	-10.9482
▁vờ	-10.95
▁rã	-10.9523
▁Re	-10.9554
ãy	-10.9558
▁xà	-10.9574
▁Amazon	-10.9576
ạm	-10.9577
▁inch	-10.9586
▁sét	-10.9595
▁lỡ	-10.9601
▁huynh	-10.9605
E	-10.9613
út	-10.9656
▁đệ	-10.9692
▁nhào	-10.9693
ộp	-10.9718
át	-10.9721
▁Manhattan	-10.9735
▁tivi	-10.9736
L	-10.9738
▁Su	-10.974
▁run	-10.9743
▁xướ	-10.9749
▁bê	-10.9756
▁léo	-10.9763
iển	-10.9763
▁Sĩ	-10.9792
▁lăng	-10.9819
ward	-10.9845
ill	-10.9872
▁Hi	-10.9875
▁Alzheimer	-10.9896
▁oxytocin	-10.9896
▁tê	-10.99
▁nano	-10.9904
I	-10.9906
▁cộ	-10.9931
chìa	-10.9942
ưới	-10.9955
▁Tra	-10.996
▁22	-10.9969
▁Tác	-11.0005
▁Tư	-11.0028
od	-11.0055
goài	-11.0055
▁Chicago	-11.006
▁Rwanda	-11.0061
▁chớp	-11.0065
ế	-11.0077
▁chuông	-11.008
▁mó	-11.0095
▁ngớ	-11.0136
▁lưỡ	-11.0151
▁nạ	-11.017
▁27	-11.017
▁xỉ	-11.0172
▁Gab	-11.0177
▁ái	-11.0199
▁1990	-11.0227
▁nhiễu	-11.0229
▁Kh	-11.0266
▁Sử	-11.0279
▁độn	-11.0318
▁sắ	-11.0356
▁p	-11.0358
▁Sub	-11.0372
▁xá	-11.0374
f	-11.0378
▁kìa	-11.0393
áy	-11.0395
▁Tony	-11.0399
kg	-11.0403
▁000	-11.0408
▁Chưa	-11.0409
▁Web	-11.0436
▁vịnh	-11.0438
▁lui	-11.0458
ịnh	-11.0473
O	-11.048
ner	-11.0491
▁bồi	-11.0512
▁ron	-11.0518
▁99	-11.0559
ụng	-11.0565
▁Higg	-11.0569
▁Apple	-11.0569
▁đuối	-11.057
▁Coca	-11.057
▁hoãn	-11.057
▁khoăn	-11.0574
▁gậy	-11.0578
▁đôla	-11.058
▁tuỵ	-11.0586
▁đúc	-11.0618
▁km	-11.0648
ram	-11.0663
▁ngụ	-11.0669
▁Vị	-11.067
ar	-11.0677
▁quặ	-11.0713
▁nàn	-11.0719
xi	-11.0723
▁ngử	-11.0735
ghê	-11.0736
▁golf	-11.0744
▁hydro	-11.0745
▁MRI	-11.0746
▁Jim	-11.0746
▁rỉ	-11.0748
ike	-11.075
▁oxy	-11.0751
ờ	-11.0778
▁mỡ	-11.078
lin	-11.0784
▁bồ	-11.0788
as	-11.0813
crip	-11.0824
▁bể	-11.0876
▁rè	-11.0879
▁f	-11.0889
▁tiệm	-11.0923
▁Gates	-11.0923
▁II	-11.0924
▁ấu	-11.0929
ol	-11.0976
ết	-11.098
▁Jer	-11.0984
▁cở	-11.0989
▁Quay	-11.0992
▁Chá	-11.102
▁Uy	-11.1025
▁vứ	-11.1047
▁95	-11.1063
xin	-11.1098
▁Hạ	-11.1105
▁nghẽn	-11.1105
▁Times	-11.1108
▁Latin	-11.1122
▁huý	-11.1125
ềm	-11.1167
anh	-11.1167
▁St	-11.1203
▁gãy	-11.1203
ựa	-11.1225
▁Green	-11.1286
▁Chí	-11.1288
▁Henr	-11.129
▁Koran	-11.129
▁Okay	-11.1291
▁2004	-11.1291
▁2006	-11.1292
▁gien	-11.1295
▁đoạ	-11.1299
th	-11.1315
V	-11.1322
▁nhú	-11.1334
▁vu	-11.1366
▁Or	-11.1375
▁băn	-11.139
▁buồ	-11.1411
▁Mô	-11.1432
iêm	-11.1468
▁chù	-11.1469
▁súp	-11.1484
▁Khu	-11.1489
▁nhá	-11.1499
ủa	-11.1513
oắn	-11.1544
▁Kì	-11.1544
▁Hans	-11.1563
len	-11.157
▁ướ	-11.1583
▁lam	-11.1612
▁mớ	-11.162
▁que	-11.162
▁hoan	-11.1622
▁600	-11.163
▁TEDx	-11.1636
▁65	-11.1645
▁1960	-11.1671
▁1970	-11.1671
▁Rio	-11.1672
▁sướng	-11.1679
▁To	-11.169
▁mầm	-11.1692
▁li	-11.1699
▁go	-11.1703
▁Hoàn	-11.1715
ác	-11.1739
▁chày	-11.1765
▁War	-11.1774
▁ló	-11.1831
▁vaccine	-11.187
▁2011	-11.187
▁Wall	-11.1872
▁rộn	-11.1874
▁uốn	-11.1879
▁kề	-11.1885
▁uy	-11.1925
um	-11.1978
▁250	-11.198
▁giậ	-11.199
ơ	-11.2002
oán	-11.2007
di	-11.2055
▁Nữ	-11.2059
▁origami	-11.2067
▁Yemen	-11.2067
▁Não	-11.2071
▁thắn	-11.2078
der	-11.2078
▁khan	-11.2084
▁nan	-11.2101
▁Kim	-11.2105
▁khùng	-11.2106
▁So	-11.2112
▁Chiế	-11.2119
▁khen	-11.2121
ian	-11.2174
ly	-11.2176
▁nhã	-11.2193
▁28	-11.2211
gen	-11.2221
hâm	-11.2234
▁MT	-11.2245
▁YouTube	-11.2271
▁studio	-11.2271
▁piano	-11.2271
▁Brian	-11.2272
▁Congo	-11.2272
▁Lego	-11.2273
ed	-11.2278
▁kem	-11.228
▁búa	-11.2283
▁kẽ	-11.2285
▁26	-11.2297
▁Thư	-11.2301
ter	-11.2304
▁kệ	-11.2309
▁phế	-11.2316
Cola	-11.2316
▁ủi	-11.2333
▁xộn	-11.2361
▁chóc	-11.2371
▁Ke	-11.2389
▁Lớ	-11.2411
P	-11.2421
▁hông	-11.2424
ệ	-11.2441
▁Lin	-11.2459
▁lu	-11.2459
▁Ka	-11.2461
tles	-11.2463
▁sườn	-11.2466
rễ	-11.2474
▁phe	-11.2479
▁Tasmania	-11.2479
▁Uganda	-11.2479
▁Syria	-11.2479
▁Ford	-11.248
▁Ghana	-11.248
▁3000	-11.2481
▁Bush	-11.2481
▁chíp	-11.2483
▁gạt	-11.2486
▁Sáu	-11.2502
▁rỡ	-11.2502
ow	-11.2509
one	-11.2515
▁choáng	-11.2521
ì	-11.2536
4	-11.2553
een	-11.2577
▁xó	-11.2595
▁trá	-11.2603
▁nha	-11.2631
▁bế	-11.2655
▁120	-11.2671
▁Oxford	-11.2692
▁bướm	-11.2692
▁Aristotle	-11.2692
▁FG	-11.2693
▁Đỏ	-11.2738
▁thơm	-11.274
▁10,000	-11.2746
▁rỗi	-11.2747
re	-11.2748
▁Đế	-11.2749
▁dịu	-11.2755
▁gai	-11.2761
ạt	-11.2762
▁Car	-11.2765
▁Jona	-11.2768
▁Man	-11.2769
▁Go	-11.2777
ence	-11.2792
▁tăm	-11.2811
os	-11.2837
▁King	-11.2875
▁Pa	-11.2898
ếch	-11.2901
▁1950	-11.291
▁Cambridge	-11.291
▁Microsoft	-11.2911
▁trọn	-11.2913
hì	-11.2919
▁tạng	-11.294
se	-11.2966
hen	-11.2979
we	-11.2987
▁râu	-11.2988
▁thề	-11.3019
clip	-11.3019
▁vần	-11.3027
30	-11.3066
▁vọ	-11.3072
▁hàn	-11.3079
▁túng	-11.3096
▁NL	-11.3102
▁Josh	-11.3132
▁Taliba	-11.3133
▁Giới	-11.3135
▁lau	-11.3167
uyền	-11.3176
ard	-11.3181
ex	-11.3187
▁Flori	-11.3198
▁Ja	-11.3212
▁trễ	-11.3214
rút	-11.3223
oạn	-11.3224
▁85	-11.3225
▁chổ	-11.3235
▁cồn	-11.3251
▁thè	-11.3264
▁bón	-11.3272
▁rò	-11.3284
▁phốt	-11.3315
▁vạn	-11.3325
ó	-11.3333
right	-11.3357
▁Charlie	-11.3359
▁jazz	-11.3359
▁pizza	-11.3359
▁Stanford	-11.3359
▁Địa	-11.3359
▁show	-11.3361
▁dẹp	-11.3362
▁đục	-11.3386
▁Free	-11.3388
▁ní	-11.3396
▁32	-11.3399
▁Le	-11.3399
▁hé	-11.3409
▁dơi	-11.3415
ham	-11.3417
▁âu	-11.3417
▁Đá	-11.3437
▁nhi	-11.3453
▁vớ	-11.3459
uel	-11.3459
▁Mạ	-11.3471
▁Hoàng	-11.3489
▁xế	-11.3491
▁đè	-11.3514
gie	-11.3515
Q	-11.3528
ide	-11.3533
age	-11.3589
—	-11.3592
▁Texas	-11.3592
▁Abraham	-11.3592
▁Yeah	-11.3592
▁ôtô	-11.3592
▁Xô	-11.3594
org	-11.3596
▁Sáng	-11.3596
▁Amy	-11.3607
▁rốt	-11.361
▁Bob	-11.362
▁bồn	-11.3624
5	-11.3647
▁vẩn	-11.3656
ren	-11.3659
▁quad	-11.3667
▁đòn	-11.3669
▁Tim	-11.3697
▁William	-11.3701
cô	-11.3731
▁na	-11.3735
▁....	-11.3758
ìm	-11.3804
▁nhộn	-11.3819
▁Pat	-11.3825
ạn	-11.3826
▁entropy	-11.383
▁online	-11.383
▁Ước	-11.383
▁1980	-11.383
▁Daniel	-11.3831
▁Khả	-11.3867
▁pháo	-11.3874
▁Chế	-11.3899
▁Chứ	-11.3901
▁thỉ	-11.3907
ck	-11.3915
U	-11.3923
▁Chi	-11.3925
▁bát	-11.3978
▁Phậ	-11.3998
iền	-11.4035
ảm	-11.4043
▁Kiế	-11.4052
our	-11.4059
dy	-11.4061
▁Olympic	-11.4074
▁virút	-11.4079
▁Cụ	-11.4082
▁Mike	-11.4085
▁USD	-11.4119
▁muôn	-11.4136
EO	-11.415
▁33	-11.417
▁ve	-11.4171
▁Ra	-11.4177
▁Wolf	-11.4192
gũ	-11.4289
▁Alex	-11.431
▁toa	-11.431
▁Mc	-11.431
▁Brown	-11.4322
▁Youtube	-11.4324
▁Rosling	-11.4324
▁dollar	-11.4324
▁2050	-11.4324
▁Arthu	-11.4327
▁xảo	-11.4343
▁só	-11.4357
▁chay	-11.4367
ver	-11.4373
▁đinh	-11.4381
▁bẩy	-11.4439
▁Lib	-11.4467
hạch	-11.4489
bon	-11.4506
▁Cam	-11.4507
ượt	-11.4519
▁Se	-11.4523
▁Vương	-11.4525
▁cent	-11.4562
berg	-11.4577
▁dì	-11.458
▁Watson	-11.458
▁Andrew	-11.458
▁Norden	-11.458
▁Wow	-11.4581
ủ	-11.4597
▁sùng	-11.4611
▁Cố	-11.4663
▁lượ	-11.4675
▁Long	-11.4677
▁Pho	-11.4682
▁ngươ	-11.4695
iễu	-11.4727
▁trinh	-11.4736
▁tre	-11.4749
▁Ha	-11.4757
▁29	-11.4778
▁bin	-11.4795
is	-11.4795
▁Ah	-11.4804
▁Eve	-11.4824
▁Steph	-11.4836
▁Neanderthal	-11.4838
▁Jack	-11.4843
▁World	-11.4843
▁Detroit	-11.4843
▁insulin	-11.4843
▁Scotland	-11.4843
▁Ngoạ	-11.4843
▁Hollywo	-11.4844
▁Palestine	-11.4845
uả	-11.4845
▁Mandela	-11.4845
▁lê	-11.4845
▁Nghị	-11.4848
▁nhăn	-11.4858
▁rổ	-11.486
▁tơ	-11.4865
ửa	-11.4876
▁Ray	-11.4877
▁Ted	-11.4883
▁bổng	-11.4884
▁xơ	-11.4889
▁Ven	-11.489
▁Kev	-11.4913
▁Dạ	-11.4916
03	-11.4921
09	-11.4926
col	-11.4933
▁Xu	-11.494
▁Thị	-11.4942
eda	-11.4948
▁Đan	-11.4979
am	-11.5008
▁chip	-11.5011
▁36	-11.5019
▁Bọn	-11.5037
F	-11.5048
ber	-11.5052
▁Hill	-11.5052
▁nhí	-11.5053
ger	-11.5069
▁khe	-11.5073
▁giàn	-11.5093
▁khuất	-11.5099
▁hẻ	-11.5107
▁Jenn	-11.5112
▁Bronx	-11.5114
▁Indonesia	-11.5114
▁Shakespear	-11.5114
▁Singapore	-11.5114
▁Street	-11.5114
▁rặ	-11.5114
▁laser	-11.5114
▁scan	-11.5114
▁Black	-11.5114
▁hán	-11.5147
▁Nel	-11.5153
▁ki	-11.5157
▁31	-11.5157
▁cẩu	-11.5173
st	-11.5179
▁lay	-11.5198
ọng	-11.521
▁Ô	-11.5235
▁tua	-11.5236
▁Nguồ	-11.5238
▁khoán	-11.5249
▁toạ	-11.5262
▁Thú	-11.5273
▁South	-11.5275
▁800	-11.5281
uần	-11.5296
▁rà	-11.5298
erry	-11.5298
ten	-11.5312
▁bùn	-11.5317
▁ha	-11.5344
▁In	-11.5379
huyến	-11.5383
▁gặ	-11.5385
▁Vi	-11.5391
▁market	-11.5391
▁Joseph	-11.5391
▁DVD	-11.5391
▁Iceland	-11.5391
▁lử	-11.5392
▁Zealan	-11.5395
▁Xã	-11.5402
▁sỏi	-11.5403
▁Lee	-11.5404
▁Simon	-11.541
▁Ken	-11.5413
▁Nano	-11.5421
▁Mos	-11.5424
▁Thí	-11.5425
ỉ	-11.5426
▁kiề	-11.5432
▁Phí	-11.5434
▁lượn	-11.544
▁rụ	-11.5458
▁37	-11.5465
▁55	-11.5476
ation	-11.5481
SW	-11.5496
▁Montan	-11.5499
▁ngơi	-11.5505
ith	-11.551
▁Wi	-11.5512
▁Chữ	-11.5525
▁xài	-11.5551
▁Edi	-11.5562
or	-11.5564
▁Carol	-11.5589
▁khốn	-11.561
▁Mac	-11.5611
▁Ca	-11.5628
▁Ga	-11.563
▁lội	-11.5635
▁á	-11.5638
bốt	-11.5645
than	-11.5652
▁nuối	-11.5677
▁Nhạc	-11.5678
▁Albert	-11.5678
▁logo	-11.5679
▁Carolina	-11.5679
▁2002	-11.5684
ka	-11.5689
well	-11.5693
20	-11.5714
▁nhược	-11.5717
▁Victor	-11.5725
pe	-11.5734
▁lách	-11.5739
▁Yo	-11.5753
▁Ron	-11.5775
▁Bảy	-11.5776
▁viê	-11.5776
▁mạ	-11.5793
▁chốn	-11.5802
red	-11.5808
▁hở	-11.5814
▁ngào	-11.5821
BC	-11.5821
na	-11.5858
▁khiếu	-11.5867
ôn	-11.587
hai	-11.5877
gram	-11.5879
ứng	-11.5886
▁cò	-11.5901
▁700	-11.5908
▁bon	-11.591
▁Đàn	-11.5912
BM	-11.5936
▁Gar	-11.5951
nhồi	-11.596
▁pound	-11.5966
way	-11.5968
▁chê	-11.5971
▁Mộc	-11.5971
▁toilet	-11.5971
▁devil	-11.5971
▁Gandhi	-11.5971
▁chuộng	-11.5972
▁Silicon	-11.5972
▁click	-11.5975
▁đun	-11.5976
ak	-11.5982
▁dời	-11.5987
ier	-11.5988
▁Alexand	-11.5989
▁ngoạn	-11.599
▁quăng	-11.6002
▁Lewi	-11.6027
▁đự	-11.6034
▁cua	-11.6041
▁len	-11.6057
aden	-11.6058
▁nắp	-11.609
▁lấn	-11.6099
▁ngả	-11.6118
▁Băng	-11.613
▁De	-11.6133
atch	-11.6139
ph	-11.6174
fi	-11.6183
▁Sal	-11.62
▁He	-11.6232
▁Jane	-11.6246
▁Khác	-11.6264
▁Delhi	-11.6274
▁electron	-11.6274
▁Chile	-11.6275
▁Robot	-11.6275
▁1930	-11.6275
▁1999	-11.6276
ate	-11.6276
▁1900	-11.6277
▁Gô	-11.6278
▁chuối	-11.6289
▁tạc	-11.6293
▁khử	-11.6293
lon	-11.6294
▁Mary	-11.6301
▁ỏi	-11.6311
▁cắn	-11.6314
▁ủ	-11.632
▁vã	-11.6325
▁thỏ	-11.6334
▁môt	-11.6335
▁Rằ	-11.634
▁nhát	-11.6346
▁thà	-11.6362
▁Matt	-11.641
ữ	-11.644
et	-11.6442
▁vù	-11.6471
▁tước	-11.6471
▁ả	-11.6497
▁Hoạ	-11.6501
ns	-11.6503
▁Me	-11.6504
▁tớ	-11.6509
ure	-11.653
ẹp	-11.6539
ót	-11.654
ổ	-11.6546
ỏi	-11.6551
&	-11.6554
CD	-11.6565
▁High	-11.6587
▁cafe	-11.6587
pamine	-11.6587
▁Scott	-11.6587
▁2012	-11.659
▁Sarah	-11.6591
▁bì	-11.6592
lpha	-11.6598
▁Sai	-11.6601
ster	-11.6614
ers	-11.6616
▁đạm	-11.6622
▁khiết	-11.6623
▁chạp	-11.6629
ford	-11.6646
to	-11.6647
▁thốn	-11.6652
▁cớ	-11.6663
axit	-11.6664
▁xi	-11.6669
▁cọc	-11.6682
▁Tes	-11.671
▁Sky	-11.6713
è	-11.6734
▁Che	-11.6734
▁rạ	-11.6767
ưng	-11.6771
▁đan	-11.6786
▁đọ	-11.6795
▁al	-11.68
▁nộ	-11.6822
▁dang	-11.6844
▁bar	-11.685
Y	-11.6851
▁phả	-11.687
▁phàn	-11.6888
áng	-11.6893
olly	-11.6896
▁48	-11.6903
ẳn	-11.6904
nda	-11.6907
ville	-11.6909
▁Columb	-11.6909
▁oxi	-11.6909
▁cưỡi	-11.6909
▁Disney	-11.691
▁xốp	-11.691
▁sờ	-11.6915
▁Stewart	-11.6917
▁xẻ	-11.6933
▁nộp	-11.6937
▁ok	-11.6954
▁Jay	-11.6966
▁no	-11.6981
▁trệ	-11.6983
▁ché	-11.6983
eep	-11.7005
hành	-11.701
▁thừng	-11.701
õi	-11.7022
ệch	-11.7024
▁Q	-11.7035
▁Trí	-11.7047
ever	-11.7049
▁dào	-11.7052
▁suố	-11.7076
▁Baby	-11.7094
▁hoi	-11.712
▁Giữ	-11.7139
▁gán	-11.7145
▁Tiề	-11.7154
▁Ky	-11.7178
ỉnh	-11.7181
oster	-11.7196
▁lẫ	-11.7199
Global	-11.7207
▁Nick	-11.7209
ìa	-11.7235
openha	-11.7243
▁Brooklyn	-11.7243
▁Bosnia	-11.7243
▁1984	-11.7243
▁Nathan	-11.7243
▁Tanzania	-11.7243
▁Johnny	-11.7243
▁Anders	-11.7244
▁Kenne	-11.7246
▁má	-11.725
▁Rose	-11.7263
tic	-11.7267
sey	-11.7269
▁Trò	-11.7276
▁Julian	-11.7283
▁Ki	-11.7289
▁hao	-11.7303
▁gắt	-11.7308
▁bỉ	-11.7312
▁Cy	-11.7344
chi	-11.7354
▁Bồ	-11.7361
bet	-11.7374
ro	-11.7375
ad	-11.7376
▁ươ	-11.7387
▁khoác	-11.7405
tan	-11.741
ax	-11.7415
▁CP	-11.7435
▁đồn	-11.7456
▁Căn	-11.7459
BA	-11.7482
rt	-11.7485
▁Maya	-11.7487
ria	-11.7503
X	-11.7505
▁Bell	-11.752
uôn	-11.7539
hăm	-11.7544
▁Julia	-11.755
beria	-11.7554
▁mác	-11.7562
én	-11.7575
▁Ever	-11.7578
desh	-11.7587
▁iPod	-11.7587
▁đặn	-11.7587
▁Parkinson	-11.7587
▁Virginia	-11.7588
▁Power	-11.7588
▁poster	-11.7588
▁gớm	-11.7588
own	-11.7589
▁Jones	-11.7592
▁đốn	-11.7592
▁pop	-11.7594
▁2.5	-11.7595
▁Emil	-11.761
▁gạo	-11.761
▁Fa	-11.7618
stein	-11.7623
▁1.5	-11.763
▁Ảo	-11.7646
MS	-11.7647
▁Carl	-11.7653
▁chiê	-11.7687
▁vự	-11.7719
den	-11.7748
me	-11.7754
▁Dian	-11.7769
▁mìn	-11.7801
▁Fort	-11.7801
▁OE	-11.7837
▁vác	-11.7839
▁Dea	-11.7847
nd	-11.7851
▁Bra	-11.7858
▁Lo	-11.7874
▁thiê	-11.7884
▁Tỉ	-11.7888
và	-11.7908
oto	-11.7922
▁Hồ	-11.7935
▁Argentina	-11.7945
▁Sylvi	-11.7945
▁album	-11.7945
▁sộ	-11.7945
▁Qatar	-11.7945
▁iPa	-11.7945
▁Clinton	-11.7945
▁EDI	-11.7945
▁Susan	-11.7945
▁vitamin	-11.7945
opera	-11.7945
▁46	-11.7949
▁Mã	-11.7953
hức	-11.7955
usal	-11.7964
▁ôn	-11.7973
ãi	-11.7974
▁ah	-11.7974
▁bỏng	-11.8006
▁bự	-11.8014
ươi	-11.8022
▁Bay	-11.8033
▁tweet	-11.8043
▁hon	-11.8058
iza	-11.8063
hiền	-11.8065
▁tho	-11.8068
▁Li	-11.8093
▁tú	-11.8117
▁Ham	-11.8137
▁Mill	-11.8144
arry	-11.8175
hiệm	-11.8177
RN	-11.8191
lyn	-11.8219
▁phớ	-11.8222
hid	-11.8236
sia	-11.8258
Yêu	-11.8274
van	-11.8284
▁dặ	-11.8299
▁Muhammad	-11.8315
▁Sierra	-11.8315
▁silicon	-11.8315
▁Ethiopia	-11.8315
▁Julie	-11.8317
▁Doug	-11.8322
▁quầy	-11.8324
▁Lang	-11.8326
▁nhốt	-11.8328
▁huỳ	-11.8333
▁Emma	-11.8344
▁Co	-11.8353
chia	-11.8354
ifer	-11.8355
▁nhọ	-11.8368
▁Khan	-11.8376
▁Wa	-11.8394
▁nghê	-11.8402
▁Temp	-11.8403
▁nực	-11.8421
▁Nội	-11.8423
▁Steven	-11.846
▁ngủi	-11.8464
▁thối	-11.8471
▁196	-11.8472
ại	-11.8474
▁xen	-11.8485
lock	-11.8488
ko	-11.8498
▁sương	-11.8508
▁Tớ	-11.8515
ruyền	-11.8525
▁130	-11.8527
▁kép	-11.8531
▁ngoặ	-11.8548
so	-11.8558
ington	-11.8568
▁Lu	-11.8601
ều	-11.8604
ves	-11.8625
▁197	-11.8645
▁phu	-11.8662
▁xị	-11.8677
ban	-11.8684
▁cán	-11.8693
ney	-11.8698
▁pheromone	-11.87
▁Broad	-11.87
▁Zimbab	-11.87
▁suýt	-11.87
▁acid	-11.87
▁Philade	-11.8701
▁Leonardo	-11.8701
▁Ross	-11.8701
▁Roger	-11.8701
▁Usha	-11.8702
▁Somalia	-11.8703
▁gót	-11.8703
▁Anas	-11.8704
▁Cameron	-11.8707
▁Hawaii	-11.8708
▁West	-11.8723
▁fil	-11.8723
▁Park	-11.8724
▁phiện	-11.8734
▁Khó	-11.8736
▁Si	-11.8737
lphi	-11.8743
▁Bali	-11.8748
▁CD	-11.8776
mer	-11.8789
▁ớt	-11.8824
▁dạn	-11.8838
▁Apol	-11.8842
rock	-11.8856
ryl	-11.8861
▁Phố	-11.8863
nô	-11.8874
▁Tinh	-11.8905
▁rợ	-11.8936
▁Marc	-11.8939
uk	-11.896
ghen	-11.897
▁Khố	-11.8975
km	-11.8976
▁Op	-11.898
phone	-11.898
▁bệ	-11.8985
huật	-11.8987
▁Sher	-11.9
▁chử	-11.9005
▁nhả	-11.9007
▁Jo	-11.9007
ain	-11.9013
▁giế	-11.9025
▁Ze	-11.9038
au	-11.9045
▁am	-11.9054
ỉa	-11.9061
vít	-11.9068
▁72	-11.9075
▁Berkeley	-11.91
▁Sputnik	-11.91
▁Starbuck	-11.91
▁Tokyo	-11.91
azeera	-11.91
▁Earth	-11.91
▁tởm	-11.91
▁virut	-11.9101
▁giầy	-11.9105
▁xổ	-11.9105
▁Kelly	-11.9108
▁xì	-11.9108
▁Carne	-11.9109
▁Xanh	-11.911
▁City	-11.9111
▁1,5	-11.9112
▁Ne	-11.9117
gom	-11.9119
▁Bí	-11.912
ational	-11.9128
▁Marco	-11.9128
▁96	-11.9129
▁Well	-11.9132
▁quấn	-11.9136
▁5000	-11.9143
▁Uh	-11.9147
ve	-11.9149
▁Bangla	-11.9161
▁pa	-11.917
▁Can	-11.9186
▁Newto	-11.9201
▁ngâm	-11.9206
reat	-11.9213
▁láng	-11.9214
▁News	-11.9218
hóm	-11.9238
ir	-11.9241
bat	-11.9243
▁Ar	-11.9294
ản	-11.9299
6	-11.9301
iếp	-11.9301
▁Est	-11.9309
▁Bolt	-11.9326
ki	-11.9336
▁cửu	-11.9375
▁Ann	-11.9382
aska	-11.9391
▁ngó	-11.9397
▁loé	-11.9399
▁Wal	-11.9409
and	-11.9411
▁Te	-11.9412
ez	-11.9414
▁thản	-11.9446
fa	-11.9447
low	-11.9457
45	-11.9462
w	-11.9463
▁Evan	-11.9474
▁2.0	-11.9477
▁Mars	-11.9478
▁rờ	-11.9492
ran	-11.9495
ơc	-11.9509
▁Ăn	-11.9514
Ứ	-11.9516
▁Copernic	-11.9516
▁Michigan	-11.9516
▁bướu	-11.9516
▁hamburger	-11.9516
▁Benjamin	-11.9516
▁1996	-11.9516
▁Colombia	-11.9516
▁Tesla	-11.9517
▁Hungar	-11.9517
▁Luther	-11.9518
ẻo	-11.9519
▁Atlanta	-11.9522
▁Dub	-11.9525
▁Prince	-11.9531
▁rậm	-11.9538
▁ion	-11.9539
▁Lester	-11.9539
▁Rome	-11.9547
oor	-11.9552
▁vầy	-11.9562
▁gas	-11.9566
▁Roy	-11.9574
▁140	-11.958
▁Edward	-11.9593
▁nham	-11.9602
úm	-11.9606
ev	-11.9608
▁hip	-11.9614
▁Palm	-11.9629
▁Har	-11.9629
ish	-11.9632
ego	-11.9664
ek	-11.9667
▁tý	-11.9685
hạy	-11.9686
▁My	-11.9692
▁Cà	-11.9703
▁Movem	-11.9715
▁Han	-11.9719
ẹo	-11.9727
burgh	-11.9743
▁Star	-11.9752
▁42	-11.9771
oel	-11.9775
▁Port	-11.9787
▁Marg	-11.9799
▁Há	-11.9801
ợi	-11.9804
▁And	-11.9806
▁kè	-11.9808
▁Leo	-11.9813
▁Pal	-11.9831
▁Ed	-11.988
▁Giấ	-11.9888
▁64	-11.9888
▁Pop	-11.9896
let	-11.9897
▁Bờ	-11.9905
▁trớ	-11.9918
mart	-11.9927
▁man	-11.993
▁mú	-11.9941
▁Win	-11.9951
▁Galapagos	-11.9951
▁Lakota	-11.9951
▁yeah	-11.9951
▁Hawkin	-11.9951
▁ooh	-11.9951
▁Fried	-11.9951
▁giun	-11.9952
▁1998	-11.9952
▁Jackson	-11.9952
▁Rick	-11.9952
▁chồn	-11.9955
▁AK	-11.9956
RA	-11.9956
▁Who	-11.9957
▁2,5	-11.9958
▁Khí	-11.996
▁Bon	-11.9961
▁93	-11.9964
▁Bhut	-11.997
▁44	-11.997
▁Uni	-11.9971
▁thoa	-11.9973
▁Nô	-11.9973
bul	-11.9975
▁Leon	-11.9975
79	-11.9981
up	-11.9991
▁test	-11.9994
▁Chia	-12.0009
liza	-12.0011
87	-12.0027
▁Philip	-12.0028
▁Alan	-12.0035
stan	-12.0039
▁Ku	-12.0052
▁viền	-12.0061
▁Thầ	-12.0062
▁Kal	-12.0063
đ	-12.0069
▁Đôn	-12.0075
▁Jesu	-12.0086
▁Grand	-12.0092
▁Sea	-12.0101
aret	-12.0102
ium	-12.0125
▁350	-12.0125
rack	-12.0161
▁Os	-12.0172
uồn	-12.018
▁Dàn	-12.0207
▁Time	-12.0209
▁Trắ	-12.0211
▁98	-12.0218
▁photo	-12.0222
bar	-12.0242
▁kha	-12.0245
▁Chad	-12.0246
ata	-12.0253
▁Mi	-12.0258
▁Po	-12.0266
kh	-12.0278
▁Cri	-12.029
▁Jon	-12.0292
▁Mong	-12.0313
ge	-12.0313
▁180	-12.0318
▁AM	-12.0318
▁Kar	-12.0326
▁Sch	-12.0347
▁38	-12.0358
▁Jean	-12.0375
▁86	-12.038
▁bô	-12.0385
▁Ira	-12.0394
net	-12.0399
▁Jeopa	-12.0405
CAPTCH	-12.0405
▁Afghan	-12.0405
▁Arizona	-12.0406
▁Mumbai	-12.0406
▁ngặt	-12.0406
▁Nepal	-12.0406
▁Sudan	-12.0406
ansas	-12.0406
▁1995	-12.0406
▁North	-12.0406
▁giềng	-12.0406
▁violin	-12.0406
▁1994	-12.0406
▁Trừ	-12.0407
▁Romo	-12.0407
rdy	-12.0411
▁rạc	-12.0413
▁Kiri	-12.0416
lair	-12.0417
uột	-12.042
▁heli	-12.0424
▁Ur	-12.0436
▁nguyệt	-12.0437
▁nhôm	-12.0443
▁Dave	-12.0445
▁phà	-12.0449
woo	-12.0452
▁Mar	-12.0454
each	-12.0461
▁gồ	-12.0464
▁Ali	-12.0478
▁Roma	-12.0478
họn	-12.0482
ere	-12.0485
▁Louis	-12.049
▁Rock	-12.0518
mét	-12.0518
▁Will	-12.0542
▁Sant	-12.0546
▁Mu	-12.0548
7	-12.056
▁Jess	-12.0561
ah	-12.0569
▁160	-12.057
▁AO	-12.0572
ary	-12.0585
pu	-12.0589
▁Cair	-12.06
▁thò	-12.0611
▁Don	-12.0619
▁Bu	-12.0626
▁Nổ	-12.0627
▁Gold	-12.0644
▁suôn	-12.0647
▁Berli	-12.0687
▁For	-12.0694
▁Ya	-12.0712
▁khoé	-12.0713
▁amin	-12.0744
▁Mù	-12.0759
▁Leb	-12.0763
▁Ir	-12.0777
▁Colli	-12.0787
▁Wo	-12.0808
▁cừ	-12.0816
ronto	-12.0843
▁Map	-12.0847
Z	-12.0848
một	-12.0849
▁Tô	-12.0858
▁hươ	-12.0869
▁báng	-12.0878
▁Jordan	-12.0881
▁Jeff	-12.0881
▁Beethoven	-12.0882
▁Havard	-12.0882
▁Taylor	-12.0882
▁enzym	-12.0882
▁Rachel	-12.0882
▁prô	-12.0882
▁Lawr	-12.0882
▁Grace	-12.0882
▁Fox	-12.0882
▁Jeffer	-12.0883
zơ	-12.0883
uốc	-12.0884
▁PH	-12.0884
▁sẹo	-12.0885
▁Plato	-12.0886
▁Cuba	-12.0887
pass	-12.0888
85	-12.0888
▁nhô	-12.0893
▁Clay	-12.0901
ĩa	-12.0908
▁lé	-12.0914
mail	-12.0915
▁nhọc	-12.0917
vis	-12.0925
▁fan	-12.0931
án	-12.0935
go	-12.0937
▁Ru	-12.0964
▁gram	-12.0967
▁34	-12.0974
▁Mama	-12.0987
▁Hall	-12.1001
▁Ko	-12.1007
▁Men	-12.101
witz	-12.102
▁Be	-12.1036
bert	-12.1046
▁bú	-12.105
▁Net	-12.1057
▁dẫ	-12.1062
▁Yu	-12.1069
oạt	-12.1078
▁nhai	-12.1097
tô	-12.1111
▁4000	-12.1133
za	-12.1138
▁43	-12.1142
▁bầm	-12.1152
▁Sun	-12.1169
attle	-12.1188
▁Bue	-12.1221
tin	-12.1227
mee	-12.1248
▁Ge	-12.1257
NG	-12.1262
▁Bru	-12.1262
▁xo	-12.1275
é	-12.1294
▁Blue	-12.1294
que	-12.1296
▁97	-12.1303
èn	-12.1322
58	-12.1333
▁Bé	-12.135
▁199	-12.1359
ẹ	-12.1364
▁sạc	-12.1376
Ờ	-12.1382
eographic	-12.1382
▁Europa	-12.1382
▁CNN	-12.1382
word	-12.1382
▁Ryan	-12.1382
▁Lesterland	-12.1382
▁sandwich	-12.1382
▁McDonald	-12.1382
▁1975	-12.1382
▁gôn	-12.1382
▁IQ	-12.1384
▁banjo	-12.1384
▁State	-12.1387
▁dè	-12.1387
▁Murr	-12.1397
▁liễu	-12.1397
▁ín	-12.1397
▁125	-12.1398
▁Yorker	-12.1398
▁sero	-12.1399
lee	-12.14
▁cưng	-12.1403
itus	-12.1405
▁50,000	-12.1412
▁loã	-12.1414
▁58	-12.1415
▁Pro	-12.1418
▁nhẽ	-12.1419
▁đê	-12.1423
▁Peru	-12.143
rin	-12.1435
cor	-12.144
▁Red	-12.1456
▁gở	-12.1461
xy	-12.1464
▁Oo	-12.1465
▁wi	-12.1471
▁Art	-12.1488
ity	-12.1517
▁Za	-12.1521
▁Kí	-12.1529
▁vãn	-12.1529
ire	-12.1531
▁Harl	-12.1538
▁1.2	-12.1559
tha	-12.156
▁nai	-12.1566
istan	-12.1577
▁Fl	-12.158
▁khờ	-12.1591
ntu	-12.1593
▁ròng	-12.1599
ện	-12.1617
ola	-12.1675
▁Aye	-12.1701
▁52	-12.1702
▁You	-12.1705
▁SR	-12.1714
bro	-12.1717
▁bén	-12.1728
▁bịch	-12.1738
ight	-12.1755
lash	-12.177
cou	-12.1774
▁Super	-12.1795
q	-12.1812
bi	-12.1819
hẹn	-12.1833
▁Len	-12.1841
▁tản	-12.1842
▁En	-12.1851
▁Has	-12.1862
hiếu	-12.1866
▁đắp	-12.1868
▁Kare	-12.1872
▁miên	-12.1873
res	-12.1874
▁Sara	-12.1878
Tôi	-12.1886
▁tứ	-12.1903
▁Quản	-12.1904
▁thạc	-12.1904
field	-12.1907
▁Guinea	-12.1908
▁Mitchell	-12.1908
▁Nairobi	-12.1908
▁Oregon	-12.1908
▁marathon	-12.1908
▁spaghetti	-12.1908
▁Katrina	-12.1908
▁FOXO	-12.1908
▁phthalate	-12.1908
▁Bertie	-12.1908
▁Island	-12.1908
▁1997	-12.1908
▁FBI	-12.1908
▁nitri	-12.1909
▁Craig	-12.1909
▁Nhớ	-12.1909
▁canxi	-12.191
▁Doha	-12.191
▁Walker	-12.1911
▁Biến	-12.1913
euron	-12.1913
▁hack	-12.1914
▁mị	-12.1919
cca	-12.192
ltim	-12.192
▁vv	-12.192
▁Mario	-12.1924
▁Thanh	-12.1925
▁Eri	-12.193
▁Mag	-12.1937
▁Tham	-12.1945
▁bit	-12.1949
▁games	-12.1949
▁meta	-12.1952
raham	-12.1954
mala	-12.1956
▁Qa	-12.1971
▁lẽo	-12.1985
▁Meli	-12.199
▁sủ	-12.1991
▁Cười	-12.1997
cher	-12.1999
▁khuya	-12.2018
▁Gu	-12.2024
ga	-12.2025
8	-12.203
ha	-12.2031
itra	-12.2032
av	-12.2034
din	-12.2039
▁Tob	-12.2044
ette	-12.2045
▁it	-12.2054
▁God	-12.2054
ini	-12.2096
▁rẩy	-12.2099
ctor	-12.2102
▁6000	-12.2106
000	-12.2111
wen	-12.2115
▁AV	-12.215
ula	-12.2191
be	-12.2193
oà	-12.2206
▁diễ	-12.2206
ò	-12.2212
old	-12.2219
▁ngh	-12.222
▁vỉ	-12.2224
▁41	-12.2226
▁Am	-12.2229
▁Wei	-12.2239
flu	-12.2245
id	-12.2253
EG	-12.2254
▁Bó	-12.2255
lbert	-12.2261
iro	-12.2275
ổi	-12.2276
▁trơ	-12.2279
▁Johns	-12.2285
do	-12.2286
▁Fi	-12.2293
▁mĩ	-12.2294
sa	-12.2297
rah	-12.2306
ợc	-12.2308
▁Cu	-12.2313
hock	-12.2316
▁Rand	-12.2319
ue	-12.2326
▁Beau	-12.2327
ướt	-12.2334
oyo	-12.2343
rô	-12.2351
▁Whit	-12.2357
▁Stan	-12.237
▁Lã	-12.2371
huyết	-12.2383
har	-12.2389
bu	-12.2399
▁Mah	-12.2406
88	-12.2421
▁Xé	-12.2425
shop	-12.243
bốn	-12.2435
▁Mau	-12.2441
▁calo	-12.2452
▁cỗi	-12.2457
▁gạc	-12.2459
▁nặn	-12.2461
▁Fibonacci	-12.2464
▁Himalaya	-12.2464
▁Venezuela	-12.2464
▁Oakland	-12.2464
▁Stefan	-12.2464
▁Gehr	-12.2464
▁Brenda	-12.2465
▁Stone	-12.2465
▁1992	-12.2466
▁nhổ	-12.2468
▁Cape	-12.247
▁Allen	-12.2473
▁American	-12.2485
▁trọt	-12.2486
anon	-12.2496
▁mịn	-12.2499
▁sỡ	-12.25
matic	-12.25
moud	-12.2502
▁Cal	-12.251
▁Mê	-12.2519
om	-12.2522
ox	-12.2523
ry	-12.2525
▁Abu	-12.2528
uck	-12.2533
oon	-12.2542
▁Gord	-12.2548
▁Tiên	-12.255
▁Gua	-12.2553
àu	-12.2558
met	-12.2572
berry	-12.2578
▁East	-12.258
▁dộ	-12.2588
hủng	-12.2593
tein	-12.2595
▁gầ	-12.2606
▁Jud	-12.2607
▁Lợ	-12.2611
ling	-12.2618
lê	-12.2622
▁Clo	-12.2625
oah	-12.2633
ister	-12.2643
▁Robin	-12.2644
▁thủng	-12.2645
▁900	-12.2673
▁1,000	-12.2676
eil	-12.2714
car	-12.2716
▁nôn	-12.2718
.5	-12.2761
▁lự	-12.2763
SG	-12.2768
OL	-12.2771
▁Hiể	-12.2771
▁Ram	-12.2777
▁Ror	-12.278
▁Rob	-12.2783
▁Aar	-12.2788
57	-12.2802
▁Nan	-12.2809
lip	-12.2815
▁Mont	-12.2817
▁Farm	-12.2818
▁chò	-12.2835
▁Tay	-12.2839
▁Cent	-12.2849
nie	-12.2852
▁Kho	-12.2854
▁Christophe	-12.2868
▁Ac	-12.2878
illa	-12.2881
▁luồn	-12.29
▁CE	-12.2915
▁Bán	-12.2925
▁you	-12.2927
arter	-12.2934
scar	-12.2944
link	-12.2952
▁phồn	-12.296
▁CL	-12.2965
▁Sợ	-12.2966
ina	-12.2973
▁ax	-12.2994
▁nhún	-12.3014
▁gò	-12.3019
▁đu	-12.3025
▁loà	-12.3026
AD	-12.3027
rưở	-12.3029
bur	-12.3029
▁ghề	-12.3033
▁ừ	-12.3039
▁Sir	-12.3041
▁CC	-12.3041
▁Alf	-12.3044
▁rán	-12.3048
#	-12.3052
▁Chernobyl	-12.3052
▁Pantheon	-12.3052
▁Pepsi	-12.3052
▁Stirling	-12.3052
▁Potter	-12.3052
▁Gaza	-12.3052
▁Norman	-12.3052
▁Bonnie	-12.3052
▁Yale	-12.3053
▁Sweeney	-12.3053
▁SOPA	-12.3053
▁Ess	-12.3055
▁Sin	-12.3056
▁Ig	-12.3057
▁blogger	-12.3057
▁Goer	-12.3058
llon	-12.3058
Spee	-12.3058
▁progeri	-12.3059
▁quỳ	-12.306
▁Az	-12.3062
▁giũ	-12.3065
kins	-12.3066
▁Had	-12.3071
▁giòn	-12.3079
▁450	-12.3081
▁gel	-12.3084
uyễn	-12.3085
▁hun	-12.3085
rick	-12.3088
hran	-12.3092
▁Vui	-12.3093
▁Sol	-12.3097
tz	-12.3107
▁sút	-12.3108
▁Moza	-12.3112
ibera	-12.3113
▁tem	-12.3115
▁360	-12.313
▁Liber	-12.3138
▁Phổ	-12.3139
ca	-12.3139
▁Justi	-12.3142
▁bạt	-12.3146
▁Gayl	-12.3158
▁hormone	-12.316
ral	-12.3161
▁White	-12.3165
all	-12.3171
▁Tai	-12.3173
▁Mel	-12.3175
▁tru	-12.3185
▁thê	-12.3187
sel	-12.3187
▁gáy	-12.319
uẩn	-12.3191
▁Sc	-12.3192
iêng	-12.3193
▁giở	-12.3206
▁Jan	-12.3213
▁Fe	-12.3219
gh	-12.3223
mond	-12.3229
obul	-12.3245
▁Phó	-12.3246
lô	-12.3267
uke	-12.3293
▁gào	-12.3295
▁Juan	-12.3296
▁Gan	-12.3305
▁vê	-12.3309
une	-12.3311
ker	-12.3329
▁top	-12.3338
huma	-12.3345
▁Billy	-12.3349
▁Gen	-12.3355
reas	-12.3356
era	-12.3367
las	-12.3368
▁57	-12.337
vin	-12.3371
▁Loa	-12.3374
tơ	-12.3384
-2	-12.3385
44	-12.3401
▁47	-12.3425
▁Án	-12.3445
ris	-12.3452
vic	-12.3461
ari	-12.3463
▁Gand	-12.3466
▁ngà	-12.347
▁Brit	-12.3471
ud	-12.3472
her	-12.3476
48	-12.3487
mas	-12.3489
▁110	-12.3491
tar	-12.3491
ies	-12.3496
rit	-12.3505
▁hu	-12.3509
▁nghẹ	-12.3509
obo	-12.3511
oga	-12.3511
art	-12.3523
iley	-12.3528
ạng	-12.3529
▁Au	-12.3544
▁Shir	-12.3545
25	-12.3573
▁Giê	-12.3602
▁lạy	-12.3603
▁Nico	-12.361
▁TH	-12.3612
▁Jami	-12.3614
bo	-12.3625
▁Xa	-12.3633
▁Trả	-12.3634
▁Fred	-12.3634
lean	-12.3654
watt	-12.3663
ườn	-12.3667
oát	-12.3668
▁Matthew	-12.367
▁nhì	-12.3672
▁Nguy	-12.3673
▁Dol	-12.3674
▁Anthon	-12.3677
▁Jamaica	-12.3677
▁Tahrir	-12.3677
▁Univers	-12.3677
▁Agn	-12.3677
▁MoMA	-12.3677
abad	-12.3677
▁1989	-12.3677
▁Meyer	-12.3678
▁Helen	-12.3678
▁Hanna	-12.3678
▁Intel	-12.3678
▁Caltech	-12.3678
▁AR	-12.3681
▁Mahat	-12.3689
▁Vide	-12.3692
▁foot	-12.37
▁Sug	-12.3701
▁dốt	-12.3708
▁Hom	-12.3713
enter	-12.3721
▁UCL	-12.3721
▁Mad	-12.3722
▁Nichol	-12.3736
ture	-12.3744
nberg	-12.3746
▁Bur	-12.3752
love	-12.3755
hall	-12.3777
DP	-12.3789
▁Las	-12.379
▁yo	-12.3794
▁Bil	-12.3798
đi	-12.3803
▁Luc	-12.381
▁proto	-12.3816
sau	-12.383
hire	-12.3837
lore	-12.3837
ira	-12.3839
▁Stand	-12.3872
▁Harr	-12.3877
▁nọc	-12.3887
▁Kay	-12.39
▁00	-12.3914
CO	-12.3941
▁rộ	-12.3941
rey	-12.3949
▁Ste	-12.3952
▁Kiể	-12.3964
ica	-12.3982
▁lon	-12.3997
▁gân	-12.4006
▁Val	-12.4033
▁sò	-12.4058
óp	-12.406
▁77	-12.4082
▁Air	-12.4082
raja	-12.4094
ew	-12.4096
olm	-12.4106
▁cata	-12.4107
line	-12.4111
DA	-12.4119
▁bợ	-12.4128
▁195	-12.4136
▁1.3	-12.4138
,	-12.4139
môn	-12.4144
oya	-12.4148
able	-12.4151
▁Pink	-12.4176
▁0.	-12.4203
▁Angel	-12.4206
▁Spi	-12.4208
▁Sang	-12.4222
▁nhứ	-12.4231
13	-12.4233
▁lả	-12.4233
▁Dr	-12.4239
▁Pol	-12.4264
▁us	-12.427
key	-12.4275
▁ngơ	-12.4281
▁78	-12.4283
▁84	-12.4287
ania	-12.43
▁Lock	-12.4301
▁Maria	-12.4311
yne	-12.4322
▁tuôn	-12.4324
gan	-12.4329
,5	-12.433
▁hop	-12.4333
▁hằn	-12.4341
▁Palestin	-12.4341
▁Màn	-12.4343
▁Arkansas	-12.4343
▁Charlotte	-12.4343
▁Hiroshi	-12.4343
▁PIPA	-12.4343
▁Pennsylvania	-12.4343
▁TEDTalk	-12.4343
ç	-12.4343
▁Ireland	-12.4343
▁Ariel	-12.4344
▁Euro	-12.4344
▁Tennessee	-12.4344
▁Cooper	-12.4344
▁1986	-12.4344
▁gluco	-12.4344
▁Malco	-12.4344
▁TEDWomen	-12.4344
jev	-12.4344
▁Jake	-12.4344
▁nhoáng	-12.4345
▁Palextin	-12.4345
water	-12.4345
▁Dennis	-12.4345
▁hoóc	-12.4345
▁qú	-12.4346
▁Miller	-12.4346
port	-12.4347
▁Cor	-12.4347
▁cello	-12.435
▁copy	-12.435
▁ngò	-12.4351
cratch	-12.4351
▁2013	-12.4352
▁Brook	-12.4353
▁10000	-12.4355
▁Serge	-12.4355
▁Brand	-12.4355
bin	-12.4356
▁Alto	-12.4356
j	-12.4357
▁sú	-12.4358
▁Coch	-12.4359
▁Tara	-12.4363
▁Max	-12.4365
▁INC	-12.437
▁Grant	-12.4379
▁Nhu	-12.4379
vi	-12.438
▁hót	-12.4382
ats	-12.4388
▁CH	-12.4395
▁noi	-12.4395
▁Sebastia	-12.4395
anka	-12.4407
▁Ro	-12.4411
▁Case	-12.4421
omi	-12.4433
▁tro	-12.4449
NA	-12.4454
óng	-12.4459
▁Pe	-12.4461
per	-12.4462
▁w	-12.4464
á	-12.4469
ộng	-12.447
gi	-12.449
sion	-12.4499
plan	-12.4504
▁Job	-12.4507
ion	-12.4509
▁Ash	-12.4513
ower	-12.452
▁Arm	-12.4533
ink	-12.4541
▁is	-12.4545
▁gra	-12.4545
94	-12.4562
▁Sr	-12.4578
inux	-12.4601
▁sữ	-12.4604
nee	-12.4642
osph	-12.4643
▁Olive	-12.4655
▁Avi	-12.466
cola	-12.4671
▁82	-12.4672
▁Acce	-12.4674
▁đễ	-12.4684
54	-12.469
▁Bern	-12.4694
▁thiển	-12.4701
háo	-12.4703
lah	-12.4705
ical	-12.4711
▁Quyế	-12.4712
otto	-12.4714
▁mí	-12.4716
▁euro	-12.472
▁Williams	-12.472
▁sụn	-12.4726
ff	-12.4729
▁nga	-12.4733
rd	-12.4742
ul	-12.4744
▁Archi	-12.4744
▁BP	-12.4746
▁68	-12.4747
▁Bal	-12.4751
ted	-12.4758
agan	-12.4766
▁Mathe	-12.4769
▁doo	-12.4787
op	-12.4801
ji	-12.481
wa	-12.4816
▁en	-12.482
▁Cú	-12.482
▁Trice	-12.4835
▁Rod	-12.4848
over	-12.4859
su	-12.4873
▁SA	-12.4902
▁Đề	-12.4902
ĩnh	-12.4911
▁đả	-12.4917
dt	-12.4919
▁Lim	-12.4922
quẳng	-12.4923
▁She	-12.495
men	-12.5002
▁tấu	-12.5014
▁Dam	-12.5015
fli	-12.5016
▁Anne	-12.5018
Point	-12.5023
Đ	-12.5024
▁1,2	-12.5041
ulu	-12.5044
▁Fellow	-12.5052
▁HS	-12.5054
oogle	-12.5056
▁Aurora	-12.5058
▁CIA	-12.5058
▁Connecticut	-12.5058
▁Hopkins	-12.5058
▁Odysse	-12.5058
▁Rezero	-12.5058
▁Sioux	-12.5058
▁Ahmed	-12.5058
▁Austral	-12.5058
▁Phillip	-12.5058
▁milimet	-12.5058
▁Color	-12.5058
▁Kiva	-12.5058
▁IKE	-12.5058
▁Scoo	-12.5058
▁Nauy	-12.5058
▁Rebe	-12.5058
▁Bonnet	-12.5058
▁Bayes	-12.5059
▁hù	-12.5059
▁Donald	-12.5059
▁Found	-12.5059
▁Tunisia	-12.506
ndura	-12.506
▁Oz	-12.5061
▁Sẵn	-12.5061
▁đùi	-12.5062
▁Amsterdam	-12.5062
▁Browne	-12.5064
▁Hmm	-12.5067
▁1500	-12.5068
horn	-12.507
▁1800	-12.507
▁Eco	-12.507
ago	-12.507
▁76	-12.5071
▁RI	-12.5073
▁nò	-12.5076
toni	-12.5076
▁Malay	-12.5079
bao	-12.5079
▁Tso	-12.5079
▁Robbi	-12.5082
▁fis	-12.5083
▁rẫy	-12.5087
ARPA	-12.5091
▁Sỹ	-12.5094
▁nhoi	-12.5099
16	-12.5103
12	-12.5105
ness	-12.5105
stro	-12.5113
▁Rocket	-12.5116
lar	-12.512
▁SS	-12.5127
▁Papu	-12.5129
ado	-12.514
▁Alla	-12.5144
gal	-12.5147
▁Brad	-12.5149
▁Kle	-12.5173
▁Young	-12.5174
▁Home	-12.5174
▁Russel	-12.5182
▁Jacque	-12.5186
▁Burn	-12.5186
sburg	-12.5187
ze	-12.5191
▁1.6	-12.5197
▁mic	-12.5203
68	-12.5211
▁Mari	-12.5213
▁thuyên	-12.5225
▁vạ	-12.5228
▁Gh	-12.523
▁Wang	-12.5232
aria	-12.5243
▁bíp	-12.5243
▁chậu	-12.5244
▁Chen	-12.5251
ene	-12.5263
▁Tor	-12.5267
▁Gene	-12.5273
▁Git	-12.5291
atops	-12.5293
reo	-12.5294
▁ná	-12.5302
▁Dick	-12.5305
reud	-12.5308
▁neo	-12.531
▁7000	-12.531
▁nạt	-12.5311
▁Tami	-12.5314
arty	-12.5317
ame	-12.532
ke	-12.5328
sen	-12.5344
▁gam	-12.5362
▁Chim	-12.5374
ati	-12.5375
▁Kos	-12.5379
sha	-12.5381
▁Naj	-12.5384
ubar	-12.5401
az	-12.5407
OS	-12.542
off	-12.5426
▁Tri	-12.5441
scal	-12.5444
uther	-12.5448
▁Boy	-12.5448
ú	-12.5456
lm	-12.5468
les	-12.5478
▁Bach	-12.5483
ho	-12.5488
▁dế	-12.5488
▁Lab	-12.5547
▁Im	-12.5553
ook	-12.557
▁lư	-12.5585
úi	-12.5591
▁Stockh	-12.5613
its	-12.5615
eibo	-12.5628
▁67	-12.563
ple	-12.5635
ash	-12.5637
ment	-12.5642
29	-12.5643
▁Tel	-12.565
▁SB	-12.565
▁chè	-12.5655
▁Mang	-12.5656
▁lở	-12.5663
▁Michel	-12.567
▁Aust	-12.569
va	-12.5701
▁54	-12.5702
▁194	-12.5703
bia	-12.5706
iff	-12.5707
rich	-12.5707
▁Per	-12.5711
▁se	-12.5717
▁Bloom	-12.5724
▁Gra	-12.5725
meer	-12.5727
manda	-12.5732
34	-12.5739
▁vơ	-12.5753
▁Baha	-12.5756
▁Pun	-12.576
nick	-12.5779
47	-12.578
ala	-12.5781
BI	-12.5782
90	-12.579
▁dằn	-12.5798
sky	-12.5798
uyện	-12.5799
▁Christ	-12.5808
ovo	-12.5816
phu	-12.582
▁Indiana	-12.5826
ynth	-12.5826
▁Phil	-12.5827
▁Child	-12.5827
▁Hirsh	-12.5827
▁Ixaren	-12.5827
▁Picasso	-12.5827
▁cocktail	-12.5827
▁Gabriel	-12.5827
▁Gapminder	-12.5827
▁Georgi	-12.5827
▁Shaw	-12.5827
▁Rives	-12.5827
▁Studio	-12.5827
▁Minne	-12.5827
▁Heather	-12.5827
▁1940	-12.5828
▁Seth	-12.5828
hoo	-12.5828
▁Rot	-12.5828
▁Danny	-12.5828
▁Wales	-12.5828
▁Wilson	-12.5829
▁demo	-12.583
▁nhò	-12.583
▁1,3	-12.5831
▁Water	-12.5831
▁suyễn	-12.5831
▁3,5	-12.5832
▁Eli	-12.5832
▁marat	-12.5832
▁Huck	-12.5833
▁Oxy	-12.5833
▁TEDster	-12.5833
usse	-12.5833
▁JK	-12.5834
▁Photo	-12.5836
hop	-12.5837
▁Ổn	-12.5837
▁56	-12.5838
nish	-12.5841
zman	-12.5846
▁Vai	-12.5847
eau	-12.5849
▁Heh	-12.585
Qa	-12.5854
▁gara	-12.5862
▁40.000	-12.5864
▁Pran	-12.5865
▁Kins	-12.5868
▁Cap	-12.587
AG	-12.5875
▁MW	-12.5875
▁39	-12.5875
dne	-12.5877
▁Sim	-12.5878
▁91	-12.5879
▁Viki	-12.5883
acre	-12.5884
burg	-12.5889
▁meme	-12.589
yon	-12.5891
MF	-12.5901
▁Rag	-12.5902
▁Up	-12.5913
ee	-12.5919
ok	-12.5926
▁est	-12.593
ition	-12.5931
hìa	-12.5932
min	-12.5938
28	-12.594
▁Chả	-12.5952
bes	-12.5954
▁giông	-12.5955
owan	-12.5964
▁Ut	-12.5968
▁Kha	-12.597
▁sen	-12.5972
▁53	-12.5974
▁von	-12.5975
▁Lũ	-12.5983
AT	-12.5987
SF	-12.5991
erra	-12.6001
ortis	-12.6008
amma	-12.6011
tler	-12.6014
▁Lad	-12.6029
▁Row	-12.6034
▁Du	-12.6054
▁Pier	-12.6074
▁Chu	-12.6078
▁xao	-12.608
here	-12.6081
ệm	-12.6097
▁Aa	-12.6103
▁hạc	-12.6109
▁Mira	-12.6119
amen	-12.6132
▁US	-12.6148
onia	-12.6154
fon	-12.6156
▁Far	-12.6175
▁me	-12.6176
dom	-12.6185
▁185	-12.6188
are	-12.6197
▁hó	-12.6202
▁It	-12.6204
▁Monter	-12.6208
▁Rivers	-12.6212
▁Mard	-12.6217
uga	-12.6232
iffe	-12.625
▁Gian	-12.6253
tion	-12.6289
ồm	-12.6296
ố	-12.6299
▁Song	-12.6309
▁phỉ	-12.6312
▁Greg	-12.6318
▁rầu	-12.6328
▁Ala	-12.6334
gu	-12.6348
ư	-12.6371
nders	-12.6385
SD	-12.6391
▁Cự	-12.6395
▁Ata	-12.6395
ska	-12.6398
yle	-12.6409
▁Ngọ	-12.6411
nos	-12.6415
▁chuồn	-12.642
▁Ell	-12.6424
asa	-12.6435
▁ru	-12.6437
cha	-12.6442
▁Dra	-12.6448
▁Pri	-12.6484
fer	-12.6494
aki	-12.652
▁nể	-12.6535
▁HP	-12.655
RS	-12.6556
▁ngoạ	-12.6583
▁giỏ	-12.6586
AC	-12.6596
▁Ter	-12.6602
via	-12.6613
▁hê	-12.6622
▁Alis	-12.6623
▁2-3	-12.6625
fus	-12.663
iki	-12.6634
mar	-12.6634
lick	-12.6649
▁Woo	-12.665
▁Fer	-12.6652
▁Vinc	-12.6653
▁Campuchia	-12.666
▁Guardian	-12.666
▁Illinois	-12.666
▁Massachusetts	-12.666
▁Neuman	-12.666
▁Pittsburgh	-12.666
▁Achill	-12.666
▁Galil	-12.666
▁jihad	-12.666
▁token	-12.666
▁Barbar	-12.666
▁Brother	-12.666
ffit	-12.666
▁Geoff	-12.666
▁Ottoman	-12.666
▁Tweet	-12.666
▁Show	-12.666
▁Kendal	-12.6661
▁1983	-12.6661
▁Nicole	-12.6661
▁Ohio	-12.6661
▁1918	-12.6661
▁1965	-12.6661
▁Hunter	-12.6661
▁Java	-12.6661
▁tợn	-12.6662
▁Ital	-12.6662
▁Thoả	-12.6663
▁2015	-12.6663
▁1920	-12.6663
▁ARN	-12.6663
▁Ơ	-12.6665
▁Pilot	-12.6665
▁Prize	-12.6665
ickr	-12.6666
▁Owen	-12.6667
▁House	-12.6669
▁Jerem	-12.6672
▁Shah	-12.6673
▁Mellon	-12.6677
ddie	-12.6684
70	-12.6695
▁4.000	-12.67
oxy	-12.6701
▁Clark	-12.6702
ridge	-12.6703
wow	-12.6708
▁Hỗ	-12.6709
wick	-12.6713
▁ep	-12.6715
▁401	-12.6716
sek	-12.6719
▁Ver	-12.6724
▁sá	-12.6726
▁Lis	-12.6729
▁Walter	-12.6732
▁30.000	-12.6733
▁Lake	-12.6737
▁Lạnh	-12.6737
▁Khơ	-12.6738
uddin	-12.6744
arin	-12.6748
89	-12.676
▁Valle	-12.6762
▁Zeta	-12.6764
▁Mũ	-12.6775
▁Camp	-12.6776
ru	-12.6793
ieu	-12.6793
ilton	-12.6798
▁FD	-12.6806
▁nhan	-12.6809
urek	-12.6812
▁vồng	-12.6816
▁Hamp	-12.6818
▁Basi	-12.682
ole	-12.6822
▁Harris	-12.6827
▁woo	-12.6841
amie	-12.6842
▁Wood	-12.6845
▁IP	-12.6847
▁Mik	-12.6849
▁trũng	-12.6865
▁Anna	-12.6891
▁Tam	-12.6894
xe	-12.6898
eh	-12.6902
▁vớt	-12.6904
▁dí	-12.6905
lic	-12.6928
enzi	-12.6931
▁Turin	-12.6941
▁Ele	-12.6947
wan	-12.6952
▁gỉ	-12.6956
mbor	-12.6965
▁Ber	-12.697
sama	-12.6979
kat	-12.6979
ov	-12.6981
▁Res	-12.6987
ather	-12.699
▁răn	-12.6996
bor	-12.6997
▁Son	-12.7005
▁Sh	-12.7011
▁Lá	-12.7016
▁Radio	-12.7018
ahl	-12.7019
▁Cla	-12.7028
▁Lar	-12.7032
▁for	-12.7046
tal	-12.7065
▁As	-12.7067
▁thớ	-12.7068
▁Pra	-12.7073
uồi	-12.7082
ão	-12.7082
▁eB	-12.7099
ller	-12.7099
▁Patric	-12.7104
rid	-12.7106
CA	-12.7109
roge	-12.7126
daf	-12.713
▁Emman	-12.7133
▁ten	-12.7138
▁bở	-12.714
27	-12.7164
▁750	-12.7168
oàn	-12.7175
hưng	-12.7176
ẹn	-12.7195
▁Rad	-12.7201
dale	-12.7223
ur	-12.7229
ick	-12.723
eed	-12.724
▁Grou	-12.7254
▁Bou	-12.7257
▁Lí	-12.7258
▁ngo	-12.7268
▁Mur	-12.7275
▁mili	-12.7277
▁Perr	-12.7279
▁Doll	-12.7296
ẵ	-12.7299
▁Del	-12.7311
ding	-12.7325
▁laze	-12.7331
▁mụ	-12.7332
ye	-12.7335
▁năn	-12.7342
HO	-12.7346
▁Limb	-12.7349
con	-12.735
ail	-12.7354
oro	-12.7356
42	-12.7363
-40	-12.7367
▁Kat	-12.7369
14	-12.737
ku	-12.7374
IM	-12.738
▁vẹ	-12.7381
75	-12.7405
elle	-12.743
ston	-12.7433
▁Rama	-12.7439
▁Bin	-12.7446
▁Gamb	-12.7451
oái	-12.7452
▁Dur	-12.7459
ớp	-12.7464
▁re	-12.7473
ance	-12.7488
und	-12.7489
cus	-12.7497
yl	-12.7512
unes	-12.7514
gme	-12.7522
titl	-12.7523
ồn	-12.7528
foot	-12.7536
Prince	-12.7536
▁trờ	-12.7539
tra	-12.7546
▁biê	-12.7548
▁Mor	-12.7554
▁Medi	-12.7555
ale	-12.7555
▁Hunt	-12.7563
⁄4	-12.7565
▁Robi	-12.7567
▁LA	-12.7567
ookie	-12.7567
▁365	-12.7569
▁poly	-12.7569
▁Madagas	-12.7569
(	-12.7569
Chryst	-12.7569
▁Afganistan	-12.7569
▁Duoling	-12.7569
▁Enceladus	-12.7569
▁Exxon	-12.7569
▁Glad	-12.7569
▁Jarret	-12.7569
▁Malawi	-12.7569
▁Mozambique	-12.7569
▁Roosevelt	-12.7569
▁Window	-12.7569
▁penicillin	-12.7569
▁complex	-12.7569
▁Kentuck	-12.7569
▁Senegal	-12.7569
▁Clevela	-12.7569
▁England	-12.7569
▁Morgan	-12.7569
▁Reddit	-12.757
▁kilô	-12.757
▁Head	-12.757
▁School	-12.757
insky	-12.757
▁1949	-12.757
Hz	-12.757
▁Fire	-12.757
▁Ukraine	-12.7571
▁Aspe	-12.7571
▁Church	-12.7572
▁Lega	-12.7572
▁Wiki	-12.7572
▁Hyder	-12.7572
▁0,0	-12.7573
▁Rita	-12.7573
▁té	-12.7574
▁Mall	-12.7579
rập	-12.7579
▁74	-12.7583
▁Adria	-12.7584
▁oxide	-12.7585
▁Shre	-12.7586
▁8000	-12.7587
raft	-12.7589
▁Philippine	-12.7589
▁Tuyết	-12.759
▁1.8	-12.759
▁Full	-12.759
▁Ola	-12.7592
▁1-2	-12.7596
▁12.000	-12.7598
dez	-12.7603
▁uý	-12.7604
▁nã	-12.7606
▁mix	-12.7607
ihad	-12.7609
▁Point	-12.7614
▁ngỏ	-12.7615
▁Electro	-12.762
RG	-12.7628
▁ừm	-12.7629
ony	-12.7637
▁nháp	-12.7641
sus	-12.7647
▁Hard	-12.7651
▁Hua	-12.7656
ôla	-12.7657
uten	-12.766
-1	-12.7663
unk	-12.7664
▁Mó	-12.7667
▁TG	-12.767
▁Nicola	-12.7671
iles	-12.7673
▁Christian	-12.7674
war	-12.7685
▁NI	-12.7685
▁ngượng	-12.7705
▁101	-12.7721
▁Berg	-12.7723
val	-12.7723
NICE	-12.7729
ouse	-12.7737
▁vượn	-12.7757
▁McCa	-12.7768
llage	-12.7786
▁0.1	-12.7821
row	-12.7835
▁0.5	-12.7863
Man	-12.7868
alad	-12.7871
▁Byr	-12.7881
rrow	-12.7884
▁Kath	-12.789
▁Pac	-12.7892
▁BR	-12.79
▁AI	-12.7903
▁Barto	-12.7913
ise	-12.7917
cz	-12.7925
eline	-12.7931
ón	-12.7946
ava	-12.795
▁Her	-12.7953
ound	-12.7955
ớn	-12.796
▁Wu	-12.7967
▁Gilli	-12.7985
▁Pla	-12.8001
36	-12.8001
gli	-12.801
▁vể	-12.8011
▁Goldi	-12.8025
ả	-12.803
umari	-12.804
ano	-12.8047
ite	-12.8052
roso	-12.8065
▁bổn	-12.8073
15	-12.8074
▁Vận	-12.8088
▁66	-12.8089
atan	-12.8092
▁Gran	-12.8096
▁PC	-12.8104
ủi	-12.8128
haz	-12.8133
tro	-12.8138
▁Hama	-12.8148
▁Gil	-12.8152
il	-12.8166
AM	-12.817
▁Luri	-12.8171
úa	-12.8176
▁j	-12.818
▁trăn	-12.8188
▁Frankl	-12.819
oad	-12.8194
HC	-12.8198
▁hợ	-12.8222
oh	-12.8224
cam	-12.8227
2,000	-12.8241
ould	-12.8256
avi	-12.8276
▁Post	-12.8279
▁Lind	-12.8279
mara	-12.8289
▁Rum	-12.829
▁Jacob	-12.8302
▁Ngự	-12.8338
---	-12.834
▁Laur	-12.8347
nan	-12.8353
sta	-12.8361
▁HC	-12.8368
elli	-12.8374
endo	-12.8382
aba	-12.8386
ẵn	-12.8407
tas	-12.8413
▁lún	-12.8422
▁đơ	-12.8425
▁Wid	-12.8426
▁Hud	-12.8431
inger	-12.8437
oma	-12.8437
▁fu	-12.844
antha	-12.8447
liu	-12.8462
▁Us	-12.8463
cent	-12.8471
bach	-12.8478
▁Hot	-12.8488
100	-12.8497
uza	-12.8499
rr	-12.85
▁UC	-12.8502
aas	-12.8503
▁dơ	-12.8505
ippi	-12.8517
ase	-12.8521
▁Davi	-12.8523
▁Perc	-12.8525
press	-12.8527
dad	-12.8528
▁Rub	-12.8532
bê	-12.8533
enix	-12.8537
▁Nor	-12.854
60	-12.8545
▁59	-12.8556
ushi	-12.8559
suit	-12.8562
ennis	-12.8567
geria	-12.8569
▁Sisyph	-12.8569
@	-12.8569
engineering	-12.8569
▁Android	-12.8569
▁Balkan	-12.8569
▁Chechnya	-12.8569
▁Feynman	-12.8569
▁Nikola	-12.8569
▁Zipcar	-12.8569
▁bloop	-12.8569
awesome	-12.8569
▁Cassini	-12.8569
▁Missouri	-12.8569
▁Isabel	-12.8569
▁Knight	-12.8569
shmi	-12.8569
▁Online	-12.8569
▁Budrus	-12.8569
▁Darfur	-12.857
▁Ferris	-12.857
▁Food	-12.857
▁Gifford	-12.857
▁CDC	-12.857
▁Splashy	-12.857
Lee	-12.857
▁Buffet	-12.857
▁webcam	-12.857
▁05	-12.8571
www	-12.8571
▁Beth	-12.8572
▁Vila	-12.8572
▁luyến	-12.8573
▁Newcast	-12.8573
▁Zach	-12.8573
▁Bagh	-12.8574
▁Sting	-12.8574
▁polymer	-12.8575
▁One	-12.8576
urger	-12.8577
▁Lago	-12.8577
▁Love	-12.8577
▁2014	-12.8578
▁3.5	-12.8579
▁China	-12.8579
▁Aria	-12.858
AL	-12.858
▁Good	-12.8582
▁đờ	-12.8582
▁2.3	-12.8583
Murdo	-12.8583
▁63	-12.8584
▁Denisovan	-12.8584
▁Rica	-12.8585
▁oan	-12.8585
lia	-12.8587
▁Wor	-12.8588
▁Casa	-12.8589
▁Cử	-12.8592
▁Missis	-12.8593
anor	-12.8593
ES	-12.8593
▁1200	-12.8595
▁mè	-12.8595
▁1.7	-12.8595
opin	-12.8596
▁DC	-12.8598
▁Bỉ	-12.8602
ạc	-12.8602
▁Phúc	-12.8606
▁Chip	-12.8607
ijan	-12.8608
▁Leh	-12.8609
▁are	-12.8613
▁12,000	-12.8614
▁Scien	-12.8614
▁Kant	-12.8615
▁We	-12.8615
▁Carib	-12.8615
chúng	-12.8617
▁Tan	-12.8619
aw	-12.862
▁Trinida	-12.862
▁Ol	-12.8624
▁Play	-12.8629
▁Jose	-12.8631
ins	-12.8633
▁Frederic	-12.8642
▁Pauli	-12.8646
▁Nino	-12.8656
▁centim	-12.8658
osta	-12.8661
▁BK	-12.8662
ôm	-12.867
▁NO	-12.8673
▁Lauren	-12.8677
oja	-12.8681
▁Shei	-12.8687
▁Ghi	-12.8691
ese	-12.8691
▁McKe	-12.8694
▁Cole	-12.8704
▁ke	-12.871
▁gù	-12.8711
▁lỏ	-12.8722
▁Brun	-12.8722
▁Isa	-12.8725
▁Seli	-12.8733
Phi	-12.8739
▁Beatle	-12.8742
.7	-12.8744
▁Wire	-12.8746
▁Bond	-12.8752
omon	-12.8753
▁Chung	-12.8754
▁Dia	-12.877
hỉ	-12.8781
▁Tuc	-12.8784
▁seri	-12.8785
▁hoc	-12.8789
azo	-12.8806
▁Kong	-12.8809
▁1.4	-12.8812
oc	-12.8817
hời	-12.8824
oney	-12.8827
▁83	-12.8829
TC	-12.883
bre	-12.8857
fe	-12.8863
▁At	-12.8872
người	-12.8876
prof	-12.8876
▁More	-12.889
▁Kob	-12.8891
tern	-12.89
▁ft	-12.8908
▁BM	-12.8912
▁rain	-12.8936
▁lì	-12.8946
▁Kara	-12.8947
▁193	-12.8952
▁Trận	-12.896
▁bla	-12.8971
TO	-12.8975
rat	-12.8988
▁On	-12.8997
ll	-12.9003
▁LH	-12.9007
▁Thả	-12.9013
nic	-12.9017
▁Saf	-12.9022
apa	-12.9024
▁650	-12.9031
oir	-12.9035
wl	-12.9037
PL	-12.9047
▁Fu	-12.9059
MA	-12.9066
▁sun	-12.9083
DT	-12.9083
qui	-12.9083
▁Bott	-12.9084
▁Mali	-12.909
roll	-12.9094
ius	-12.9098
▁Arab	-12.9104
mbia	-12.911
AO	-12.9112
ops	-12.9115
▁Arabi	-12.9115
mble	-12.915
▁Sina	-12.9162
▁62	-12.9166
▁Hal	-12.9167
▁sé	-12.9167
▁AC	-12.9171
ome	-12.9174
▁Sur	-12.9177
▁quệ	-12.9183
die	-12.919
▁Fabi	-12.9214
▁Bar	-12.9226
▁Vệ	-12.9227
ubu	-12.9228
▁Than	-12.9243
▁Lou	-12.9245
uit	-12.9252
92	-12.9261
▁McK	-12.9263
ito	-12.9271
▁Trac	-12.9274
iel	-12.9279
▁Gall	-12.9283
▁Mee	-12.9285
fu	-12.9287
▁lim	-12.9294
300	-12.9296
cer	-12.9323
▁ngỗ	-12.9337
stone	-12.934
▁Vel	-12.9345
blog	-12.935
nica	-12.9359
tor	-12.9374
wait	-12.9409
ớ	-12.9418
rs	-12.942
for	-12.9426
nett	-12.9438
oyd	-12.9452
▁Saul	-12.9456
▁Bro	-12.9472
▁Vá	-12.9477
zer	-12.9478
ừ	-12.9478
▁73	-12.9483
rego	-12.9486
▁Cloud	-12.9502
lab	-12.9506
64	-12.9529
▁serie	-12.953
▁rạn	-12.9538
lose	-12.9558
▁Pia	-12.9565
ial	-12.9567
gon	-12.9583
▁Andre	-12.9584
▁boo	-12.9587
08	-12.9604
▁prot	-12.9614
▁thé	-12.9616
unni	-12.9621
vada	-12.9627
▁America	-12.9639
kut	-12.9642
▁Sala	-12.9643
ino	-12.9644
SM	-12.965
pta	-12.9653
urk	-12.9654
ory	-12.9668
▁Economi	-12.9671
ừm	-12.9677
▁whisk	-12.9681
▁Count	-12.9681
_	-12.9681
▁Airstream	-12.9681
▁Bitcoin	-12.9681
▁Botswan	-12.9681
▁Eames	-12.9681
▁Elliot	-12.9681
▁Eskimo	-12.9681
▁Hoffman	-12.9681
▁MOOC	-12.9681
▁McGoni	-12.9681
▁Myhrvold	-12.9681
▁Randolph	-12.9681
▁Sleep	-12.9681
▁Turbo	-12.9681
▁August	-12.9681
▁Pants	-12.9681
▁Simpson	-12.9681
▁Maslow	-12.9681
▁Vivian	-12.9681
▁gluten	-12.9681
▁Ridge	-12.9681
▁Skid	-12.9681
▁Titanic	-12.9681
ive	-12.9681
▁Barbi	-12.9681
▁Suzan	-12.9681
▁MR	-12.9681
▁Viagra	-12.9681
▁XDR	-12.9681
▁1982	-12.9681
▁Rich	-12.9681
▁muội	-12.9681
▁WikiLeaks	-12.9681
▁Bowl	-12.9681
▁Sophia	-12.9681
oint	-12.9681
▁Whe	-12.9681
▁1976	-12.9681
igr	-12.9681
▁1953	-12.9681
aux	-12.9682
▁quark	-12.9682
ieber	-12.9682
lux	-12.9682
▁747	-12.9682
▁mafia	-12.9682
▁Garden	-12.9682
▁Tulle	-12.9683
▁Sally	-12.9683
▁Shack	-12.9683
▁Cruze	-12.9683
▁cù	-12.9683
Hub	-12.9683
▁Theodor	-12.9684
▁Gaga	-12.9684
▁Code	-12.9685
▁Abd	-12.9685
▁Coke	-12.9686
▁jean	-12.9687
▁Khali	-12.9687
bama	-12.9688
▁kilo	-12.9688
▁Toro	-12.9688
▁1,6	-12.9689
▁Hazle	-12.969
▁Insta	-12.969
▁Jen	-12.969
▁Project	-12.969
▁Ê	-12.9691
▁Allo	-12.9691
▁LM	-12.9692
▁Nghiệp	-12.9692
erba	-12.9693
▁Jordans	-12.9693
▁sỉ	-12.9694
▁Kerry	-12.9694
▁4,5	-12.9694
▁Koh	-12.9696
▁Ngữ	-12.9698
▁pounds	-12.9701
▁Stalin	-12.9702
▁Sandy	-12.9703
▁giỡ	-12.9704
▁cents	-12.9704
▁oli	-12.9704
33	-12.9704
loch	-12.9708
▁Matth	-12.971
▁80.000	-12.9713
arro	-12.9713
ISA	-12.9714
▁Húp	-12.9715
600	-12.9715
▁7.5	-12.9715
ft	-12.9716
▁Paol	-12.9721
▁Gor	-12.9729
▁Brent	-12.973
▁Hindu	-12.9736
▁Wag	-12.9739
▁200.000	-12.9739
gger	-12.974
▁XI	-12.9751
▁Dro	-12.9751
ert	-12.9753
▁Gram	-12.9754
ps	-12.9756
▁Sar	-12.9759
▁Jeann	-12.9761
bell	-12.9764
▁Burk	-12.9767
▁rup	-12.9767
▁Ngư	-12.9768
▁AD	-12.977
18	-12.9772
vald	-12.9774
▁xê	-12.9774
▁Krist	-12.9779
sis	-12.9785
▁Rup	-12.9786
▁Pr	-12.9794
cụ	-12.9806
50	-12.9807
▁Mulli	-12.981
▁geo	-12.9813
▁dật	-12.9819
▁die	-12.9826
etti	-12.9828
▁Fo	-12.9834
200	-12.9844
rming	-12.9855
ess	-12.9858
ER	-12.9859
ubble	-12.9861
ibb	-12.9864
ana	-12.9868
▁hắt	-12.987
40	-12.9877
▁nick	-12.9879
omo	-12.989
▁Die	-12.9899
▁thự	-12.9906
ander	-12.991
rew	-12.9911
ọt	-12.9911
▁xù	-12.9925
▁lổ	-12.9927
raniu	-12.9935
▁Shirk	-12.994
▁Penn	-12.9945
oanh	-12.9954
ugu	-12.996
erald	-12.9968
ryn	-12.999
onald	-13.0011
▁Hell	-13.0018
▁Inter	-13.0026
onica	-13.003
wal	-13.004
iv	-13.006
▁Kit	-13.0062
Fi	-13.0065
▁ngấy	-13.008
▁Para	-13.0081
▁Hur	-13.0088
▁Moo	-13.0107
imo	-13.012
▁uh	-13.012
▁Brita	-13.0128
▁gọ	-13.0129
974	-13.0131
oz	-13.0132
▁goi	-13.0133
oảng	-13.0138
▁Khad	-13.0147
ùn	-13.0172
▁Lệ	-13.0175
▁Hono	-13.0194
ija	-13.0232
▁sin	-13.0241
uba	-13.0242
▁Nơ	-13.0243
dema	-13.0271
lian	-13.0274
gô	-13.0294
code	-13.0297
idro	-13.0307
▁71	-13.032
▁Merc	-13.0332
▁Coh	-13.0336
▁Alai	-13.0344
▁Kan	-13.0349
▁PR	-13.0353
enny	-13.0382
▁gàn	-13.0383
▁Stein	-13.0397
▁Thom	-13.0398
▁es	-13.0408
ena	-13.042
dol	-13.0426
▁Cru	-13.0432
ool	-13.0448
▁trĩ	-13.0467
rong	-13.0477
▁Engel	-13.048
▁í	-13.0482
▁Hol	-13.0488
▁Ger	-13.0491
nia	-13.0495
chan	-13.0514
▁chường	-13.0517
rtis	-13.0521
▁Aba	-13.0527
▁Rhode	-13.0535
ierre	-13.0543
oul	-13.0547
▁tằm	-13.0553
▁Old	-13.056
▁Tầ	-13.0565
▁Walt	-13.0568
fell	-13.0575
▁Rocke	-13.0581
ồ	-13.0592
andel	-13.0605
ett	-13.0606
▁Ju	-13.0613
▁Dai	-13.0616
▁Bren	-13.0617
▁Ap	-13.062
arch	-13.0625
jo	-13.0632
▁le	-13.0653
▁Bart	-13.0677
▁SI	-13.0692
▁Sta	-13.0708
ickli	-13.0711
ama	-13.0723
PO	-13.0724
▁Sie	-13.0725
orn	-13.0731
▁toan	-13.0732
ja	-13.0738
▁bạ	-13.074
▁Swa	-13.0741
▁Diet	-13.0742
out	-13.0752
gic	-13.0754
isco	-13.0759
ữu	-13.0769
ague	-13.0787
kar	-13.0792
dro	-13.0798
of	-13.0801
26	-13.0806
RC	-13.0813
erol	-13.0822
afi	-13.0828
MP	-13.0831
▁hơ	-13.0833
▁170	-13.084
oan	-13.0843
amal	-13.0844
gas	-13.085
▁Sue	-13.0851
▁Vik	-13.0854
▁India	-13.0856
koko	-13.0857
▁Lak	-13.0861
▁Meg	-13.0865
▁Pen	-13.0866
▁acr	-13.0868
▁Wes	-13.0869
▁Dew	-13.0871
▁Kurdis	-13.0872
hip	-13.0875
AA	-13.0879
Sp	-13.0882
heim	-13.0884
▁BB	-13.0887
gall	-13.0889
inja	-13.0891
Chúng	-13.0898
TB	-13.0898
đó	-13.0901
lơ	-13.0902
▁Gri	-13.0902
FL	-13.0904
▁Ấ	-13.0905
Pes	-13.0906
▁Miến	-13.0906
không	-13.0912
lub	-13.0915
nna	-13.0915
▁Mala	-13.0917
▁Comp	-13.0918
▁Atlant	-13.092
ghèo	-13.0924
▁Buy	-13.0928
▁Motor	-13.0928
▁25000	-13.0929
view	-13.0929
,8	-13.0929
uriti	-13.093
▁Virgin	-13.093
terdam	-13.0931
Ì	-13.0931
Ộ	-13.0931
▁Bolivia	-13.0931
▁Budape	-13.0931
▁DIY	-13.0931
▁IPCC	-13.0931
▁KIPP	-13.0931
▁Kuznet	-13.0931
▁Thatcher	-13.0931
▁Wisconsin	-13.0931
▁Yellowstone	-13.0931
▁adrenalin	-13.0931
▁guitar	-13.0931
▁hect	-13.0931
▁terawatt	-13.0931
▁Ahmad	-13.0931
▁Gross	-13.0931
▁Sachs	-13.0931
▁Debora	-13.0931
inawa	-13.0931
rocco	-13.0931
▁Igbo	-13.0931
▁Mohamed	-13.0931
▁Journal	-13.0931
▁Hipp	-13.0931
▁MAS	-13.0931
▁Bernard	-13.0931
▁Kirk	-13.0931
▁Democra	-13.0931
▁Hatz	-13.0931
▁1981	-13.0931
▁Peace	-13.0931
▁kilomet	-13.0931
▁Derart	-13.0931
▁Marx	-13.0931
▁1977	-13.0931
▁Durga	-13.0931
▁Greenville	-13.0931
▁Griffi	-13.0931
▁Orwell	-13.0931
▁Earle	-13.0931
▁Umar	-13.0931
SS	-13.0931
▁Hỡi	-13.0931
▁Glenn	-13.0932
▁McL	-13.0932
▁Dhara	-13.0932
ượu	-13.0932
▁Bionicle	-13.0932
▁neutron	-13.0932
▁Gell	-13.0932
▁Silver	-13.0932
▁Life	-13.0932
▁Fear	-13.0932
Card	-13.0932
▁Jaw	-13.0933
▁Tijuana	-13.0933
▁Pug	-13.0933
▁Nixon	-13.0933
▁Snowden	-13.0933
▁Natal	-13.0933
▁nghén	-13.0933
▁Pur	-13.0934
rbus	-13.0934
▁Schul	-13.0934
▁NSA	-13.0935
▁Citi	-13.0936
▁socola	-13.0936
▁Duke	-13.0936
▁bass	-13.0936
▁IV	-13.0937
▁Smithson	-13.0937
▁Midwest	-13.0937
▁Porter	-13.0937
▁Pope	-13.0938
▁TNC	-13.0938
▁1978	-13.0938
▁sexy	-13.0938
cl	-13.0939
▁Ice	-13.0939
▁Titan	-13.0939
▁Nint	-13.094
▁Music	-13.0942
▁Bank	-13.0944
▁Cous	-13.0945
▁Wilkins	-13.0945
▁kang	-13.0947
▁Maz	-13.0947
wind	-13.0947
▁Bett	-13.0948
▁Albani	-13.0949
▁Khổ	-13.0949
▁Dep	-13.0949
▁mega	-13.0949
esha	-13.0949
▁Cash	-13.0951
ffen	-13.0952
▁Tech	-13.0953
▁Mecha	-13.0954
▁Joa	-13.0956
uhan	-13.0956
▁Rem	-13.0957
orse	-13.0957
▁Barry	-13.0962
▁1100	-13.0962
Zurich	-13.0962
dee	-13.0963
▁Edd	-13.0964
beta	-13.0965
▁Turk	-13.0966
▁Joan	-13.0968
▁Jac	-13.0969
▁guồng	-13.0969
▁quậy	-13.0971
▁Mino	-13.0973
▁Night	-13.0973
edia	-13.0974
olem	-13.0979
▁sán	-13.098
▁Veg	-13.0988
▁Rese	-13.0989
NES	-13.0989
3-4	-13.0993
incent	-13.0995
▁Khoá	-13.0995
▁Deb	-13.0995
thời	-13.0996
▁nit	-13.0996
▁nhỡ	-13.0998
▁tuốc	-13.0999
▁z	-13.1006
Atten	-13.1016
▁Beck	-13.1017
▁Dược	-13.1019
▁xỉn	-13.1021
▁Guy	-13.1024
lul	-13.1026
ehr	-13.1031
uốn	-13.1032
▁Ye	-13.1036
TT	-13.1036
▁TE	-13.1038
▁Watt	-13.1042
lest	-13.1043
▁Genev	-13.1043
98	-13.105
iệc	-13.1055
▁Kid	-13.1056
▁Cod	-13.1063
▁Antoni	-13.1067
▁TB	-13.1067
Philips	-13.1069
▁Ker	-13.1072
rg	-13.1072
trin	-13.1073
▁Hanse	-13.1079
kov	-13.1086
▁How	-13.1089
▁Game	-13.1089
▁Harri	-13.1092
▁nắn	-13.1093
▁Nova	-13.1093
lder	-13.1097
ello	-13.1098
▁Khẩ	-13.1112
annon	-13.1113
▁Den	-13.1114
▁Thor	-13.1118
▁gừng	-13.1133
▁lữ	-13.1137
▁búp	-13.1174
▁Bel	-13.1179
aspar	-13.118
MCA	-13.118
▁Mob	-13.1194
opren	-13.1199
ury	-13.1203
▁khuỷ	-13.1203
hiễm	-13.121
▁Alb	-13.1222
hhh	-13.1228
cut	-13.1232
etson	-13.1232
▁Bre	-13.1233
▁tìn	-13.1236
edi	-13.1243
cho	-13.1246
▁Dy	-13.1248
dan	-13.1258
▁Nell	-13.127
▁trổ	-13.1273
▁organ	-13.1274
ờng	-13.1276
chen	-13.1277
ethan	-13.1292
▁Gre	-13.1292
▁Yv	-13.1302
▁Yan	-13.1302
ell	-13.131
med	-13.1319
indle	-13.1344
▁Christoph	-13.1347
,4	-13.135
eck	-13.1354
▁186	-13.1356
▁Mobi	-13.1361
▁bio	-13.1372
▁Harv	-13.1377
ipe	-13.1378
▁cacbonat	-13.1398
ist	-13.14
▁Hart	-13.1405
ạnh	-13.1415
etz	-13.1434
▁Rau	-13.1435
▁Verme	-13.1452
ust	-13.1464
ovan	-13.1481
idan	-13.1482
Gregor	-13.1482
loud	-13.1489
▁Ava	-13.1494
gạc	-13.1494
▁Marcel	-13.1495
▁Low	-13.1497
oả	-13.1497
▁Mani	-13.1499
▁Ros	-13.1503
-20	-13.1524
▁Linu	-13.1535
▁Des	-13.1538
▁Iv	-13.1552
njo	-13.1563
weil	-13.1567
ets	-13.1583
▁Kamen	-13.1588
pic	-13.1591
gar	-13.1597
ọn	-13.1601
âng	-13.1601
▁lùn	-13.1602
▁EL	-13.161
iger	-13.1623
monia	-13.1637
▁vo	-13.1639
aro	-13.1658
▁River	-13.1663
Me	-13.1671
uyết	-13.1677
chu	-13.1677
▁88	-13.1688
▁Boe	-13.1691
▁rỏ	-13.1693
Scrip	-13.1693
▁EP	-13.1707
▁Marl	-13.1709
illi	-13.1712
▁Oliv	-13.1715
▁Carro	-13.1719
▁Por	-13.1728
▁lươn	-13.1749
arcelo	-13.175
amil	-13.1757
Chống	-13.1761
mor	-13.1764
ML	-13.1772
zar	-13.1782
84	-13.179
etc	-13.1795
▁Cro	-13.1797
▁Liz	-13.1823
pam	-13.1824
read	-13.1831
erro	-13.1832
▁Pas	-13.1846
▁2500	-13.1848
▁Ay	-13.185
ibu	-13.1861
▁Ses	-13.1871
.6	-13.1879
▁Nghi	-13.1881
▁Chev	-13.1893
aste	-13.1898
▁dioxi	-13.1903
owa	-13.1912
▁bẽ	-13.1918
▁GI	-13.1927
▁Khuyế	-13.1929
▁Wil	-13.1929
▁TEDxR	-13.1929
▁Sha	-13.1932
nton	-13.1934
ote	-13.1941
▁Christin	-13.1945
ré	-13.1954
▁tweets	-13.1955
plin	-13.1956
▁IN	-13.196
bot	-13.1967
chai	-13.1978
▁pi	-13.1979
▁Pha	-13.198
thai	-13.1983
tê	-13.1988
▁Ran	-13.199
TV	-13.2006
ital	-13.2011
▁Ely	-13.2012
▁Quê	-13.2017
form	-13.2029
▁nê	-13.2041
IC	-13.2053
▁vắn	-13.2057
5000	-13.2066
phi	-13.2069
run	-13.2085
▁Bat	-13.2088
▁Lạc	-13.2088
ơng	-13.2089
▁Bir	-13.2098
fford	-13.2101
ndy	-13.2102
ững	-13.2103
too	-13.2104
erin	-13.2111
▁Main	-13.2111
lithi	-13.2122
oza	-13.2128
rillo	-13.214
hore	-13.2148
nky	-13.2149
10	-13.2153
▁vầ	-13.2158
▁Ces	-13.2158
him	-13.217
OM	-13.2188
lanh	-13.2208
cker	-13.2214
he	-13.2215
xơ	-13.2218
▁et	-13.2222
▁Atala	-13.2233
▁190	-13.2236
orio	-13.2243
▁AT	-13.2248
67	-13.2249
rad	-13.2267
eine	-13.2273
39	-13.2276
▁son	-13.2278
▁Chand	-13.2282
▁gươ	-13.2283
EP	-13.2292
▁HI	-13.2298
▁Dun	-13.2298
▁Richards	-13.2299
ldes	-13.2304
▁DAR	-13.2306
49	-13.2307
▁Lun	-13.2316
eij	-13.2318
oè	-13.2321
virus	-13.2327
NH	-13.2328
carbon	-13.2328
▁Pyth	-13.2333
oran	-13.2336
▁vaccin	-13.2338
là	-13.2338
ix	-13.234
▁Jun	-13.2342
PA	-13.2345
bab	-13.2346
-10	-13.2346
▁Jur	-13.2347
▁Michoac	-13.2347
▁Scra	-13.2347
rque	-13.2348
▁Ath	-13.2353
hirl	-13.2357
▁Ukrain	-13.2357
▁Heid	-13.2358
thic	-13.2359
ability	-13.2359
▁Adventist	-13.2359
▁Coast	-13.2359
▁Rodrig	-13.2359
▁favela	-13.2359
▁soundscape	-13.2359
ntosh	-13.2359
▁Ecuado	-13.2359
▁Maasai	-13.2359
▁Malthus	-13.2359
▁Pimp	-13.2359
▁BRCK	-13.2359
▁Major	-13.2359
▁NRK	-13.2359
▁amyloid	-13.2359
Jazz	-13.2359
Miguel	-13.2359
▁Toxo	-13.2359
▁fMRI	-13.2359
▁Anato	-13.2359
▁Meadow	-13.2359
▁Puer	-13.2359
▁radar	-13.2359
▁Manju	-13.2359
▁Monster	-13.2359
▁Vishn	-13.2359
▁Beatri	-13.2359
▁Morris	-13.2359
▁PSA	-13.2359
▁hep	-13.2359
▁Daily	-13.2359
Houston	-13.2359
uflo	-13.2359
abasc	-13.236
▁Milan	-13.236
▁ESP	-13.236
enspa	-13.236
▁Damas	-13.236
▁Loren	-13.236
▁1910	-13.236
▁1926	-13.236
▁Grove	-13.236
▁Agar	-13.236
▁spec	-13.236
▁1963	-13.236
▁Johannes	-13.236
▁transistor	-13.236
bour	-13.2361
▁blue	-13.2361
▁Out	-13.2361
▁Parik	-13.2361
▁Hyper	-13.2361
▁cocaine	-13.2361
▁Moham	-13.2361
▁Hadr	-13.2361
▁Fish	-13.2361
erial	-13.2361
▁1,1	-13.2361
▁Astro	-13.2361
▁Cornel	-13.2362
▁Health	-13.2362
▁pH	-13.2362
▁Kool	-13.2362
ishman	-13.2362
▁Ghr	-13.2362
▁ROV	-13.2362
▁Galen	-13.2363
lis	-13.2363
▁Market	-13.2363
▁Prospera	-13.2363
▁Lord	-13.2364
▁Babb	-13.2364
▁Socrate	-13.2364
▁Ethe	-13.2364
▁Springs	-13.2364
▁ôxy	-13.2364
▁Giacom	-13.2364
▁Motors	-13.2365
▁6.5	-13.2365
▁Improv	-13.2365
▁Volta	-13.2366
▁Rid	-13.2367
▁JE	-13.2367
▁Franken	-13.2367
▁Hacker	-13.2369
▁9000	-13.237
▁Niels	-13.237
▁Page	-13.237
▁thán	-13.237
eric	-13.2371
▁FB	-13.2372
▁Lance	-13.2372
▁Benoi	-13.2372
sala	-13.2375
▁Holo	-13.2378
▁Mir	-13.2381
▁Sacr	-13.2382
▁Bris	-13.2383
▁Buck	-13.2383
▁Rosali	-13.2384
▁Shephela	-13.2384
▁20000	-13.2385
▁ghì	-13.2385
▁Laura	-13.2385
▁Berk	-13.2386
▁post	-13.2386
▁chớ	-13.2388
▁1300	-13.2389
▁kara	-13.239
▁Master	-13.2391
▁Nok	-13.2391
93	-13.2392
▁1600	-13.2392
▁Novo	-13.2392
có	-13.2394
▁sunf	-13.2394
▁Kerm	-13.2395
▁Sufi	-13.2396
mix	-13.2398
the	-13.2401
▁Stephan	-13.2404
▁Bess	-13.2405
▁Nina	-13.2406
▁out	-13.2406
▁LB	-13.2413
▁Colleg	-13.2419
sworth	-13.2419
▁Bul	-13.2421
roth	-13.2422
oko	-13.2422
▁Mèo	-13.2431
▁Bora	-13.2431
▁Denis	-13.2432
▁Zi	-13.2432
▁Hamburg	-13.2432
▁Pet	-13.2434
ald	-13.2435
vali	-13.2435
▁chọ	-13.2437
wak	-13.2438
upp	-13.2446
▁Bike	-13.2452
▁Dry	-13.2452
uff	-13.2454
▁Torre	-13.2455
▁Fey	-13.2457
nold	-13.2458
▁Min	-13.246
▁Jod	-13.2463
▁Karm	-13.2464
ulli	-13.2468
▁Webb	-13.2472
▁Ida	-13.2481
▁Móc	-13.2487
▁Raja	-13.2488
ckel	-13.249
▁Now	-13.2493
chim	-13.2496
rusha	-13.2504
▁61	-13.251
▁Marian	-13.251
▁hoo	-13.2517
▁Every	-13.2524
▁Gulf	-13.2536
fel	-13.2539
▁Apo	-13.2541
▁thớt	-13.2541
▁Sk	-13.2547
▁Flow	-13.2554
▁NH	-13.2557
▁Br	-13.2563
inas	-13.2565
▁Madi	-13.2569
▁Reg	-13.257
hol	-13.2577
erners	-13.2578
urma	-13.2584
▁liê	-13.2585
▁ed	-13.2585
uz	-13.259
▁Biệt	-13.2594
▁Răn	-13.2596
▁Lynn	-13.2596
▁Bus	-13.2597
▁Tal	-13.2601
lan	-13.2608
shoo	-13.261
ked	-13.2612
▁gua	-13.2614
ans	-13.262
▁calorie	-13.2621
▁Môn	-13.2635
moth	-13.2638
▁Mann	-13.2643
▁chùn	-13.2651
▁Vibr	-13.2654
list	-13.2661
▁Best	-13.2666
gai	-13.2672
MW	-13.2673
ttle	-13.2673
AP	-13.2674
▁Khô	-13.2677
lus	-13.2679
▁Band	-13.2681
▁Missi	-13.2681
▁Marsh	-13.2684
▁Pin	-13.2698
awto	-13.2698
ace	-13.2699
lông	-13.2701
abba	-13.2701
▁Abo	-13.2708
▁Lip	-13.271
nburg	-13.271
▁kền	-13.2712
thì	-13.2714
apo	-13.2716
66	-13.2716
▁Mass	-13.2719
▁Moi	-13.2736
▁thon	-13.2747
▁we	-13.2753
gaga	-13.2758
omer	-13.2772
▁Coi	-13.2774
llis	-13.2785
▁Luca	-13.279
umen	-13.279
▁All	-13.2794
37	-13.2798
80	-13.2805
▁mon	-13.2814
▁mode	-13.2814
▁phen	-13.2824
utu	-13.2833
19	-13.284
▁Tata	-13.2847
asma	-13.2862
▁Stu	-13.2872
lim	-13.2876
TA	-13.2876
▁nít	-13.2879
▁Pino	-13.2881
gs	-13.2881
17	-13.2893
▁aa	-13.2894
▁lú	-13.2894
ens	-13.2895
atra	-13.2903
▁Sô	-13.2909
▁Ango	-13.2915
rman	-13.2932
62	-13.2932
sche	-13.2935
ual	-13.2938
▁Er	-13.2945
Bat	-13.2945
▁Donn	-13.2951
▁Sadd	-13.2955
erony	-13.296
▁Mây	-13.2967
▁Oc	-13.297
▁Av	-13.298
▁bẹ	-13.2983
▁1.1	-13.2985
uyệt	-13.299
hal	-13.2999
rio	-13.3007
▁Wy	-13.3014
rect	-13.3015
rma	-13.3051
▁1400	-13.3056
▁Godi	-13.3058
hế	-13.3058
sin	-13.3064
▁Walk	-13.3064
▁Day	-13.3066
▁187	-13.3076
▁Bas	-13.3081
▁Phú	-13.3083
not	-13.3098
ofl	-13.3101
ord	-13.3111
▁Reut	-13.3114
mja	-13.3129
▁ju	-13.3132
eas	-13.3132
▁Bol	-13.3133
▁Gut	-13.3133
▁Levin	-13.3139
bl	-13.3139
opper	-13.3158
▁den	-13.3165
itor	-13.3165
▁Vul	-13.3175
sse	-13.3177
▁sê	-13.3182
▁PT	-13.3185
any	-13.3192
ks	-13.3204
hane	-13.3205
feld	-13.3209
anzi	-13.3218
cot	-13.3228
▁Côn	-13.3233
▁Mer	-13.3237
dah	-13.3242
▁Herb	-13.3248
nom	-13.3252
nsky	-13.3254
zan	-13.326
ack	-13.3264
2000	-13.3273
bee	-13.3286
tron	-13.3293
reen	-13.3295
ls	-13.3322
nus	-13.3342
tner	-13.3346
▁Blanc	-13.3359
olon	-13.3365
95	-13.3368
▁cuô	-13.3379
ylon	-13.3389
▁DB	-13.3415
ware	-13.3416
ớm	-13.3416
▁trọ	-13.3418
▁Flor	-13.3421
enji	-13.3423
CR	-13.3436
rill	-13.3437
▁Kell	-13.3452
iano	-13.3482
homa	-13.3503
▁Lesl	-13.3517
▁Interv	-13.3518
▁Maris	-13.3521
▁Dust	-13.3526
Your	-13.354
▁cac	-13.3548
lam	-13.3561
thar	-13.3565
▁7.	-13.357
Bot	-13.3577
don	-13.3585
▁Bee	-13.3591
ssig	-13.3602
▁ngán	-13.3602
▁Fr	-13.361
▁Dow	-13.3619
▁Mì	-13.3625
▁Ser	-13.363
use	-13.363
ilwa	-13.364
▁Pana	-13.365
koff	-13.3653
uare	-13.3662
ab	-13.3667
.8	-13.3671
▁Ral	-13.3671
▁Schwartz	-13.3675
bit	-13.3679
▁Top	-13.3702
▁Chap	-13.3704
ars	-13.3707
▁Dicke	-13.3719
▁WT	-13.3726
▁SM	-13.3727
ứ	-13.3735
bble	-13.3752
oẹ	-13.3755
▁calori	-13.3756
55	-13.3761
▁49	-13.3768
▁Fed	-13.3769
tain	-13.3775
dka	-13.3782
hớp	-13.3788
ủng	-13.3807
logy	-13.3831
abo	-13.3841
cốt	-13.3845
▁Mul	-13.3849
▁nhằn	-13.386
▁FE	-13.3861
caus	-13.3865
▁Kê	-13.3866
▁Cali	-13.387
uru	-13.389
▁Lau	-13.3893
del	-13.391
lu	-13.393
▁Taj	-13.3931
▁DR	-13.3932
alah	-13.3934
mat	-13.3935
enz	-13.3939
▁hú	-13.3945
izz	-13.3946
andon	-13.3949
▁Sto	-13.3949
▁Mello	-13.395
▁vồ	-13.3955
▁AB	-13.3958
▁Dall	-13.3962
ois	-13.3964
wling	-13.3965
path	-13.3972
Â	-13.3978
▁Cis	-13.3978
▁51	-13.398
▁lằn	-13.3988
Ex	-13.399
HD	-13.3995
▁Juli	-13.3998
rdo	-13.4001
pop	-13.4002
Day	-13.4005
▁Wol	-13.4007
biết	-13.401
0-50	-13.4013
▁DU	-13.4016
laug	-13.4018
eatbox	-13.4018
viết	-13.402
bard	-13.4021
▁Glas	-13.4021
ocrate	-13.4021
ough	-13.4022
▁Cruz	-13.4022
▁TEDxP	-13.4023
aib	-13.4023
ivers	-13.4024
borough	-13.4026
▁Pear	-13.4026
▁99.9	-13.4026
Bertrand	-13.4026
Pachycephalosaur	-13.4026
`	-13.4026
▁Autodesk	-13.4026
▁Avelile	-13.4026
▁Caucas	-13.4026
▁Dakota	-13.4026
▁Dunlap	-13.4026
▁Enrique	-13.4026
▁IGF	-13.4026
▁International	-13.4026
▁Lazarus	-13.4026
▁Polaroid	-13.4026
▁PostSecret	-13.4026
▁Record	-13.4026
▁SOLE	-13.4026
▁Sardinia	-13.4026
▁Sarkozy	-13.4026
▁bucardo	-13.4026
▁container	-13.4026
▁nucle	-13.4026
▁ozone	-13.4026
▁Participa	-13.4026
▁Ashdown	-13.4026
▁Creative	-13.4026
▁caffein	-13.4026
▁impact	-13.4026
head	-13.4026
▁Lamanite	-13.4026
▁Manchester	-13.4026
▁Wonder	-13.4026
istry	-13.4026
▁CSI	-13.4026
▁Pasht	-13.4026
▁Sheena	-13.4026
arayan	-13.4026
▁Atlas	-13.4026
▁Behar	-13.4026
▁Bogot	-13.4026
▁Fras	-13.4026
▁McCart	-13.4026
▁Swaptree	-13.4026
▁Shiv	-13.4026
▁Anima	-13.4026
▁Frances	-13.4026
▁Elias	-13.4026
▁Faso	-13.4026
▁Kaza	-13.4026
▁Kiran	-13.4026
ldred	-13.4026
▁Quixote	-13.4026
▁Monro	-13.4026
▁WorldWi	-13.4026
Spock	-13.4027
▁TiV	-13.4027
riend	-13.4027
▁1938	-13.4027
▁Telescope	-13.4027
▁Saint	-13.4027
▁Fitz	-13.4027
▁Tommy	-13.4027
▁1850	-13.4027
▁Bjor	-13.4027
MU	-13.4027
▁Fuller	-13.4028
▁Small	-13.4028
▁Prick	-13.4028
▁1929	-13.4028
▁Flemi	-13.4028
▁Square	-13.4028
5-6	-13.4028
nisi	-13.4028
▁Wool	-13.4029
▁Pomp	-13.4029
▁Rabin	-13.4029
▁Birds	-13.4029
▁TEDxS	-13.4029
▁466	-13.4029
▁carame	-13.403
ommons	-13.403
▁Champ	-13.403
▁NGO	-13.403
▁Fernand	-13.4031
▁Lux	-13.4031
outh	-13.4031
▁Volvo	-13.4031
▁Sheikh	-13.4032
Pallot	-13.4032
▁poke	-13.4032
gate	-13.4032
▁def	-13.4032
▁Somali	-13.4033
annes	-13.4033
▁FM	-13.4034
▁Word	-13.4034
▁Nhện	-13.4035
▁giớ	-13.4035
▁Glass	-13.4035
face	-13.4036
osni	-13.4036
▁thali	-13.4037
▁Chek	-13.4037
anti	-13.4038
▁Axi	-13.4038
▁Mug	-13.4039
vante	-13.404
Women	-13.404
▁Reich	-13.404
▁Mason	-13.404
▁Mick	-13.4042
▁hemo	-13.4042
nik	-13.4044
izza	-13.4044
lie	-13.4045
▁Feder	-13.4046
▁Mahab	-13.4048
ddam	-13.4048
▁Ricard	-13.4048
▁Fren	-13.4049
▁Hers	-13.405
olic	-13.405
▁Born	-13.4051
▁BAS	-13.4051
▁Budd	-13.4053
▁Scal	-13.4056
Mann	-13.4056
▁Shaf	-13.4057
upl	-13.4059
▁MC	-13.406
▁boom	-13.4061
▁50000	-13.4062
▁Neanderthals	-13.4062
▁Flip	-13.4062
▁Hep	-13.4063
▁Robins	-13.4063
▁Jr	-13.4064
▁Match	-13.4064
▁Nash	-13.4066
if	-13.4066
Sh	-13.407
▁Eman	-13.407
▁bridge	-13.4076
▁Dụ	-13.4076
▁Barne	-13.4077
▁Mas	-13.4077
▁Hè	-13.4079
▁Assa	-13.408
apar	-13.4081
▁Town	-13.4082
iving	-13.4084
unker	-13.4086
▁Hemi	-13.409
ooth	-13.4094
▁Kis	-13.4095
▁Borg	-13.4095
recht	-13.4096
▁Cran	-13.4097
sto	-13.4097
▁cùn	-13.4099
▁Sz	-13.4102
psy	-13.4105
▁Adi	-13.4105
▁Prin	-13.4108
▁LG	-13.411
▁Type	-13.4111
▁TQ	-13.4111
name	-13.4113
▁Shin	-13.4115
▁Toda	-13.4115
▁Monk	-13.4123
▁Fran	-13.4129
▁Nou	-13.4129
vik	-13.4132
.4	-13.4134
▁hẵn	-13.4136
▁Shu	-13.4137
▁like	-13.4145
ycop	-13.4148
▁Dut	-13.4152
▁Jenning	-13.4155
esta	-13.4157
fee	-13.416
▁as	-13.416
▁Kemp	-13.4169
▁Spit	-13.4173
▁Già	-13.4173
▁Hyp	-13.4174
abe	-13.4174
▁192	-13.4177
▁Camill	-13.4185
stafa	-13.4186
oss	-13.4193
▁CT	-13.4196
▁Tw	-13.4197
xa	-13.4208
▁Eva	-13.4211
TM	-13.422
ổng	-13.4222
.2	-13.4223
nesia	-13.4225
▁Global	-13.4228
▁Sty	-13.4234
▁sâm	-13.4238
▁Coll	-13.4239
uid	-13.4243
OR	-13.4247
▁chỏ	-13.4249
chel	-13.425
▁Matty	-13.425
tium	-13.4251
▁Ventur	-13.4254
▁Sing	-13.4262
▁bện	-13.4265
▁Giêng	-13.4266
▁Quạ	-13.427
heid	-13.4273
cav	-13.4275
72	-13.4278
▁Basqu	-13.4279
iser	-13.4282
▁Bass	-13.4285
tum	-13.4289
tec	-13.4291
▁Rush	-13.4298
▁Rap	-13.4299
▁dẻ	-13.4304
▁Lem	-13.4304
▁Cron	-13.4312
▁Kai	-13.4325
▁Aru	-13.4327
▁Roth	-13.4329
▁càn	-13.434
▁Bluet	-13.4341
eros	-13.4353
▁Gun	-13.4361
▁rốn	-13.4369
▁Olso	-13.437
▁q	-13.4374
▁Oxi	-13.4377
ood	-13.4387
▁Carrie	-13.439
▁Chla	-13.4393
▁les	-13.4394
▁ami	-13.4396
▁Hari	-13.4405
▁Have	-13.441
▁Barricel	-13.4413
▁sắn	-13.4438
▁phăng	-13.4447
▁hoocm	-13.4448
▁Angelin	-13.4454
▁Lev	-13.4459
▁Zapp	-13.4472
assa	-13.4478
▁Arch	-13.448
bea	-13.4488
65	-13.4489
▁Samb	-13.4493
mô	-13.4497
▁gor	-13.4505
▁Pan	-13.451
▁Capit	-13.4512
▁xước	-13.4528
RD	-13.4533
▁nuô	-13.4537
▁Bea	-13.454
▁Madel	-13.4541
▁Jacobs	-13.4545
NC	-13.4561
▁Roche	-13.4561
▁ED	-13.4562
ET	-13.4564
ark	-13.4576
▁Sear	-13.4582
▁Maci	-13.4583
38	-13.4583
itchi	-13.4595
US	-13.4613
880	-13.4618
▁Mach	-13.4622
▁Acti	-13.464
▁liệ	-13.4643
ahn	-13.4645
light	-13.465
▁Wad	-13.4652
hov	-13.4661
▁Vir	-13.4662
ssa	-13.4663
▁Lars	-13.4668
rug	-13.467
▁ren	-13.468
ines	-13.4691
▁Jung	-13.4722
▁bư	-13.4734
▁Huh	-13.4752
iz	-13.4753
▁Clar	-13.4777
▁el	-13.4777
ss	-13.478
▁Mus	-13.4791
loa	-13.4797
▁Mat	-13.4805
▁Ande	-13.481
▁Cave	-13.4813
bian	-13.4813
▁Tia	-13.4824
ule	-13.4827
▁Nap	-13.4842
▁Boyd	-13.4845
▁220	-13.4849
augh	-13.4856
▁tà	-13.4865
urz	-13.4875
alan	-13.4885
▁Shel	-13.4887
▁Act	-13.4914
▁Bac	-13.4917
31	-13.4918
pot	-13.4921
▁com	-13.4932
andra	-13.4938
▁Parag	-13.4958
yum	-13.496
▁Calv	-13.4961
entin	-13.4977
▁dum	-13.5018
PJ	-13.5023
▁Kam	-13.505
egel	-13.5065
▁Shell	-13.5073
▁Sak	-13.5088
ock	-13.509
bine	-13.5103
▁be	-13.5107
ador	-13.5116
▁Eps	-13.5116
▁DD	-13.5129
ovic	-13.5148
▁ngoằn	-13.5154
ora	-13.5158
ides	-13.5176
▁Ll	-13.5176
▁Janet	-13.5186
laugh	-13.5196
▁Lê	-13.5204
▁Mun	-13.5208
▁Cher	-13.5212
ju	-13.5218
eader	-13.5232
onim	-13.5249
▁Gang	-13.5253
odd	-13.5256
ef	-13.5265
ocen	-13.5265
▁cún	-13.5266
▁Hab	-13.5268
▁Camer	-13.5273
2.000	-13.528
nut	-13.5296
▁Hut	-13.5299
▁Moh	-13.5299
oard	-13.53
ustin	-13.5307
▁Tora	-13.5309
Hurt	-13.5315
▁xố	-13.5317
log	-13.5325
urf	-13.5326
sper	-13.5327
▁Tứ	-13.5334
hích	-13.534
uret	-13.5364
▁vè	-13.5365
reme	-13.5377
▁Genera	-13.538
osa	-13.5394
▁NA	-13.5401
▁Benn	-13.5404
ogo	-13.5412
ril	-13.5415
ittle	-13.5426
ndberg	-13.5427
agra	-13.5436
nó	-13.5441
ings	-13.5447
indl	-13.5451
▁dề	-13.5461
PP	-13.5465
▁Alli	-13.5466
eter	-13.5475
han	-13.5484
▁Phô	-13.5486
▁Cath	-13.5486
▁Save	-13.5488
▁Sand	-13.5496
glia	-13.5497
eal	-13.5511
▁Laf	-13.5518
ầ	-13.5525
▁Forer	-13.553
▁per	-13.553
▁Are	-13.5544
ons	-13.5549
▁Ad	-13.5572
▁Ul	-13.5581
▁Trụ	-13.5586
star	-13.56
ulk	-13.5602
ctic	-13.5612
ates	-13.5615
▁Burt	-13.5615
nơ	-13.563
table	-13.5632
Edwards	-13.5636
▁nhụ	-13.5643
pper	-13.5654
▁Emp	-13.5666
cas	-13.5673
▁Ras	-13.5682
dal	-13.5701
inson	-13.5725
▁Par	-13.574
EC	-13.5748
itz	-13.5749
ella	-13.5751
▁Aur	-13.5758
box	-13.5761
▁Edit	-13.5762
▁Seng	-13.5763
50000	-13.5774
▁Fin	-13.5778
▁cạc	-13.5781
abin	-13.5783
ethyl	-13.5788
other	-13.5795
gle	-13.5802
▁Goo	-13.5803
ussel	-13.5808
▁Not	-13.5816
▁Hydr	-13.5819
▁Jani	-13.5819
▁Tomb	-13.582
íc	-13.5826
▁Kimb	-13.5831
▁chấu	-13.5834
▁Tod	-13.5834
▁IT	-13.5844
ozi	-13.5847
dic	-13.585
▁Rô	-13.5853
▁xú	-13.5854
▁Gee	-13.5855
▁ac	-13.5857
▁SP	-13.5867
▁Russ	-13.5875
3.7	-13.5879
▁175	-13.588
anan	-13.589
rain	-13.5895
qua	-13.5895
▁Cre	-13.5922
aroo	-13.5923
▁Bear	-13.5926
▁240	-13.5928
▁Ric	-13.5931
▁Ố	-13.5933
▁CB	-13.5952
▁Ball	-13.5958
▁Boo	-13.5964
pur	-13.5972
rove	-13.5973
das	-13.5979
▁Scot	-13.5983
jai	-13.5984
▁Krishna	-13.5987
Space	-13.5988
aster	-13.5989
oyce	-13.5991
20.000	-13.5992
BO	-13.5992
2011	-13.5993
đun	-13.5993
2010	-13.5993
amela	-13.6001
abi	-13.6012
▁App	-13.6013
▁2,3	-13.6015
bows	-13.6016
luegrass	-13.6016
graph	-13.6018
▁Leonard	-13.6018
▁Ú	-13.6021
esign	-13.6022
▁Roll	-13.6022
▁cocain	-13.6024
glob	-13.6024
▁Ghe	-13.6024
▁silic	-13.6025
▁FOX	-13.6026
hthalate	-13.6026
▁sulfur	-13.6026
xytocin	-13.6026
▁Pretor	-13.6026
▁Uzbek	-13.6026
▁free	-13.6026
\	-13.6026
channelrhodopsin	-13.6026
embran	-13.6026
orldchanging	-13.6026
ü	-13.6026
▁Benedict	-13.6026
▁Cedars	-13.6026
▁Discover	-13.6026
▁Garret	-13.6026
▁Goliath	-13.6026
▁Kymaerica	-13.6026
▁LGBT	-13.6026
▁Lindbergh	-13.6026
▁Lovegrove	-13.6026
▁Lặn	-13.6026
▁Negroponte	-13.6026
▁Pandora	-13.6026
▁Paralympic	-13.6026
▁Partners	-13.6026
▁Scrubs	-13.6026
▁Snoop	-13.6026
▁UNAIDS	-13.6026
▁Vasco	-13.6026
▁Yosemite	-13.6026
▁Zuckerbe	-13.6026
▁analog	-13.6026
▁headphone	-13.6026
▁hotdog	-13.6026
▁măt	-13.6026
▁Armenia	-13.6026
▁Belshaz	-13.6026
▁Financ	-13.6026
▁Ibra	-13.6026
▁Mormon	-13.6026
▁Ommm	-13.6026
▁Taniyama	-13.6026
▁jump	-13.6026
▁vacxin	-13.6026
▁nicotin	-13.6026
IUC	-13.6026
parna	-13.6026
▁play	-13.6026
▁McDo	-13.6026
▁parabol	-13.6026
▁Rift	-13.6026
▁lbs	-13.6026
▁xenlulo	-13.6026
cester	-13.6026
▁Mountain	-13.6026
▁kilowatt	-13.6026
▁zip	-13.6026
asteur	-13.6026
bucha	-13.6026
▁reCAPTCH	-13.6026
▁Mercedes	-13.6026
▁oxal	-13.6026
▁1904	-13.6026
▁Magell	-13.6026
▁PBS	-13.6026
▁Yugoslavia	-13.6026
▁Worth	-13.6026
▁Control	-13.6026
▁Hebrew	-13.6026
▁PRI	-13.6026
▁Petra	-13.6026
▁biophon	-13.6026
Rập	-13.6026
▁Milk	-13.6026
▁Bismar	-13.6027
lawa	-13.6027
▁Next	-13.6027
▁USC	-13.6027
▁Pisa	-13.6027
▁Petri	-13.6027
akka	-13.6027
▁Joyce	-13.6027
▁plas	-13.6027
▁Image	-13.6027
▁Aqua	-13.6027
▁with	-13.6027
▁KPI	-13.6027
ienna	-13.6027
▁1919	-13.6027
▁Dal	-13.6027
▁Castle	-13.6027
hrive	-13.6027
awat	-13.6027
fast	-13.6027
▁Babble	-13.6027
acebook	-13.6028
▁Satur	-13.6028
▁1956	-13.6028
▁1,2,3	-13.6028
▁1,0	-13.6028
▁Summer	-13.6028
sprin	-13.6028
▁Lear	-13.6028
ycin	-13.6028
▁Banjo	-13.6028
▁Off	-13.6029
▁Zimba	-13.6029
▁Benefiel	-13.6029
MPA	-13.6029
▁megawatt	-13.6029
plex	-13.6029
anca	-13.603
▁Eisen	-13.603
▁Kamkwam	-13.603
▁homeo	-13.603
▁Karolin	-13.603
▁Ines	-13.603
▁Aldo	-13.603
▁Christie	-13.603
▁Natural	-13.603
▁Audio	-13.6031
hor	-13.6031
▁Keyn	-13.6031
▁Rolls	-13.6031
▁Dennet	-13.6031
điều	-13.6032
▁Rookie	-13.6032
▁Agu	-13.6032
jec	-13.6032
▁Herman	-13.6032
▁high	-13.6032
▁Frans	-13.6032
pont	-13.6032
▁Frid	-13.6033
▁gelat	-13.6033
▁Real	-13.6033
▁Oba	-13.6033
▁Mead	-13.6033
▁Mahal	-13.6034
▁3.3	-13.6034
fur	-13.6035
illus	-13.6035
▁Mons	-13.6035
oxide	-13.6035
▁Imp	-13.6036
▁Shap	-13.6036
▁Mujahi	-13.6036
▁Tuts	-13.6037
▁3⁄4	-13.6037
▁Dooli	-13.6037
oãn	-13.6037
▁Law	-13.6038
▁Halle	-13.6038
▁Pepper	-13.6038
▁Girl	-13.6038
▁GBM	-13.6038
▁Take	-13.6039
▁rip	-13.6039
rigami	-13.6039
▁Sư	-13.604
▁Tree	-13.604
▁Ramon	-13.6042
akis	-13.6042
▁156	-13.6042
trich	-13.6044
▁Mmmm	-13.6044
▁Tiger	-13.6044
▁Lé	-13.6045
rump	-13.6045
▁Pack	-13.6046
đa	-13.6046
▁Tahit	-13.6047
▁Wolpe	-13.6047
▁Lion	-13.6049
▁Queens	-13.6049
▁yard	-13.6049
▁Two	-13.6049
▁Sán	-13.605
▁byte	-13.605
▁2.7	-13.6051
▁Blake	-13.6051
▁Pad	-13.6053
▁Johann	-13.6053
▁Voi	-13.6053
▁Smart	-13.6054
▁Ganesh	-13.6054
▁check	-13.6055
▁Rahm	-13.6055
▁Mash	-13.6056
▁Whites	-13.6056
▁who	-13.6056
▁Quác	-13.6056
▁Maa	-13.6057
had	-13.6057
aled	-13.6058
.3	-13.6058
▁Karti	-13.6059
▁Mys	-13.6062
▁zo	-13.6062
▁Finn	-13.6064
▁Prat	-13.6064
▁Leib	-13.6064
▁105	-13.6065
Mart	-13.6069
▁Rain	-13.6069
Buil	-13.607
▁330	-13.607
ilda	-13.6071
lvani	-13.6073
dou	-13.6074
▁Wis	-13.6074
▁Gallo	-13.6074
▁Aber	-13.6075
▁solo	-13.6075
ening	-13.6076
▁Shad	-13.6076
▁Lead	-13.6076
ANC	-13.6078
zie	-13.6084
oming	-13.6084
▁cuồn	-13.6085
▁Ern	-13.6085
▁Treat	-13.6087
mens	-13.6088
▁Stac	-13.6088
24	-13.6089
▁Carta	-13.609
bô	-13.609
▁ID	-13.6091
voir	-13.6093
▁all	-13.6093
cro	-13.6093
▁Booth	-13.6094
▁Pres	-13.6095
erver	-13.6096
▁See	-13.6096
irke	-13.6096
▁liề	-13.6098
▁Golden	-13.6098
▁Heal	-13.6105
▁data	-13.6106
▁Sứ	-13.611
▁Marv	-13.6111
▁Maurit	-13.6114
▁RT	-13.6115
dja	-13.6115
Change	-13.6116
▁mửa	-13.6118
▁Silv	-13.612
burn	-13.612
▁Cac	-13.6121
▁Abb	-13.6123
▁Nadi	-13.6124
▁Jonh	-13.6125
▁héc	-13.6125
Raymond	-13.6126
span	-13.6128
evar	-13.613
tta	-13.613
OPA	-13.6133
▁TM	-13.6134
▁Mega	-13.6143
▁Jak	-13.6144
▁Ferra	-13.6144
Be	-13.6146
kara	-13.6149
▁Carme	-13.6149
uyn	-13.6153
kal	-13.6154
sing	-13.6155
▁oát	-13.6156
apal	-13.6157
kin	-13.6158
▁Alam	-13.6158
irut	-13.6168
▁NY	-13.6168
pus	-13.617
▁Bod	-13.6175
▁List	-13.618
▁hổn	-13.6182
▁đư	-13.6185
▁Gw	-13.6186
▁TW	-13.6189
▁Sharo	-13.6193
▁read	-13.6202
▁des	-13.6207
▁Kno	-13.6209
enes	-13.6218
họ	-13.622
▁Bù	-13.6223
▁Ferre	-13.6226
▁Sid	-13.6227
▁trớn	-13.6231
esty	-13.6232
▁chư	-13.6232
▁Jehan	-13.6236
▁Bề	-13.6241
▁Serbi	-13.6242
▁PCC	-13.6248
awi	-13.6253
▁Canale	-13.6254
aka	-13.6256
cken	-13.6257
uts	-13.6258
CH	-13.6258
ees	-13.6259
▁Willi	-13.6267
▁09	-13.6269
▁Germa	-13.6277
oft	-13.6277
auf	-13.6278
▁Bran	-13.6281
yad	-13.6284
▁Atti	-13.6284
▁kung	-13.6285
endor	-13.6285
▁Stud	-13.6288
▁Gam	-13.6292
▁Iwa	-13.6293
▁Ind	-13.6295
aler	-13.6297
iness	-13.6307
ult	-13.631
▁Pach	-13.631
▁Ayl	-13.6319
▁Robb	-13.632
▁Je	-13.6328
arta	-13.6334
▁xạc	-13.6338
▁Bert	-13.6338
▁Rus	-13.6342
▁Baz	-13.6343
824	-13.635
opia	-13.6351
▁min	-13.636
iall	-13.636
dela	-13.6363
In	-13.6363
uve	-13.6369
outer	-13.6391
▁Grave	-13.6392
trong	-13.6395
uez	-13.6396
83	-13.6398
Ward	-13.6399
ilson	-13.6423
▁tĩ	-13.6424
▁mé	-13.6424
▁Sơ	-13.6428
▁Cab	-13.6436
▁MA	-13.6444
eaver	-13.6446
DI	-13.6458
▁cla	-13.646
76	-13.6465
▁gòn	-13.6471
olta	-13.6472
▁Herz	-13.6485
ada	-13.6493
onen	-13.6496
▁Sit	-13.6511
06	-13.6529
▁Kw	-13.6533
▁Ác	-13.6536
tinh	-13.6538
▁Thum	-13.6542
▁Ab	-13.6561
TD	-13.6567
non	-13.6572
▁Tere	-13.6573
▁Sum	-13.6577
650	-13.6588
itis	-13.6597
▁103	-13.6599
ball	-13.6602
ator	-13.6602
46	-13.6605
abha	-13.6606
▁Googler	-13.6611
rsk	-13.6614
opi	-13.6615
hwaite	-13.6618
▁USA	-13.6622
▁Turn	-13.6626
fl	-13.6633
ombo	-13.6644
▁Reme	-13.665
roy	-13.6653
urie	-13.6654
▁Camero	-13.6658
▁Haz	-13.6667
yss	-13.6681
▁Ana	-13.6682
tir	-13.6693
▁Stewar	-13.6704
acha	-13.6706
▁Larg	-13.6707
▁Les	-13.6718
▁Rhodes	-13.672
▁Mae	-13.6721
elin	-13.6724
oca	-13.6725
▁Hale	-13.6725
oke	-13.6734
▁Wing	-13.6737
▁Fat	-13.6737
ferr	-13.6738
ank	-13.674
▁Mid	-13.6746
uis	-13.6748
▁Lam	-13.6749
▁lữa	-13.6769
0.6	-13.6774
vie	-13.6786
▁Bia	-13.6788
▁Dung	-13.6788
ema	-13.6797
▁Rang	-13.6819
▁Mise	-13.682
ocken	-13.6821
▁McCu	-13.6824
anto	-13.6829
53	-13.6831
hr	-13.6838
mel	-13.6845
▁Down	-13.6847
▁Read	-13.6852
▁Carolin	-13.6857
▁Lyn	-13.6858
wing	-13.6858
icks	-13.687
ofi	-13.6879
iya	-13.6881
EF	-13.6884
▁Ferr	-13.6885
zu	-13.6901
▁Joy	-13.6932
▁trôn	-13.6938
▁miến	-13.6942
▁Mile	-13.6948
▁Haa	-13.6949
▁Hạn	-13.6958
▁Naz	-13.6962
▁Zul	-13.6965
▁Famil	-13.6972
▁Kings	-13.6973
els	-13.6974
▁đụn	-13.6996
▁Seni	-13.6999
800	-13.7007
ahua	-13.7016
SE	-13.7016
▁Arg	-13.7065
▁PET	-13.7078
▁Merri	-13.7083
etro	-13.7085
ean	-13.7089
▁Say	-13.7092
▁Mata	-13.7097
zoi	-13.7101
atha	-13.7111
▁5.	-13.7116
Bund	-13.712
PC	-13.7123
aji	-13.7126
▁Truy	-13.713
35	-13.7134
tica	-13.7144
aja	-13.7146
▁gigab	-13.7147
▁Met	-13.7156
ology	-13.7177
gue	-13.7191
eja	-13.7203
▁mar	-13.7207
,6	-13.7212
erz	-13.7218
pson	-13.722
▁Um	-13.7222
▁Cư	-13.7227
▁lác	-13.7229
▁Gero	-13.7241
▁Dela	-13.7251
,9	-13.7252
▁Carr	-13.7254
OC	-13.7268
sch	-13.7288
▁TEDxT	-13.7289
▁Rosi	-13.7293
ude	-13.7302
uw	-13.7307
▁Start	-13.7312
ove	-13.7318
rani	-13.7319
uca	-13.7338
gón	-13.7339
22	-13.7346
ndro	-13.7352
DG	-13.7354
AW	-13.7355
▁Twi	-13.7359
VC	-13.736
abyte	-13.7363
▁Muni	-13.7367
tus	-13.737
doc	-13.7372
▁Scha	-13.7392
dish	-13.7395
ladi	-13.74
-5	-13.7402
▁Joll	-13.7423
▁Yuc	-13.7432
▁Tele	-13.7442
▁Prag	-13.7444
▁Blai	-13.7446
tophan	-13.747
itos	-13.7481
inker	-13.7488
icon	-13.7489
▁Nie	-13.7499
▁chạ	-13.751
▁Swe	-13.7512
▁Kaa	-13.7514
97	-13.7516
iệng	-13.7519
▁Tz	-13.7524
iology	-13.7544
kon	-13.7555
ö	-13.7564
▁Lama	-13.7565
arrow	-13.7568
▁khiê	-13.7575
▁Maed	-13.7586
▁was	-13.7598
ọ	-13.7616
rger	-13.7639
Napol	-13.764
▁Franc	-13.7646
▁Sieg	-13.7659
▁Magi	-13.767
llo	-13.7674
illett	-13.7675
▁Gal	-13.7688
▁Mil	-13.7692
cini	-13.7702
▁Sen	-13.7722
▁Marle	-13.7724
back	-13.7728
ters	-13.7731
live	-13.7737
▁Rubi	-13.7738
▁Tần	-13.775
oso	-13.7752
▁Madr	-13.7758
▁iO	-13.7768
▁Kick	-13.7772
▁Nation	-13.7781
▁Edu	-13.7789
▁Shr	-13.7808
hero	-13.7812
var	-13.7813
21	-13.782
avat	-13.7827
ncel	-13.7834
uska	-13.7848
core	-13.7856
LM	-13.7857
IS	-13.786
▁Burg	-13.7873
▁Huy	-13.7879
ernet	-13.7882
shir	-13.7886
▁Templ	-13.7891
▁Ami	-13.7897
▁Hand	-13.7904
▁Madd	-13.7912
▁Aid	-13.7917
▁hooc	-13.792
ids	-13.7931
▁Miche	-13.7933
kle	-13.7934
vaz	-13.7939
▁Arr	-13.7944
▁tè	-13.7944
twe	-13.7946
Tạ	-13.7952
▁Jans	-13.7968
alf	-13.7973
▁Ak	-13.7977
ario	-13.7989
▁Kac	-13.7994
▁Spa	-13.7998
rina	-13.7999
400	-13.8007
whe	-13.801
wart	-13.804
▁loan	-13.8045
▁Geo	-13.8052
▁gạ	-13.8075
AID	-13.8097
anic	-13.811
▁Miss	-13.811
rut	-13.812
▁pal	-13.812
cal	-13.8147
▁Saga	-13.8155
▁Nye	-13.816
▁Dav	-13.8171
▁Tana	-13.8174
end	-13.8181
▁hipp	-13.8191
▁230	-13.8191
TH	-13.8195
▁Dig	-13.8196
▁Stra	-13.8201
iga	-13.8202
▁Bara	-13.8207
▁Vân	-13.8232
ior	-13.8238
gles	-13.824
anja	-13.8248
▁440	-13.825
▁Anton	-13.8257
▁cass	-13.8265
▁Lưỡ	-13.8266
ophon	-13.8266
itch	-13.8272
ient	-13.8273
▁Sig	-13.8277
brid	-13.8283
adda	-13.8284
tive	-13.8284
▁Cant	-13.8285
▁Bạc	-13.8299
băng	-13.8303
ilon	-13.8303
▁Eb	-13.8305
ions	-13.8305
▁Aw	-13.8309
▁Soph	-13.8311
▁550	-13.8315
▁Lil	-13.8321
erly	-13.8332
▁Brah	-13.8335
illing	-13.8341
nata	-13.8343
ova	-13.8348
▁Pav	-13.8349
gia	-13.8351
ites	-13.8351
ellu	-13.8363
nzo	-13.837
undi	-13.8379
▁Shand	-13.8379
▁Ngụ	-13.8387
▁trư	-13.8388
KO	-13.8389
▁Daw	-13.8394
▁Hind	-13.8396
rell	-13.8397
ullin	-13.8406
ẳ	-13.8414
▁Mauri	-13.8426
▁Blog	-13.8432
▁Ư	-13.8433
TS	-13.8443
dine	-13.8447
▁Sharm	-13.8455
▁Hum	-13.8458
quin	-13.8464
ngar	-13.8465
ượ	-13.8467
▁trồ	-13.8468
vak	-13.8473
▁VI	-13.8475
▁Bibl	-13.8475
▁Shephe	-13.8479
▁Jorge	-13.8488
Andrea	-13.8488
À	-13.8488
project	-13.8488
Colomb	-13.8488
Tech	-13.8491
PT	-13.8491
Arthu	-13.8493
Israel	-13.8493
Trung	-13.8493
▁muỗ	-13.8493
2008	-13.8493
▁Blak	-13.8493
động	-13.8493
life	-13.8494
▁Dah	-13.8494
Mari	-13.8494
▁ứ	-13.8495
udd	-13.8496
bạn	-13.8496
Bird	-13.8498
phê	-13.8498
CK	-13.8498
▁Stock	-13.8506
etwork	-13.8507
entl	-13.8508
▁Clare	-13.851
tress	-13.8511
▁Woods	-13.8513
luja	-13.8514
Sáu	-13.8514
roe	-13.8515
phần	-13.8516
Rev	-13.8516
▁Charle	-13.8517
▁Money	-13.8517
▁Tunis	-13.8519
ween	-13.8523
▁Rosa	-13.8523
▁Mandel	-13.8523
▁wiki	-13.8524
▁sỏ	-13.8524
liss	-13.8524
ollywo	-13.8525
▁Valenti	-13.8525
▁carb	-13.8525
▁Pleist	-13.8526
aswam	-13.8526
exicograph	-13.8526
lfs	-13.8526
Ù	-13.8526
▁Adolf	-13.8526
▁Alessandr	-13.8526
▁Arduino	-13.8526
▁Bamiyan	-13.8526
▁Caledonia	-13.8526
▁Citizen	-13.8526
▁Flintstone	-13.8526
▁Gerhard	-13.8526
▁Hitchcock	-13.8526
▁Humphrey	-13.8526
▁Ishi	-13.8526
▁Islam	-13.8526
▁Jetman	-13.8526
▁Krypton	-13.8526
▁Kwabena	-13.8526
▁Lithuan	-13.8526
▁Mairead	-13.8526
▁Medicine	-13.8526
▁PDF	-13.8526
▁Pablo	-13.8526
▁Providenc	-13.8526
▁Resource	-13.8526
▁Siyathemba	-13.8526
▁Skinner	-13.8526
▁Stratford	-13.8526
▁WOW	-13.8526
▁break	-13.8526
▁carbohydrat	-13.8526
▁cricket	-13.8526
▁formaldehyde	-13.8526
▁nhặn	-13.8526
▁ounce	-13.8526
▁pajama	-13.8526
▁sulfate	-13.8526
▁thuât	-13.8526
▁trumpet	-13.8526
	-13.8526
alencia	-13.8526
enschatz	-13.8526
ewild	-13.8526
▁Botox	-13.8526
▁CyAr	-13.8526
▁Dhabi	-13.8526
▁Schrod	-13.8526
▁Schwarz	-13.8526
▁Shankar	-13.8526
▁TCN	-13.8526
▁TEDtalk	-13.8526
▁wug	-13.8526
ASDF	-13.8526
▁1-2-3	-13.8526
▁GCSE	-13.8526
▁Hawke	-13.8526
▁Heffer	-13.8526
▁McFadd	-13.8526
▁Metric	-13.8526
▁Metropoli	-13.8526
▁Narcis	-13.8526
▁Reykjav	-13.8526
▁Tuscany	-13.8526
▁snack	-13.8526
▁starsha	-13.8526
▁99.999	-13.8526
▁Hexan	-13.8526
▁Under	-13.8526
▁Africa	-13.8526
▁Auschwitz	-13.8526
▁Fransisco	-13.8526
▁Pentium	-13.8526
▁Pringle	-13.8526
▁Clint	-13.8526
▁Easy	-13.8526
▁NGH	-13.8526
▁Ultra	-13.8526
▁Braille	-13.8526
▁Hancock	-13.8526
▁Tuft	-13.8526
▁Forrest	-13.8526
▁Humbo	-13.8526
▁Northwest	-13.8526
▁shot	-13.8526
▁Hux	-13.8526
▁Pedro	-13.8526
▁Turkmen	-13.8526
▁Dream	-13.8526
▁Frost	-13.8526
▁Nathali	-13.8526
▁tuyêt	-13.8526
▁Okoll	-13.8526
▁Hutchi	-13.8526
▁IDEO	-13.8526
▁Schaef	-13.8526
▁Shake	-13.8526
▁Malone	-13.8526
▁Rustic	-13.8526
▁TEDxUSC	-13.8526
▁Bihar	-13.8526
▁Promet	-13.8526
▁Stux	-13.8526
bio	-13.8526
strep	-13.8526
▁nacho	-13.8526
▁scrot	-13.8526
▁Kitty	-13.8526
▁Urban	-13.8526
wartz	-13.8526
▁Telecom	-13.8526
▁Verna	-13.8526
▁sapien	-13.8526
▁alpha	-13.8526
▁Gibra	-13.8526
▁Ghos	-13.8526
▁Spider	-13.8526
▁Baobab	-13.8526
▁Otta	-13.8526
▁Fair	-13.8526
Houdin	-13.8526
▁Pavlov	-13.8527
zzar	-13.8527
▁Barcia	-13.8527
▁Hercul	-13.8527
▁Haha	-13.8527
▁Anant	-13.8527
▁Rudy	-13.8527
▁Agra	-13.8527
▁Angr	-13.8527
▁Chaplin	-13.8527
▁Enter	-13.8527
▁Mono	-13.8527
esoth	-13.8527
▁Pearl	-13.8527
▁Penta	-13.8527
mous	-13.8527
▁phospha	-13.8527
▁fusi	-13.8527
warf	-13.8527
▁xentim	-13.8527
▁Boyle	-13.8527
▁IMU	-13.8527
ermont	-13.8527
▁Nature	-13.8527
▁Ballbot	-13.8527
hili	-13.8527
▁Emory	-13.8527
▁996	-13.8527
▁Rider	-13.8528
▁Liver	-13.8528
agadd	-13.8528
▁TEDYou	-13.8528
▁Schwa	-13.8528
▁10-15	-13.8528
▁Nair	-13.8528
▁7.6	-13.8528
Get	-13.8528
▁Waal	-13.8528
▁Andra	-13.8528
▁Production	-13.8528
▁Fiore	-13.8528
▁Hobb	-13.8528
▁Giudi	-13.8529
EB	-13.8529
▁nanomet	-13.8529
▁Fark	-13.8529
▁Ritz	-13.8529
▁1812	-13.8529
▁Shuk	-13.8529
elve	-13.853
▁Ludwi	-13.853
▁Sadow	-13.853
mega	-13.853
▁Oak	-13.853
▁Chihu	-13.853
sterda	-13.853
▁Skol	-13.853
▁Elah	-13.853
XD	-13.8531
Ông	-13.8531
▁Chaos	-13.8531
rash	-13.8531
eleg	-13.8531
▁Ắ	-13.8532
▁Ế	-13.8532
▁Pete	-13.8532
▁multi	-13.8532
▁Oxf	-13.8532
▁Zak	-13.8532
▁6,5	-13.8533
▁Borde	-13.8533
▁Maker	-13.8533
▁FI	-13.8533
▁àoo	-13.8533
ewer	-13.8534
▁Fres	-13.8534
,10	-13.8534
hites	-13.8534
▁Knop	-13.8535
▁Force	-13.8535
▁Amen	-13.8535
▁3500	-13.8535
▁Swaz	-13.8535
▁WI	-13.8535
▁2.4	-13.8535
▁Slu	-13.8535
fj	-13.8536
▁Entrop	-13.8536
▁Court	-13.8536
▁Jeh	-13.8537
▁Mitch	-13.8537
▁Slav	-13.8537
▁Bluegrass	-13.8538
▁Passa	-13.8538
▁Issa	-13.8538
alal	-13.8538
▁Micro	-13.8539
ahir	-13.8539
▁260	-13.8539
▁Sack	-13.8539
stine	-13.854
▁Bros	-13.854
▁Hilton	-13.854
eace	-13.854
enya	-13.854
eatle	-13.854
▁Kras	-13.8541
▁Jaipu	-13.8542
▁07	-13.8542
▁With	-13.8542
▁1.9	-13.8542
▁Hunts	-13.8542
bane	-13.8543
▁Jain	-13.8543
▁Mess	-13.8543
strict	-13.8543
▁Ăng	-13.8544
▁Suss	-13.8544
▁Stro	-13.8544
▁Network	-13.8544
▁Schell	-13.8544
▁Dass	-13.8544
▁Heer	-13.8545
▁Wit	-13.8545
▁Beer	-13.8545
▁Sheep	-13.8546
▁glu	-13.8546
▁PG	-13.8547
▁Charm	-13.8547
▁Alle	-13.8547
andina	-13.8547
▁sonicat	-13.8547
▁four	-13.8547
▁Harbi	-13.8548
▁Michoacan	-13.8548
plat	-13.8549
woa	-13.8549
8,7	-13.855
▁Reinh	-13.855
▁WM	-13.855
3,7	-13.855
gado	-13.855
vita	-13.855
▁Shige	-13.8551
▁Economic	-13.8552
▁Taka	-13.8553
▁135	-13.8553
▁bươ	-13.8554
▁Lomb	-13.8554
làm	-13.8555
elit	-13.8555
ucks	-13.8555
CLU	-13.8555
▁Nige	-13.8555
▁Bront	-13.8556
ezza	-13.8557
▁Boh	-13.8557
▁Goro	-13.8557
▁titan	-13.8557
san	-13.8558
▁Sabia	-13.8558
▁132	-13.8558
nect	-13.856
▁rupee	-13.856
▁MI	-13.856
▁para	-13.856
-12	-13.8561
▁Mies	-13.8561
▁Padd	-13.8562
▁Colomb	-13.8562
▁Lenno	-13.8562
▁Vig	-13.8563
▁project	-13.8563
▁Niger	-13.8563
▁Holly	-13.8564
▁117	-13.8565
▁Jorgen	-13.8565
▁Theme	-13.8566
huynh	-13.8567
IP	-13.8568
▁Brett	-13.8568
▁1,8	-13.8568
▁Túi	-13.8569
▁Bela	-13.8571
clav	-13.8571
▁Ete	-13.8574
▁Space	-13.8574
▁burn	-13.8574
▁Pythago	-13.8575
nison	-13.8575
▁Weh	-13.8575
▁đẵ	-13.8576
▁01	-13.8576
▁Nep	-13.8576
sor	-13.8576
▁Ahh	-13.8577
▁Lemm	-13.8578
▁104	-13.8579
▁Athen	-13.858
▁Schum	-13.858
-8	-13.8581
▁ghềnh	-13.8581
hệ	-13.8582
▁Bom	-13.8585
▁Appalachian	-13.8586
▁Lyd	-13.8587
▁hế	-13.8588
opath	-13.8589
▁Tate	-13.8593
ups	-13.8594
▁3.2	-13.8594
▁Diffe	-13.8596
▁Grim	-13.8597
▁Kip	-13.8598
▁Copa	-13.8598
eyla	-13.8601
▁trans	-13.8603
▁2,4	-13.8603
▁Crock	-13.8603
▁Side	-13.8606
▁beta	-13.8607
▁Acheul	-13.8608
▁CN	-13.8611
ida	-13.8612
ease	-13.8616
▁methan	-13.8616
▁0.3	-13.8617
▁Egg	-13.8619
▁pao	-13.8623
exe	-13.8623
▁Adin	-13.8627
junk	-13.8628
▁Jou	-13.8628
▁Inc	-13.8628
PLA	-13.8629
▁Greenp	-13.8633
apoli	-13.8634
ashimi	-13.8635
lack	-13.8637
▁Neuron	-13.8638
▁Ske	-13.8639
yaw	-13.864
▁Maha	-13.8641
đây	-13.8642
▁Nay	-13.8646
▁Yam	-13.8646
hant	-13.8646
▁Voda	-13.8648
▁Annan	-13.865
▁Sharp	-13.8651
▁Bald	-13.8651
▁Eddi	-13.8651
vào	-13.8654
▁Pari	-13.8655
fra	-13.8658
▁Kurd	-13.8659
▁Sharma	-13.8661
ocal	-13.8664
▁Cas	-13.8665
iềng	-13.8666
▁Smol	-13.8667
crat	-13.8669
▁SH	-13.867
▁Baba	-13.8672
▁Bry	-13.8672
rush	-13.8674
▁Oct	-13.8674
Toole	-13.8675
ebo	-13.8676
▁ze	-13.8677
▁Corp	-13.8678
▁CU	-13.8679
▁Scient	-13.8679
▁Nav	-13.868
▁Abi	-13.868
ounde	-13.8681
IDA	-13.8682
utan	-13.8683
hari	-13.8688
▁Swan	-13.8689
▁Rét	-13.8689
▁Phel	-13.8693
▁AA	-13.8694
▁Hero	-13.8696
▁Asa	-13.8697
▁Ign	-13.8702
▁Mw	-13.8706
ổn	-13.871
▁Indian	-13.8717
▁Dev	-13.8719
▁Arav	-13.872
▁Tol	-13.872
▁Tar	-13.872
▁Yến	-13.8725
,25	-13.8726
▁shop	-13.8727
FC	-13.8728
▁Dion	-13.8729
▁đì	-13.8731
nnell	-13.8732
inso	-13.8734
▁thưở	-13.8734
▁Roo	-13.8734
eus	-13.8744
759	-13.8746
eek	-13.875
▁Amo	-13.8751
vind	-13.8764
trea	-13.8777
▁Advi	-13.878
▁Roh	-13.8781
▁AN	-13.8782
▁đản	-13.8782
skin	-13.8783
agua	-13.8788
etri	-13.8795
▁Samar	-13.8796
ffic	-13.8797
olida	-13.8798
▁xịn	-13.88
▁Hem	-13.8813
▁vun	-13.8816
mud	-13.8818
andor	-13.8822
dot	-13.8825
▁Tomas	-13.8826
eloit	-13.883
umar	-13.8838
ID	-13.8839
race	-13.8839
La	-13.8842
obson	-13.8849
wish	-13.885
beca	-13.8851
▁Duma	-13.8852
▁key	-13.8856
▁Mund	-13.8857
▁Naga	-13.8861
enge	-13.8863
ious	-13.8867
▁Sanj	-13.8868
ienne	-13.887
▁Arcad	-13.8874
FAR	-13.8876
▁Chate	-13.8877
ull	-13.8881
▁Ado	-13.8884
irma	-13.8893
▁Wino	-13.8897
▁Pot	-13.8898
Blooming	-13.8899
epper	-13.8903
▁comp	-13.8908
▁Budw	-13.8908
WF	-13.8912
02	-13.8918
▁Carlo	-13.892
scot	-13.8921
▁ster	-13.8928
jit	-13.8931
▁Phar	-13.8933
mage	-13.8935
uss	-13.894
▁Võ	-13.8941
gato	-13.8949
▁Twin	-13.8951
dmund	-13.8955
olia	-13.8959
▁han	-13.8962
▁Musa	-13.8968
Uy	-13.8969
arbor	-13.8977
apt	-13.8978
aven	-13.8988
logger	-13.8991
▁Terra	-13.8999
▁Krug	-13.9001
▁Marin	-13.9002
▁Mam	-13.9003
kra	-13.9004
olbe	-13.901
▁Ic	-13.9012
▁Pers	-13.9027
▁Nak	-13.9029
▁Michaela	-13.9032
dit	-13.9041
▁casset	-13.9041
▁one	-13.9049
metri	-13.9061
hiện	-13.9065
▁met	-13.9068
▁Barn	-13.9077
▁Rees	-13.9089
ake	-13.909
hoe	-13.9092
▁189	-13.9094
yder	-13.9099
▁Gala	-13.9101
▁mile	-13.9105
▁Kent	-13.911
▁Gul	-13.9112
▁Bave	-13.912
rèm	-13.913
▁Bab	-13.914
▁Sey	-13.914
▁Superma	-13.9141
ds	-13.9154
mát	-13.9173
ubli	-13.9176
RT	-13.9184
Nó	-13.9187
ON	-13.919
▁Lest	-13.9249
kow	-13.9257
cKin	-13.926
▁Kee	-13.9269
oid	-13.9281
LS	-13.9282
▁Zaha	-13.93
▁Belle	-13.9302
side	-13.9306
▁Vod	-13.9327
▁Archiv	-13.9328
▁Lea	-13.934
▁162	-13.9345
ourt	-13.9346
▁Blan	-13.9354
ations	-13.9364
▁Andrea	-13.937
ugg	-13.9378
▁Tap	-13.9389
▁Ps	-13.9392
PU	-13.9392
▁Palme	-13.9397
▁Cay	-13.94
▁Dami	-13.9404
wo	-13.9416
▁Reggi	-13.9423
▁gal	-13.9425
down	-13.9428
ECT	-13.9428
atchi	-13.9437
▁Ké	-13.9443
▁Spect	-13.9478
▁xôn	-13.9482
vil	-13.949
▁nhiê	-13.9492
rex	-13.9507
▁Mart	-13.9521
▁Fly	-13.9525
▁Kaland	-13.9526
▁Toa	-13.9534
lif	-13.954
▁Ede	-13.9546
▁rú	-13.9547
▁End	-13.9565
eir	-13.957
▁Gro	-13.9581
▁Tippe	-13.9595
▁Thác	-13.9603
chet	-13.9606
hekel	-13.9606
ghiệm	-13.9612
▁Oma	-13.9615
yện	-13.9618
▁Bud	-13.9626
zuk	-13.9633
▁-1	-13.9654
alwar	-13.969
stati	-13.9691
elde	-13.9703
▁Kang	-13.9735
orner	-13.9747
UMB	-13.9749
kim	-13.9761
hem	-13.9765
▁Plu	-13.9782
▁Cướ	-13.9792
▁Eno	-13.9795
▁Tốn	-13.9814
ush	-13.9817
gra	-13.9827
aya	-13.9835
▁Matter	-13.9879
▁Smil	-13.9879
▁McC	-13.9886
▁AID	-13.9919
▁micr	-13.9932
▁Eige	-13.9933
ivi	-13.9941
▁Southam	-13.9974
▁Monte	-13.998
▁From	-13.9985
77	-14.0005
▁Exc	-14.0037
olin	-14.0057
▁Conne	-14.0059
pack	-14.0071
can	-14.0071
ami	-14.0079
▁04	-14.0103
▁Fre	-14.0117
▁Mille	-14.0122
erner	-14.0124
▁Ex	-14.0126
llum	-14.0137
eise	-14.0138
▁Macke	-14.0139
▁Fit	-14.0142
Rex	-14.0149
▁Ima	-14.0158
▁Mack	-14.0173
onne	-14.0185
▁pro	-14.0189
▁Chino	-14.0197
▁Malin	-14.0208
▁Ope	-14.0228
tarter	-14.0229
ose	-14.0239
▁Wha	-14.0247
eez	-14.0293
▁Hughe	-14.0294
▁rượ	-14.0304
▁limb	-14.032
▁Barna	-14.0335
ben	-14.0338
PI	-14.0353
erfa	-14.0353
rườ	-14.0387
▁Vé	-14.0394
▁Won	-14.0394
mir	-14.0404
▁Carli	-14.0406
lier	-14.0414
less	-14.0414
agh	-14.0418
▁Esta	-14.0424
kav	-14.044
▁Pale	-14.0441
lhou	-14.0448
enda	-14.0454
▁Wolfe	-14.0465
ife	-14.0494
▁Chin	-14.0512
kyd	-14.0525
▁Cer	-14.0527
asel	-14.053
81	-14.0548
▁864	-14.0554
lla	-14.0571
uhahaha	-14.0591
▁Cad	-14.0596
99	-14.0606
74	-14.0636
ST	-14.0653
ardo	-14.0668
▁Gev	-14.0699
▁Buch	-14.07
▁Hog	-14.0702
▁Spe	-14.0702
atter	-14.0717
laza	-14.0747
otor	-14.0775
niz	-14.078
caro	-14.0785
▁Lian	-14.0803
▁Bọ	-14.0805
▁174	-14.0813
onic	-14.0844
▁Poll	-14.0852
▁Arb	-14.0854
rvey	-14.0871
▁Mode	-14.0888
▁Shai	-14.0895
▁Jes	-14.0898
▁Chan	-14.0901
ally	-14.0921
asub	-14.0922
▁khoắn	-14.0926
▁Lộ	-14.0939
ncer	-14.0941
▁Burr	-14.0944
▁Til	-14.0955
main	-14.0959
book	-14.0961
▁Kohl	-14.0988
obs	-14.0996
eigh	-14.1004
▁Cob	-14.1004
rado	-14.1005
▁Dor	-14.1006
hine	-14.1014
arts	-14.1023
▁Ow	-14.1035
3000	-14.1051
▁Ada	-14.1061
▁Bơ	-14.1063
▁UA	-14.1074
▁Fel	-14.1088
▁Donne	-14.1089
▁165	-14.1127
tyl	-14.1133
▁Fol	-14.1137
▁Fall	-14.1153
anza	-14.1161
done	-14.1174
▁hormon	-14.1179
oup	-14.1183
▁Bụ	-14.119
▁Magn	-14.1191
▁Klin	-14.1196
▁UNI	-14.1222
nj	-14.1224
alin	-14.1229
▁Kib	-14.1229
▁Inge	-14.1234
▁Tố	-14.124
uds	-14.1246
▁Der	-14.1252
cif	-14.1258
▁Route	-14.1264
rian	-14.1264
▁4,	-14.1266
▁think	-14.1269
▁Mirr	-14.1272
▁TEDxB	-14.1272
zo	-14.1273
enne	-14.1277
▁Bá	-14.1283
▁Hayd	-14.1292
▁Viv	-14.1293
▁Solei	-14.1296
ndis	-14.1299
arte	-14.13
app	-14.1306
hita	-14.1314
▁Kra	-14.1321
hía	-14.1322
saw	-14.1326
iller	-14.1334
▁Blogg	-14.136
handra	-14.1361
ques	-14.1384
dorf	-14.1388
áz	-14.1392
cả	-14.1397
▁SO	-14.1404
-3	-14.1423
oku	-14.1425
uýt	-14.1429
acs	-14.144
je	-14.144
paca	-14.144
Pe	-14.1449
▁112	-14.1454
sian	-14.1461
▁Mein	-14.1472
▁Fro	-14.1491
ube	-14.1497
ạ	-14.1499
nside	-14.1507
▁LE	-14.152
▁Sebasti	-14.1567
Dodi	-14.1578
oler	-14.158
under	-14.1582
aroun	-14.1585
▁Rom	-14.1591
▁Raj	-14.1603
raw	-14.1605
-7	-14.1627
wed	-14.163
▁Pap	-14.1631
▁Thạc	-14.1631
dia	-14.1644
▁Mr	-14.1649
harata	-14.1656
beat	-14.1666
▁Jov	-14.1668
▁2,	-14.1689
▁trứ	-14.1691
▁Cow	-14.1701
▁myc	-14.1717
umbl	-14.1718
▁Ches	-14.172
▁Bhar	-14.1721
rene	-14.1728
56	-14.173
rli	-14.1732
Elys	-14.1734
▁Bio	-14.1743
show	-14.1745
cketma	-14.1747
▁Pel	-14.175
▁Speed	-14.1751
alum	-14.1757
▁CS	-14.1758
eras	-14.1761
82	-14.1762
▁Hawa	-14.1763
burger	-14.1765
▁Tea	-14.1765
bec	-14.1767
▁Bute	-14.1768
rava	-14.1771
▁quẹ	-14.1774
▁nướ	-14.1774
aiku	-14.1776
▁Toni	-14.1779
lays	-14.178
byte	-14.1783
▁thừ	-14.1789
found	-14.179
▁Tab	-14.179
▁Cle	-14.181
aign	-14.1811
▁Serg	-14.1813
ớc	-14.1816
Ậ	-14.1816
mark	-14.1816
pil	-14.1816
NY	-14.182
Pix	-14.1821
▁136	-14.1821
▁vư	-14.1822
trans	-14.1823
Walk	-14.1823
78	-14.1824
bisa	-14.1824
India	-14.1824
Ê	-14.1825
Jacob	-14.1825
bíp	-14.1825
gov	-14.1826
Jordan	-14.1826
Tri	-14.1826
2013	-14.1826
MRI	-14.1826
Rock	-14.1826
cacbon	-14.1826
Carl	-14.1826
Canada	-14.1826
kèm	-14.1826
York	-14.1826
Ý	-14.1826
copy	-14.1827
2012	-14.1827
2006	-14.1827
triệu	-14.1827
Wire	-14.1827
đổi	-14.1827
titan	-14.1828
Sina	-14.1828
Iran	-14.1828
City	-14.1829
wich	-14.1829
▁quằn	-14.1829
▁129	-14.1829
2007	-14.1832
đặc	-14.1833
Ạ	-14.1834
vì	-14.1834
được	-14.1834
latt	-14.1834
lợi	-14.1835
▁Gara	-14.1835
hemo	-14.1835
▁Tibet	-14.1835
ldt	-14.1836
đã	-14.1836
far	-14.1837
Paris	-14.1838
Mỹ	-14.184
NT	-14.184
▁205	-14.184
CU	-14.1842
▁Kas	-14.1842
▁Pors	-14.1844
▁Madh	-14.1844
lưới	-14.1845
,19	-14.1845
▁14000	-14.1847
witter	-14.1849
Ấn	-14.185
xel	-14.185
llik	-14.185
hurch	-14.1851
arco	-14.1852
▁fear	-14.1853
▁Scan	-14.1853
đồng	-14.1853
▁Friend	-14.1854
itamin	-14.1854
quare	-14.1854
▁neutr	-14.1855
ickle	-14.1855
▁Othe	-14.1855
▁Gle	-14.1856
ealth	-14.1857
▁nhữn	-14.1857
olita	-14.1858
▁Heath	-14.1858
▁Benjam	-14.1858
shburn	-14.1858
▁Hodg	-14.1858
▁Otto	-14.1859
angelo	-14.1859
▁polyme	-14.1859
▁Wald	-14.1859
nsulin	-14.1859
▁Mount	-14.1859
▁Olymp	-14.1859
▁Alaveteli	-14.1859
ä	-14.1859
▁Kunst	-14.1859
▁Baumgar	-14.1859
appiness	-14.1859
abushka	-14.1859
child	-14.1859
~	-14.1859
Ã	-14.1859
̀	-14.1859
́	-14.1859
Ể	-14.1859
Ự	-14.1859
▁Boswana	-14.1859
▁Botero	-14.1859
▁Bowden	-14.1859
▁Constitución	-14.1859
▁Curiosit	-14.1859
▁Declan	-14.1859
▁Eccles	-14.1859
▁Ezra	-14.1859
▁Garniez	-14.1859
▁Gonzale	-14.1859
▁HTML	-14.1859
▁Hebron	-14.1859
▁Heuser	-14.1859
▁Hobsbaw	-14.1859
▁Inception	-14.1859
▁Ixraen	-14.1859
▁KHÔ	-14.1859
▁Kadinsky	-14.1859
▁Laetitia	-14.1859
▁Letters	-14.1859
▁Libeskind	-14.1859
▁Madonna	-14.1859
▁Magazine	-14.1859
▁Matreyek	-14.1859
▁Mehico	-14.1859
▁Montessori	-14.1859
▁Moussaou	-14.1859
▁Nerve	-14.1859
▁Oppenheim	-14.1859
▁RoboC	-14.1859
▁Robotics	-14.1859
▁Scarlet	-14.1859
▁Tirana	-14.1859
▁Tupperware	-14.1859
▁Tyrannosaur	-14.1859
▁UFO	-14.1859
▁Udaipur	-14.1859
▁Vietnam	-14.1859
▁Vitruvian	-14.1859
▁Woznia	-14.1859
▁argh	-14.1859
▁gradien	-14.1859
Rast	-14.1859
▁Field	-14.1859
▁Gibbon	-14.1859
▁PUMA	-14.1859
▁Wernick	-14.1859
america	-14.1859
pocalyp	-14.1859
▁Berkenstock	-14.1859
▁Chamber	-14.1859
▁Schacht	-14.1859
▁Technolog	-14.1859
▁accordion	-14.1859
▁Alhur	-14.1859
▁Astaire	-14.1859
▁MSN	-14.1859
▁Micronesia	-14.1859
▁Volk	-14.1859
Edmonto	-14.1859
jebr	-14.1859
▁Admira	-14.1859
▁Bambi	-14.1859
▁Fischer	-14.1859
▁Gooseberry	-14.1859
▁Jayant	-14.1859
▁Sadik	-14.1859
▁Shuffle	-14.1859
▁Terkel	-14.1859
flying	-14.1859
▁10,20,30	-14.1859
▁Getty	-14.1859
▁Pursat	-14.1859
thiol	-14.1859
▁Concert	-14.1859
▁Kumb	-14.1859
▁NDD	-14.1859
▁Puli	-14.1859
▁buffet	-14.1859
▁BRIC	-14.1859
▁Phillipines	-14.1859
▁Parsi	-14.1859
▁RoMe	-14.1859
▁chuôt	-14.1859
▁Clause	-14.1859
▁McEw	-14.1859
Housman	-14.1859
▁Maison	-14.1859
Bake	-14.1859
▁Planet	-14.1859
▁SEAL	-14.1859
twoma	-14.1859
▁26.2	-14.1859
efens	-14.1859
▁benzen	-14.1859
,15	-14.1859
▁Dunham	-14.1859
▁Washinton	-14.1859
▁heads	-14.1859
▁Butler	-14.1859
▁Holla	-14.186
ashin	-14.186
▁Amunds	-14.186
▁TEDxHouston	-14.186
▁Tinkering	-14.186
okite	-14.186
▁peso	-14.186
▁Shinola	-14.186
▁Peterborough	-14.186
Channel	-14.186
cycli	-14.186
Âu	-14.186
rigade	-14.186
scape	-14.186
quist	-14.186
▁poli	-14.186
▁plu	-14.186
▁Logan	-14.186
▁talk	-14.186
▁Sokolo	-14.186
▁glyc	-14.186
▁Dawes	-14.186
▁Raq	-14.186
Concord	-14.186
▁Indus	-14.186
▁Obl	-14.186
ikwa	-14.186
▁Cardin	-14.186
▁Ashburn	-14.186
▁ETH	-14.186
▁Prada	-14.186
▁Savannah	-14.186
▁Sevi	-14.186
Clau	-14.1861
▁McGre	-14.1861
▁Ladak	-14.1861
▁Marble	-14.1861
▁Meso	-14.1861
▁ALS	-14.1861
▁Dayton	-14.1861
PER	-14.1861
▁Equa	-14.1861
hell	-14.1861
▁Afra	-14.1861
▁Gucci	-14.1861
hakti	-14.1861
▁Inver	-14.1861
▁Dimit	-14.1861
▁Coleman	-14.1861
▁Nirenber	-14.1861
▁elip	-14.1861
▁nịt	-14.1861
SEA	-14.1861
aisal	-14.1861
▁double	-14.1861
▁Engl	-14.1862
shak	-14.1862
akash	-14.1862
ictionar	-14.1862
▁ISS	-14.1862
▁1955	-14.1862
øre	-14.1862
▁Lynch	-14.1862
▁Fight	-14.1862
▁Seb	-14.1863
▁Steel	-14.1863
▁Place	-14.1863
Pinn	-14.1863
Aquil	-14.1864
dẫn	-14.1864
rget	-14.1864
▁stick	-14.1864
▁Mariner	-14.1864
Harmon	-14.1864
▁Piarc	-14.1864
▁6,8	-14.1864
izon	-14.1865
▁Popula	-14.1865
▁axon	-14.1865
▁Dench	-14.1865
lobal	-14.1865
▁Mute	-14.1865
▁Kirsten	-14.1865
gras	-14.1866
▁Baker	-14.1866
▁Legen	-14.1866
anthrop	-14.1866
▁LÀ	-14.1866
adian	-14.1866
▁Guin	-14.1866
▁Seko	-14.1866
▁Gafi	-14.1866
▁SUN	-14.1866
▁Charit	-14.1866
▁Ike	-14.1866
▁GHz	-14.1867
▁Four	-14.1867
▁3-5	-14.1867
▁Ginger	-14.1867
▁Heide	-14.1867
ruct	-14.1867
▁Gru	-14.1867
▁Wikileak	-14.1868
▁2.9	-14.1868
ergo	-14.1868
Xon	-14.1868
▁Boing	-14.1868
▁Holme	-14.1869
GB	-14.1869
▁Pud	-14.1869
▁NPR	-14.187
▁Round	-14.187
▁Brod	-14.187
▁Metro	-14.187
obacter	-14.1871
▁Vac	-14.1871
▁Portal	-14.1871
▁Kafka	-14.1871
▁8.5	-14.1872
ulph	-14.1872
yrann	-14.1872
0-60	-14.1872
ynthe	-14.1872
oughs	-14.1873
ograph	-14.1873
ucci	-14.1873
▁Give	-14.1873
enb	-14.1873
▁Hawai	-14.1873
▁3,4	-14.1874
▁nư	-14.1874
▁Eis	-14.1875
▁Work	-14.1875
itzh	-14.1875
▁Spel	-14.1875
▁XY	-14.1875
▁Dji	-14.1875
▁Live	-14.1876
▁Pets	-14.1876
▁hash	-14.1876
▁Maka	-14.1877
▁Aden	-14.1877
utter	-14.1877
▁Tivi	-14.1877
▁Rainbow	-14.1877
▁forma	-14.1877
chrom	-14.1878
▁Micha	-14.1878
▁Cove	-14.1878
▁581	-14.1878
▁Ear	-14.1878
▁Barrow	-14.1878
jack	-14.1879
▁Wester	-14.1879
▁Shia	-14.1879
send	-14.188
▁UK	-14.188
▁Zaca	-14.188
▁Autom	-14.188
oots	-14.1881
▁Buff	-14.1881
owie	-14.1881
lone	-14.1881
▁Blend	-14.1881
theo	-14.1882
▁Shim	-14.1882
yatt	-14.1882
▁Foot	-14.1883
rise	-14.1883
▁Curz	-14.1883
▁giêng	-14.1883
▁Runn	-14.1883
▁Amr	-14.1883
gara	-14.1884
HẠ	-14.1885
▁Vick	-14.1885
odia	-14.1885
▁Gate	-14.1887
andwich	-14.1887
ankof	-14.1887
▁TEDX	-14.1887
tkin	-14.1887
cock	-14.1888
zhen	-14.1888
▁2300	-14.1888
▁Mind	-14.1889
▁Stri	-14.189
shaw	-14.189
▁Fellows	-14.189
▁Kuh	-14.189
▁Barc	-14.1891
▁Hook	-14.1893
Drive	-14.1893
dni	-14.1893
▁Smoot	-14.1893
▁inter	-14.1894
DAR	-14.1894
▁app	-14.1894
▁Zulu	-14.1894
▁beat	-14.1895
▁acet	-14.1895
▁Dum	-14.1896
▁111	-14.1896
▁Hid	-14.1897
▁Sass	-14.1897
▁mass	-14.1898
▁RF	-14.1899
▁8.2	-14.1899
đan	-14.19
▁Spring	-14.1901
▁Downs	-14.1901
▁Sister	-14.1902
Keys	-14.1902
heikh	-14.1902
▁13.7	-14.1902
boro	-14.1902
▁Soko	-14.1902
bout	-14.1902
▁Male	-14.1902
▁Hod	-14.1903
▁milli	-14.1903
▁Bridge	-14.1903
▁Sequ	-14.1904
▁Arts	-14.1904
▁Herc	-14.1905
▁Ragh	-14.1906
▁KI	-14.1907
▁Quest	-14.1907
▁Tik	-14.1907
▁Eben	-14.1908
▁Mmm	-14.1908
bbe	-14.1911
olina	-14.1912
▁Trib	-14.1913
▁Jura	-14.1913
▁Yes	-14.1913
yrex	-14.1914
tics	-14.1915
▁3,7	-14.1916
▁Hug	-14.1916
dson	-14.192
▁Kard	-14.1921
▁fra	-14.1921
▁DV	-14.1921
▁Lizzi	-14.1924
▁Troll	-14.1924
▁Kraus	-14.1924
roxi	-14.1924
▁je	-14.1925
▁69	-14.1925
▁amar	-14.1925
▁Reve	-14.1926
ngea	-14.1927
▁life	-14.1927
tko	-14.1928
▁Bip	-14.1928
dus	-14.1929
▁Krishnan	-14.1929
founder	-14.1931
,700	-14.1932
▁Muk	-14.1933
▁Urh	-14.1934
▁Hanni	-14.1935
▁Hue	-14.1935
▁Moto	-14.1936
▁Bog	-14.1936
▁Masa	-14.1938
▁Bolin	-14.1938
▁Pix	-14.1939
▁Zw	-14.1939
▁Sog	-14.1939
scott	-14.1939
▁Brigh	-14.1939
eider	-14.194
▁MAN	-14.1941
▁Britta	-14.1941
▁prom	-14.1941
điêu	-14.1942
Up	-14.1942
amer	-14.1944
▁Wak	-14.1946
▁Xê	-14.1947
taple	-14.1948
▁Bres	-14.1948
▁Zim	-14.1949
pez	-14.195
gawa	-14.1952
▁Mulla	-14.1952
▁Tradi	-14.1953
▁Lep	-14.1955
▁Mond	-14.1956
lide	-14.1956
▁Patti	-14.1959
▁Emer	-14.196
wesi	-14.196
yanu	-14.1963
▁Box	-14.1964
▁Alti	-14.1964
▁med	-14.1966
▁Asha	-14.1967
▁Pean	-14.1968
ional	-14.1968
▁Speedo	-14.1968
stori	-14.1975
rens	-14.1975
▁del	-14.1976
▁neon	-14.1976
eave	-14.198
zett	-14.1983
▁rapper	-14.1983
▁Fuku	-14.1986
SP	-14.1989
▁Jum	-14.1993
▁balo	-14.1994
▁aw	-14.1994
▁3.1	-14.1994
insul	-14.1994
eyes	-14.1995
cj	-14.1995
▁Stru	-14.1996
▁Moran	-14.2001
▁inv	-14.2001
việc	-14.2002
▁Herm	-14.2005
▁Arri	-14.2005
istra	-14.2007
ative	-14.2007
EL	-14.201
▁Nic	-14.2012
▁Mili	-14.2013
acki	-14.2014
mite	-14.2014
▁pati	-14.2014
▁Bird	-14.2015
▁jo	-14.202
▁Taz	-14.202
▁Rep	-14.2023
czy	-14.2023
Astor	-14.2024
giây	-14.2025
▁SL	-14.2025
▁Sona	-14.2026
▁Meda	-14.2026
algo	-14.2029
ermin	-14.2029
▁Cata	-14.203
▁Smit	-14.2031
atya	-14.2034
▁Ối	-14.2035
llam	-14.2037
▁Ek	-14.2039
▁LI	-14.2039
▁styr	-14.204
▁Gret	-14.2041
▁RO	-14.2042
evelop	-14.2043
ummi	-14.2045
▁Eba	-14.2045
vere	-14.2046
▁Typ	-14.2047
tech	-14.2048
▁rỗ	-14.2049
alsa	-14.205
▁CR	-14.2054
▁Il	-14.2058
▁Sham	-14.2063
▁but	-14.2063
▁Lali	-14.2064
▁Shy	-14.2069
▁Lucia	-14.2069
của	-14.207
▁Pani	-14.2071
▁Navi	-14.2073
▁Asia	-14.2076
caba	-14.2078
▁Beard	-14.208
▁Sap	-14.2082
itsy	-14.2082
▁Div	-14.2086
▁Phe	-14.2087
Sal	-14.2088
▁Dud	-14.2088
▁Sherr	-14.2088
kinh	-14.2102
▁Taji	-14.2103
▁Tre	-14.2104
▁Wilk	-14.2105
▁Rab	-14.2115
▁Rando	-14.2117
▁Rene	-14.2117
tree	-14.2118
pho	-14.2119
▁Kidro	-14.2119
▁just	-14.2121
▁Kanda	-14.2123
▁1,7	-14.2124
▁Dir	-14.2124
▁Audu	-14.2125
▁Morin	-14.2125
▁Uran	-14.2133
amire	-14.2135
eters	-14.2138
ỉn	-14.2141
▁peni	-14.2142
700	-14.2142
nistan	-14.216
▁Berl	-14.216
mạng	-14.2167
ival	-14.2167
rika	-14.2167
▁Sopho	-14.2174
▁Stat	-14.2176
▁Bit	-14.218
▁Dw	-14.2184
▁BI	-14.2184
▁Institut	-14.2184
▁2,6	-14.2189
▁Moss	-14.2192
▁Sạch	-14.2194
ietz	-14.2194
▁Croa	-14.2194
lanta	-14.2195
jen	-14.2195
▁Brei	-14.2203
▁Koy	-14.2205
kes	-14.2206
▁Zem	-14.2208
8,9	-14.2213
atte	-14.2227
▁2.6	-14.2239
tene	-14.2242
Mo	-14.2242
etw	-14.2246
▁Yorke	-14.2249
▁Hiểm	-14.2249
ggy	-14.2253
▁Ik	-14.2259
▁Modi	-14.226
ulos	-14.2262
▁Flo	-14.2265
abri	-14.2269
▁Zen	-14.227
ylan	-14.2273
tif	-14.2284
▁Bharat	-14.2289
▁Linds	-14.2296
methyl	-14.2298
TN	-14.2301
Zho	-14.2301
▁HD	-14.2302
RO	-14.2307
onzo	-14.2308
Share	-14.2319
▁Bioph	-14.233
▁Part	-14.2336
ravit	-14.2338
▁Amst	-14.2342
obal	-14.2343
▁Chem	-14.2343
sét	-14.2344
▁Kelle	-14.2344
▁Mahl	-14.2347
orm	-14.2352
range	-14.2353
occu	-14.2356
tesh	-14.2356
ece	-14.2356
ichte	-14.2362
nhưng	-14.2363
▁Amis	-14.2382
mines	-14.2383
▁Kurt	-14.2391
lya	-14.2398
nyl	-14.242
▁Sus	-14.2431
hese	-14.2439
rena	-14.2456
oocm	-14.2461
▁Dơi	-14.2466
himi	-14.247
▁Loy	-14.2474
▁Fede	-14.2479
nzia	-14.2483
gang	-14.2496
▁173	-14.2501
▁Hack	-14.2515
▁Core	-14.252
pirin	-14.2522
86	-14.2534
sland	-14.2538
▁Mende	-14.2541
noff	-14.2549
▁Hick	-14.2557
▁Cava	-14.2561
afal	-14.2569
▁Og	-14.2571
band	-14.2576
TAR	-14.2588
▁Kem	-14.2589
4.8	-14.2591
▁Medica	-14.2594
hun	-14.2594
later	-14.2597
late	-14.2599
▁Lek	-14.26
▁Seve	-14.2606
▁Kite	-14.2608
▁Ush	-14.2618
▁Polo	-14.263
rugge	-14.2638
999	-14.2649
ste	-14.265
▁Tier	-14.2659
▁Schwartzber	-14.2667
▁Harar	-14.2671
▁mít	-14.2671
ssi	-14.2676
wis	-14.268
aps	-14.2682
eeve	-14.269
▁Hara	-14.2714
▁Elk	-14.2717
otti	-14.2735
▁Kur	-14.2736
ando	-14.2738
anji	-14.274
▁Hank	-14.2742
876	-14.2745
dle	-14.2759
▁Audi	-14.2768
▁Fallo	-14.278
cỡ	-14.2781
▁Hour	-14.2825
▁Gadd	-14.2826
lke	-14.2827
▁Sash	-14.2828
shhh	-14.2838
Kohn	-14.2841
kha	-14.2844
uster	-14.285
41	-14.2859
iske	-14.286
Baptist	-14.2881
▁ngọ	-14.2885
▁Vers	-14.2897
▁dọ	-14.2915
anda	-14.2926
rien	-14.2931
Moral	-14.2936
RAS	-14.294
assel	-14.2948
▁Acho	-14.2956
rend	-14.2956
▁Kere	-14.2961
▁TEDxD	-14.297
▁Loui	-14.2971
▁SBI	-14.2972
pes	-14.2973
Berr	-14.2973
arrel	-14.2981
unner	-14.2985
rnia	-14.3001
trung	-14.3002
▁Roa	-14.3012
ilia	-14.302
▁Kosh	-14.3027
▁Limo	-14.3029
endu	-14.3039
soft	-14.3051
▁Kasu	-14.3068
▁Diam	-14.3087
inse	-14.3089
WE	-14.3091
uyến	-14.3122
8000	-14.3154
éc	-14.3156
utain	-14.3182
▁milim	-14.3189
vor	-14.3193
kee	-14.3203
▁Raf	-14.3211
▁Ast	-14.3219
care	-14.3238
▁Laenn	-14.326
amine	-14.3262
osada	-14.3262
▁Laut	-14.3264
rete	-14.3269
1.5	-14.3304
hahaha	-14.3309
rop	-14.3325
Engels	-14.3329
ashe	-14.335
▁Ord	-14.3366
mö	-14.3371
giá	-14.3377
▁chẵn	-14.3381
▁Limburg	-14.3382
▁Brea	-14.3389
▁Parr	-14.34
▁Liza	-14.3403
ific	-14.3411
bb	-14.3425
dell	-14.3441
sur	-14.3447
utz	-14.3457
orphin	-14.3459
▁Hij	-14.3469
ecl	-14.3504
jal	-14.3512
oj	-14.3527
ugge	-14.357
▁Whi	-14.3574
icken	-14.3578
▁Aj	-14.3585
eve	-14.3591
ilim	-14.3602
LA	-14.3607
-15	-14.3609
▁Tur	-14.3617
wash	-14.3648
▁Michell	-14.3649
ortland	-14.3656
▁Gol	-14.3674
▁Margo	-14.3715
▁Hugh	-14.3722
PS	-14.3726
▁Slo	-14.3769
stas	-14.3776
▁Att	-14.3793
▁Kir	-14.3872
eyer	-14.3876
9,9	-14.3914
itte	-14.3918
▁Prot	-14.3918
▁Made	-14.3923
sound	-14.3926
ried	-14.3937
tyle	-14.3941
▁Milo	-14.3945
MAO	-14.3949
ijo	-14.3961
fis	-14.3968
▁Steine	-14.3985
▁Iss	-14.3985
bal	-14.4015
0	-14.4025
Box	-14.4032
ướn	-14.4032
▁mor	-14.4033
ppl	-14.4041
▁Witte	-14.4041
▁Meh	-14.4045
▁Ville	-14.405
▁Coro	-14.4053
▁Dell	-14.4063
▁PTT	-14.4088
asia	-14.41
restero	-14.4106
erlin	-14.4123
▁Goe	-14.4138
ynsk	-14.4155
SU	-14.4158
▁Tale	-14.4185
▁Sho	-14.4203
elen	-14.4223
▁spa	-14.4231
▁Move	-14.4266
▁Guer	-14.4267
▁Kill	-14.4273
▁rec	-14.4278
TER	-14.4295
▁Fant	-14.4304
euros	-14.434
hhhh	-14.4378
▁Sander	-14.4404
lulo	-14.4405
▁232	-14.4432
▁Sil	-14.4445
mund	-14.4456
,48	-14.4464
yahu	-14.4472
▁Honor	-14.4475
620	-14.4485
▁Shil	-14.4491
uka	-14.4492
▁Lav	-14.4498
Hae	-14.4535
▁Kenn	-14.4545
▁Menin	-14.4559
ETS	-14.456
sevi	-14.4591
dev	-14.4612
pid	-14.4637
gina	-14.4645
adem	-14.4659
▁Aud	-14.4667
▁Idea	-14.4669
rade	-14.467
azari	-14.4696
rov	-14.4707
jaz	-14.4716
SA	-14.4739
▁Wee	-14.476
▁Baf	-14.477
UP	-14.4787
Soon	-14.479
▁Aman	-14.4813
atri	-14.4828
rter	-14.4836
▁Wild	-14.4865
▁Rog	-14.4866
owen	-14.4873
▁380	-14.4877
ứu	-14.4879
▁Tali	-14.4882
▁Caj	-14.4885
▁Lye	-14.4895
spera	-14.4908
lex	-14.4929
fre	-14.4936
▁Horn	-14.4937
▁Baro	-14.4943
▁trươ	-14.4959
▁Khe	-14.4967
rotein	-14.4977
kel	-14.501
cid	-14.5031
híp	-14.5037
amia	-14.505
four	-14.5095
hab	-14.5117
▁Philipp	-14.512
anger	-14.5124
chester	-14.5158
estra	-14.5162
▁Asto	-14.5169
▁Wilde	-14.5172
▁Anta	-14.5205
▁Acc	-14.5211
ppers	-14.522
egen	-14.5221
jar	-14.5253
▁Chớ	-14.5253
agna	-14.5254
gebo	-14.528
cio	-14.534
rganiz	-14.5341
atric	-14.5383
▁Guid	-14.5385
argi	-14.5396
▁Warin	-14.5408
▁Dill	-14.5413
nalis	-14.5424
mpton	-14.544
▁Less	-14.5441
itter	-14.5451
VA	-14.55
▁Mand	-14.5503
kine	-14.5519
▁asp	-14.5547
▁tanag	-14.5549
▁Barric	-14.5591
dhek	-14.5604
nife	-14.5634
ribe	-14.5644
ebr	-14.5653
▁Villa	-14.5662
▁Ox	-14.5683
▁JP	-14.569
▁Dre	-14.5694
▁RA	-14.5695
▁Gris	-14.571
racy	-14.5711
sling	-14.5718
▁Ashe	-14.5724
ante	-14.5732
iji	-14.5742
▁Maf	-14.5761
raf	-14.5764
alact	-14.5765
▁0.4	-14.5793
▁Sad	-14.5802
▁cầ	-14.5813
arney	-14.5849
▁103,0	-14.5873
▁Bor	-14.5878
▁toé	-14.5889
ddle	-14.5892
trix	-14.5895
▁Shar	-14.5896
▁Cell	-14.5945
▁321	-14.598
OE	-14.5985
▁Kab	-14.5989
arko	-14.6008
zil	-14.6027
▁Alc	-14.6035
▁Amb	-14.6043
xeti	-14.6101
Roberts	-14.612
▁Leic	-14.6124
ctoria	-14.613
▁EU	-14.6136
▁Downto	-14.6151
von	-14.6166
▁GP	-14.6175
▁Lew	-14.6178
▁Dob	-14.6179
▁Yor	-14.6225
▁Canal	-14.623
▁RP	-14.6236
▁GC	-14.6249
▁Aka	-14.6257
dsor	-14.6268
▁Egla	-14.6284
▁Nichols	-14.6287
plane	-14.6292
▁Copp	-14.6293
itle	-14.6313
▁Serb	-14.6319
▁Chav	-14.6326
▁Dil	-14.6335
▁Kris	-14.6357
▁370	-14.6359
ambu	-14.6364
clus	-14.6365
▁Kub	-14.6372
AND	-14.6375
▁Gur	-14.638
ondo	-14.6381
ouma	-14.6388
▁Dán	-14.6394
▁Yah	-14.6394
2,2	-14.6404
erick	-14.6411
walk	-14.6414
▁Yea	-14.6435
▁TEDxMid	-14.6452
west	-14.646
rmal	-14.646
wif	-14.6461
sava	-14.6463
sting	-14.6467
elman	-14.6482
ovac	-14.6498
▁Berns	-14.6513
▁Electr	-14.6524
▁Alv	-14.6524
cept	-14.6529
radle	-14.6531
▁AAA	-14.6532
▁320	-14.6533
esters	-14.6542
▁tiê	-14.6542
▁850	-14.6543
▁Kru	-14.655
▁Adv	-14.6552
▁280	-14.6559
▁Just	-14.6572
phia	-14.6578
▁Arca	-14.6583
▁7,	-14.6588
arke	-14.6592
▁183	-14.6597
▁Ruth	-14.66
▁5500	-14.6606
worth	-14.661
▁Tille	-14.6624
▁Mura	-14.6625
arks	-14.6626
omba	-14.6629
AX	-14.6629
▁Glo	-14.6634
lebr	-14.6634
unge	-14.6636
rif	-14.6637
lites	-14.6639
▁Wel	-14.6643
erts	-14.6645
▁Suns	-14.6659
rous	-14.6663
▁RE	-14.6665
▁MIN	-14.6668
▁Bull	-14.6675
▁Ache	-14.6676
elop	-14.6681
▁Tàn	-14.6696
ille	-14.6698
itlin	-14.6701
unity	-14.6706
sphe	-14.6709
auri	-14.6711
sell	-14.6719
AB	-14.6724
▁Appalachia	-14.6724
▁Comm	-14.6731
icodi	-14.6738
Ô	-14.6741
ntana	-14.6743
Dunn	-14.6747
▁8,	-14.6749
▁Diff	-14.6752
idya	-14.6755
gsta	-14.6758
helma	-14.676
▁Spri	-14.6771
▁Denisova	-14.6771
▁Somal	-14.6771
▁Adri	-14.6772
ulian	-14.6773
ainab	-14.6774
▁Johan	-14.6775
arap	-14.6777
Ổ	-14.6777
tche	-14.678
pines	-14.6781
embl	-14.6783
count	-14.6783
lomo	-14.6785
scher	-14.6786
Ấ	-14.6786
▁plexi	-14.6788
▁Ful	-14.679
misin	-14.6793
▁ngườ	-14.6795
igma	-14.6797
▁Ass	-14.6798
▁Levit	-14.6803
chỉ	-14.6803
▁Abe	-14.6804
acy	-14.6807
380	-14.6814
▁Dogg	-14.6814
▁proge	-14.6816
07	-14.6817
Queen	-14.6817
III	-14.6818
Ville	-14.6819
Land	-14.682
Morin	-14.682
Foot	-14.6821
Quest	-14.6821
Stri	-14.6821
Charm	-14.6822
▁Abra	-14.6822
Corp	-14.6822
Ư	-14.6822
Car	-14.6823
▁3.0	-14.6823
Girl	-14.6823
You	-14.6824
Pack	-14.6824
Atlant	-14.6825
1978	-14.6825
Project	-14.6825
Khali	-14.6825
hana	-14.6825
Lind	-14.6825
just	-14.6825
Ơ	-14.6825
Pilot	-14.6825
epo	-14.6825
Master	-14.6826
Prize	-14.6826
Amsterdam	-14.6826
2014	-14.6826
1,2	-14.6826
Cent	-14.6826
Jones	-14.6826
Luc	-14.6826
Angel	-14.6827
Iraq	-14.6827
Thiên	-14.6827
thuế	-14.6827
John	-14.6827
Một	-14.6827
Không	-14.6827
LU	-14.6827
hacker	-14.6827
Well	-14.6827
Khan	-14.6827
House	-14.6828
trở	-14.6828
Gil	-14.6828
Dust	-14.6828
GP	-14.6828
Love	-14.6829
phon	-14.6829
Times	-14.6829
ngoại	-14.6829
đại	-14.6829
Tư	-14.6829
giờ	-14.683
khác	-14.683
Dick	-14.683
FB	-14.683
▁Domini	-14.6831
phạt	-14.6831
elov	-14.6832
II	-14.6832
ván	-14.6833
Kerry	-14.6833
glu	-14.6834
giới	-14.6834
Atti	-14.6834
phenol	-14.6834
đê	-14.6834
polymer	-14.6835
Now	-14.6835
lé	-14.6836
Thậ	-14.6837
▁1.0	-14.6838
▁trố	-14.6838
lass	-14.6838
giống	-14.6839
khause	-14.6839
Aid	-14.6839
▁Kafk	-14.6839
Carme	-14.6839
Arche	-14.6839
rừ	-14.6839
▁giò	-14.684
laj	-14.684
▁Sahar	-14.6842
▁Dora	-14.6842
emia	-14.6842
urste	-14.6845
nbiot	-14.6845
Gri	-14.6845
rine	-14.6845
Tric	-14.6846
Who	-14.6846
Qua	-14.6846
lại	-14.6849
Cô	-14.6849
ambridge	-14.685
Ann	-14.685
đừng	-14.6851
Niel	-14.6852
▁Arno	-14.6853
ssou	-14.6854
▁Auto	-14.6854
plashy	-14.6854
ilver	-14.6855
xám	-14.6855
enic	-14.6856
▁electr	-14.6856
ulle	-14.6856
game	-14.6856
dhis	-14.6857
▁Quixot	-14.6857
LIS	-14.6858
mbie	-14.6858
rchitectur	-14.6858
▁Yugoslav	-14.6858
▁Earl	-14.6858
▁Afgh	-14.6859
Ă	-14.6859
▁4.0	-14.6859
▁Méli	-14.6859
0,1	-14.6859
eble	-14.6859
onven	-14.6859
drenalin	-14.6859
▁Avalokit	-14.6859
zzz	-14.6859
▁Feministing	-14.6859
▁PAWA	-14.6859
▁techno	-14.6859
sachusetts	-14.6859
▁Abbott	-14.6859
▁Apatzi	-14.6859
▁Environment	-14.6859
▁sandw	-14.6859
.............	-14.6859
Dopa	-14.6859
GEN	-14.6859
Thousand	-14.6859
atchidananda	-14.6859
dorp	-14.6859
hydrat	-14.6859
iggledy	-14.6859
nvestigati	-14.6859
orrupt	-14.6859
rhodopsin	-14.6859
{	-14.6859
É	-14.6859
Ó	-14.6859
ë	-14.6859
ć	-14.6859
ƯƠ	-14.6859
ย	-14.6859
ร	-14.6859
่	-14.6859
Ẻ	-14.6859
Ị	-14.6859
Ọ	-14.6859
Ử	-14.6859
▁123456	-14.6859
▁1982-83	-14.6859
▁74.125.226.212	-14.6859
▁Althusser	-14.6859
▁Amedabad	-14.6859
▁Avidian	-14.6859
▁Awesome	-14.6859
▁Baghead	-14.6859
▁BeatJazz	-14.6859
▁Brancusi	-14.6859
▁Cincin	-14.6859
▁Csikszent	-14.6859
▁DaVinc	-14.6859
▁Fahrenheit	-14.6859
▁Fortingall	-14.6859
▁Geogre	-14.6859
▁Hendrix	-14.6859
▁Hotchkiss	-14.6859
▁Humanity	-14.6859
▁Hymalaya	-14.6859
▁Iliad	-14.6859
▁Kashmir	-14.6859
▁Kyrgyz	-14.6859
▁Macedonia	-14.6859
▁Mahishasur	-14.6859
▁Medved	-14.6859
▁Nescaf	-14.6859
▁Olmste	-14.6859
▁Oyesola	-14.6859
▁Patagonia	-14.6859
▁Piazzolla	-14.6859
▁Piccard	-14.6859
▁Pinnacle	-14.6859
▁Polynesia	-14.6859
▁Quebec	-14.6859
▁Rachmanino	-14.6859
▁Rousseff	-14.6859
▁Scholars	-14.6859
▁Schott	-14.6859
▁Seventh	-14.6859
▁Shahara	-14.6859
▁Taberna	-14.6859
▁VocaliD	-14.6859
▁aegypti	-14.6859
▁build	-14.6859
▁djinn	-14.6859
▁geophon	-14.6859
▁ghostbuster	-14.6859
▁glucôzơ	-14.6859
▁lucifer	-14.6859
▁pants	-14.6859
▁puchu	-14.6859
▁white	-14.6859
▁yaodong	-14.6859
	-14.6859
ooooooo	-14.6859
▁Sparta	-14.6859
▁heart	-14.6859
▁3,2	-14.6859
▁Constantin	-14.6859
▁Course	-14.6859
▁Felix	-14.6859
▁Gulfstream	-14.6859
▁Horizon	-14.6859
▁Raffael	-14.6859
▁Zheimer	-14.6859
▁ballad	-14.6859
▁gauge	-14.6859
▁open	-14.6859
▁probiotic	-14.6859
▁synap	-14.6859
rrrrrr	-14.6859
ulldoze	-14.6859
▁Hewlett	-14.6859
▁Raphael	-14.6859
▁Sicil	-14.6859
▁freeflying	-14.6859
▁zzzz	-14.6859
▁Again	-14.6859
▁Bourne	-14.6859
▁Gbla	-14.6859
▁Hutchinson	-14.6859
▁Omenet	-14.6859
▁Tsuki	-14.6859
▁empower	-14.6859
▁Chemistry	-14.6859
Tbilisi	-14.6859
hildhood	-14.6859
ƯỜ	-14.6859
▁1-800-	-14.6859
▁Aeron	-14.6859
▁Alessi	-14.6859
▁Colescott	-14.6859
▁Sequoia	-14.6859
▁artist	-14.6859
▁silde	-14.6859
▁2,70	-14.6859
▁Madureir	-14.6859
▁McGuire	-14.6859
▁Potts	-14.6859
0,2	-14.6859
IỆ	-14.6859
▁Herculano	-14.6859
depend	-14.6859
▁Spok	-14.6859
▁Thoại	-14.6859
ILL	-14.6859
▁Disabilit	-14.6859
Á	-15.6532
Ầ	-15.6819
Ế	-15.6825
Ắ	-15.6825
Ú	-15.6826
Ố	-15.6826
ø	-15.6845
Ệ	-15.6859
®	-15.6859
ï	-15.6859
ñ	-15.6859
ā	-15.6859
Ĩ	-15.6859
Ť	-15.6859
Ỗ	-15.6859
Ớ	-15.6859
Ụ	-15.6859
Ữ	-15.6859
Ỵ	-15.6859
€	-15.6859
Č	-15.6859
Ỉ	-15.6859
£	-16.6174
}	-16.6175
อ	-16.6176
©	-16.6177
Ủ	-16.6178
*	-16.6179
̣	-16.618
Ẩ	-16.6181
⁄	-16.6182
)	-16.6183
=	-16.6184
+	-16.6185
Í	-16.6186
Ừ	-16.6187
$	-16.6188
Ả	-16.6189
Ồ	-16.619
/	-16.6191
!	-16.6192
%	-16.6193
ẩ	-16.6194
ẫ	-16.6195
:	-16.6196
?	-16.6197
ặ	-16.6198
ằ	-16.6199
ắ	-16.62
ă	-16.6201
ậ	-16.6202
â	-16.6203
ấ	-16.6204
ộ	-16.6205
